{
  "version": "1.0",
  "truncation": null,
  "padding": null,
  "added_tokens": [
    {
      "id": 0,
      "content": "<unk>",
      "single_word": false,
      "lstrip": false,
      "rstrip": false,
      "normalized": false,
      "special": true
    },
    {
      "id": 1,
      "content": "<pad>",
      "single_word": false,
      "lstrip": false,
      "rstrip": false,
      "normalized": false,
      "special": true
    },
    {
      "id": 2,
      "content": "<sos>",
      "single_word": false,
      "lstrip": false,
      "rstrip": false,
      "normalized": false,
      "special": true
    },
    {
      "id": 3,
      "content": "<eos>",
      "single_word": false,
      "lstrip": false,
      "rstrip": false,
      "normalized": false,
      "special": true
    },
    {
      "id": 4,
      "content": "<mask>",
      "single_word": false,
      "lstrip": false,
      "rstrip": false,
      "normalized": false,
      "special": true
    }
  ],
  "normalizer": null,
  "pre_tokenizer": {
    "type": "Whitespace"
  },
  "post_processor": null,
  "decoder": null,
  "model": {
    "type": "Unigram",
    "unk_id": null,
    "vocab": [
      [
        "<unk>",
        0.0
      ],
      [
        "<pad>",
        0.0
      ],
      [
        "<sos>",
        0.0
      ],
      [
        "<eos>",
        0.0
      ],
      [
        "<mask>",
        0.0
      ],
      [
        ".",
        -3.200857785679222
      ],
      [
        "이",
        -4.169236151806995
      ],
      [
        ",",
        -4.263958958860705
      ],
      [
        "을",
        -4.504635481469407
      ],
      [
        "에",
        -4.601489924685232
      ],
      [
        "의",
        -4.60428936860689
      ],
      [
        "도",
        -4.734333045692939
      ],
      [
        "가",
        -4.8237336873104955
      ],
      [
        "는",
        -4.862119047300061
      ],
      [
        "를",
        -5.012375435696059
      ],
      [
        "은",
        -5.175836480984353
      ],
      [
        "한",
        -5.206226451017024
      ],
      [
        "수",
        -5.248957748058741
      ],
      [
        "하고",
        -5.300884203146948
      ],
      [
        "고",
        -5.333577952138999
      ],
      [
        "?",
        -5.3905835456479725
      ],
      [
        "로",
        -5.4403403443507585
      ],
      [
        "하는",
        -5.4609271347148916
      ],
      [
        "과",
        -5.472001250640943
      ],
      [
        "지",
        -5.474557860843458
      ],
      [
        "으로",
        -5.528646879483057
      ],
      [
        "만",
        -5.636677194764724
      ],
      [
        "합니다",
        -5.704453450201443
      ],
      [
        "그",
        -5.749825471535475
      ],
      [
        ")",
        -5.777757478171196
      ],
      [
        "할",
        -5.790671826882415
      ],
      [
        "다",
        -5.808703319664483
      ],
      [
        "있는",
        -5.811025357327567
      ],
      [
        "(",
        -5.844556854072305
      ],
      [
        "에서",
        -5.8644247544265244
      ],
      [
        "있습니다",
        -5.865885305630277
      ],
      [
        "입니다",
        -5.900343417227777
      ],
      [
        "해",
        -5.974040951172116
      ],
      [
        "인",
        -6.000505585403577
      ],
      [
        "와",
        -6.00251180283103
      ],
      [
        "나",
        -6.073089244103603
      ],
      [
        "기",
        -6.178779963311756
      ],
      [
        "안",
        -6.191688978133259
      ],
      [
        "하여",
        -6.228309715452186
      ],
      [
        "일",
        -6.233641885564085
      ],
      [
        "서",
        -6.2711612643756975
      ],
      [
        "게",
        -6.342341128570563
      ],
      [
        "전",
        -6.346940615028023
      ],
      [
        "더",
        -6.350804925359604
      ],
      [
        "자",
        -6.353323557001833
      ],
      [
        "시",
        -6.376963570305373
      ],
      [
        "\"",
        -6.391713628802588
      ],
      [
        "...",
        -6.392821153440103
      ],
      [
        "하지",
        -6.411661618820297
      ],
      [
        "1",
        -6.413511310328701
      ],
      [
        "대",
        -6.435962918459531
      ],
      [
        "'",
        -6.456046666771705
      ],
      [
        "제",
        -6.479981922054426
      ],
      [
        "사",
        -6.543146664551363
      ],
      [
        "중",
        -6.589839900448361
      ],
      [
        "등",
        -6.59351260719521
      ],
      [
        "2",
        -6.611071994528105
      ],
      [
        "것",
        -6.626878532101967
      ],
      [
        "된",
        -6.628425203597178
      ],
      [
        "까지",
        -6.634949957191765
      ],
      [
        "해서",
        -6.642251614789556
      ],
      [
        "이런",
        -6.658461212734707
      ],
      [
        "없는",
        -6.669867500619949
      ],
      [
        "대한",
        -6.68050663373295
      ],
      [
        "-",
        -6.700726503485331
      ],
      [
        "해야",
        -6.7093801782147615
      ],
      [
        "면",
        -6.746283273121769
      ],
      [
        "하게",
        -6.7516051382574
      ],
      [
        "하면",
        -6.754997494536109
      ],
      [
        "3",
        -6.75792272630691
      ],
      [
        "저는",
        -6.768725919120044
      ],
      [
        "내",
        -6.773238999888809
      ],
      [
        "들",
        -6.776751206649729
      ],
      [
        "요",
        -6.792402531824992
      ],
      [
        "적",
        -6.792667706016408
      ],
      [
        "그리고",
        -6.819592246904959
      ],
      [
        "주",
        -6.824752927945569
      ],
      [
        "들이",
        -6.829228313488223
      ],
      [
        "왜",
        -6.838336606486999
      ],
      [
        "원",
        -6.83866005638469
      ],
      [
        "것이",
        -6.846832223466988
      ],
      [
        "및",
        -6.8622280474538755
      ],
      [
        "되는",
        -6.886775853698694
      ],
      [
        "거",
        -6.88849353400024
      ],
      [
        "위해",
        -6.8898669867710804
      ],
      [
        "비",
        -6.897481513065342
      ],
      [
        "!",
        -6.91959096925158
      ],
      [
        "많은",
        -6.932788524872919
      ],
      [
        "너무",
        -6.936089135368684
      ],
      [
        "못",
        -6.936564103735407
      ],
      [
        "같은",
        -6.937308080651086
      ],
      [
        "것입니다",
        -6.9383992719119565
      ],
      [
        "라고",
        -6.942522910505881
      ],
      [
        "생각합니다",
        -6.948578771170181
      ],
      [
        "에게",
        -6.950514946338718
      ],
      [
        "부",
        -6.973859027428109
      ],
      [
        "어",
        -6.977401204450661
      ],
      [
        "/",
        -6.983203378417842
      ],
      [
        "구",
        -6.991791862862314
      ],
      [
        "라",
        -6.996137532478404
      ],
      [
        "되어",
        -6.998559612086776
      ],
      [
        "하지만",
        -7.003225528391132
      ],
      [
        "잘",
        -7.009750939902855
      ],
      [
        "정",
        -7.011719262885704
      ],
      [
        "때",
        -7.0271515990368165
      ],
      [
        "건",
        -7.034658114091734
      ],
      [
        "성",
        -7.038737730569009
      ],
      [
        "것은",
        -7.043830418411904
      ],
      [
        "이나",
        -7.04926387846648
      ],
      [
        "한다",
        -7.058830396455585
      ],
      [
        "%",
        -7.062301454849257
      ],
      [
        "상",
        -7.067668515744678
      ],
      [
        "우리",
        -7.069074339983063
      ],
      [
        "없습니다",
        -7.0695462248642436
      ],
      [
        "지금",
        -7.07514375348698
      ],
      [
        "국민",
        -7.089052414838587
      ],
      [
        "모든",
        -7.09295261194568
      ],
      [
        "라는",
        -7.096984258603113
      ],
      [
        "말",
        -7.1120199735776986
      ],
      [
        "동",
        -7.112234320822807
      ],
      [
        "아",
        -7.115002146861704
      ],
      [
        "하며",
        -7.115676370574883
      ],
      [
        "제가",
        -7.118485311070822
      ],
      [
        "후",
        -7.1217322919066905
      ],
      [
        "세",
        -7.123666694442633
      ],
      [
        "부터",
        -7.133430086930778
      ],
      [
        "야",
        -7.139402930400438
      ],
      [
        "또한",
        -7.140095122263352
      ],
      [
        "다른",
        -7.143262978960156
      ],
      [
        "정말",
        -7.14924136008926
      ],
      [
        "선",
        -7.149633578537387
      ],
      [
        "진",
        -7.1567917129891825
      ],
      [
        "저",
        -7.156852426706653
      ],
      [
        "장",
        -7.159110598045535
      ],
      [
        "때문에",
        -7.161458146368931
      ],
      [
        "asdfasdfasdfasdf",
        -7.163470579924605
      ],
      [
        "법",
        -7.168074274075723
      ],
      [
        "현재",
        -7.183210991062175
      ],
      [
        "대한민국",
        -7.183374757069
      ],
      [
        "신",
        -7.185962502871927
      ],
      [
        "4",
        -7.203386547403401
      ],
      [
        "될",
        -7.209791824379392
      ],
      [
        "많이",
        -7.2236322799049795
      ],
      [
        "것을",
        -7.224156979578414
      ],
      [
        "화",
        -7.225821391408161
      ],
      [
        "~",
        -7.22788176242635
      ],
      [
        "없이",
        -7.242350034668865
      ],
      [
        "되고",
        -7.246282291295751
      ],
      [
        "하",
        -7.246518954343287
      ],
      [
        "보다",
        -7.250964601549118
      ],
      [
        "생각",
        -7.257820566762678
      ],
      [
        "있다",
        -7.263385346686938
      ],
      [
        "여",
        -7.26678540126133
      ],
      [
        "조",
        -7.276407477409487
      ],
      [
        "들은",
        -7.2940342716949225
      ],
      [
        "단",
        -7.295748547608342
      ],
      [
        "당",
        -7.309780187534903
      ],
      [
        "또",
        -7.316973605454534
      ],
      [
        "않고",
        -7.327694095024542
      ],
      [
        "이상",
        -7.327961046934243
      ],
      [
        "재",
        -7.338019703378844
      ],
      [
        "보",
        -7.339488847692454
      ],
      [
        "5",
        -7.345503440904022
      ],
      [
        "바랍니다",
        -7.351790668209139
      ],
      [
        "국가",
        -7.353698141903109
      ],
      [
        "위한",
        -7.354971629893326
      ],
      [
        "하기",
        -7.367361447385218
      ],
      [
        "적인",
        -7.3735863551701755
      ],
      [
        "두",
        -7.38151657963072
      ],
      [
        "했습니다",
        -7.390709808856366
      ],
      [
        "며",
        -7.391721839250261
      ],
      [
        "개",
        -7.396652058924495
      ],
      [
        "한다고",
        -7.40303343228879
      ],
      [
        "치",
        -7.4041556124511825
      ],
      [
        "이렇게",
        -7.404994260349529
      ],
      [
        ":",
        -7.408028722052562
      ],
      [
        "좀",
        -7.408832233849694
      ],
      [
        "차",
        -7.411684435673564
      ],
      [
        "소",
        -7.414551908167708
      ],
      [
        "아니라",
        -7.421107874094057
      ],
      [
        "보고",
        -7.427537843928324
      ],
      [
        "돈",
        -7.430751479238795
      ],
      [
        "이라는",
        -7.434755940128056
      ],
      [
        "살",
        -7.437995930397813
      ],
      [
        "위",
        -7.440282113617798
      ],
      [
        "아닌",
        -7.4424341681558825
      ],
      [
        "그런",
        -7.448088468402007
      ],
      [
        "되지",
        -7.449361135365647
      ],
      [
        "다시",
        -7.45070133990901
      ],
      [
        "경",
        -7.4526234387461745
      ],
      [
        "반",
        -7.46744075896903
      ],
      [
        "됩니다",
        -7.470189179350527
      ],
      [
        "유",
        -7.480262560735477
      ],
      [
        "하는데",
        -7.48072142902055
      ],
      [
        "정부",
        -7.482338665550717
      ],
      [
        "리",
        -7.484756450130762
      ],
      [
        "스",
        -7.486503831044908
      ],
      [
        "미",
        -7.491816855480105
      ],
      [
        "실",
        -7.496353617323788
      ],
      [
        "무",
        -7.499442655431697
      ],
      [
        "큰",
        -7.506770728125648
      ],
      [
        "니",
        -7.515502874698846
      ],
      [
        "적으로",
        -7.521053696462131
      ],
      [
        "데",
        -7.522179700458839
      ],
      [
        "국민의",
        -7.524157480426014
      ],
      [
        "있고",
        -7.527762454922762
      ],
      [
        "처럼",
        -7.528481850118647
      ],
      [
        "들을",
        -7.529364072608248
      ],
      [
        "모",
        -7.531686772355412
      ],
      [
        "하면서",
        -7.533610051684892
      ],
      [
        "질",
        -7.539294985779382
      ],
      [
        "오",
        -7.540850092700294
      ],
      [
        "제발",
        -7.544070289200548
      ],
      [
        "해주세요",
        -7.545097183656299
      ],
      [
        "사람이",
        -7.559813237663212
      ],
      [
        "한국",
        -7.560885624787446
      ],
      [
        "문재인",
        -7.563702285256111
      ],
      [
        "문",
        -7.565703237959202
      ],
      [
        "경우",
        -7.568032415170254
      ],
      [
        "받고",
        -7.568773323973836
      ],
      [
        "asdfasdfasdf",
        -7.568871381138784
      ],
      [
        "줄",
        -7.569783190784388
      ],
      [
        "청원",
        -7.57252666177064
      ],
      [
        "국",
        -7.574257098574272
      ],
      [
        "지원",
        -7.575095813627
      ],
      [
        "산",
        -7.575696808385766
      ],
      [
        "6",
        -7.584471566898422
      ],
      [
        "주세요",
        -7.591336280331939
      ],
      [
        "나라",
        -7.591361468372716
      ],
      [
        "그런데",
        -7.597282108513994
      ],
      [
        "이라고",
        -7.598508096556358
      ],
      [
        "불",
        -7.599919245413023
      ],
      [
        "모두",
        -7.6016365458093045
      ],
      [
        "명",
        -7.602060255498216
      ],
      [
        "약",
        -7.605797445608156
      ],
      [
        "해도",
        -7.608356084943635
      ],
      [
        "는데",
        -7.611613542348435
      ],
      [
        "않는",
        -7.618797265326396
      ],
      [
        "어떻게",
        -7.6209113928426895
      ],
      [
        "인데",
        -7.629598795580758
      ],
      [
        "문제",
        -7.630344168932838
      ],
      [
        "저희",
        -7.63211411265479
      ],
      [
        "분",
        -7.633093887088906
      ],
      [
        "알고",
        -7.634592014737835
      ],
      [
        "간",
        -7.63733038833101
      ],
      [
        "집",
        -7.668456608701659
      ],
      [
        "날",
        -7.673772159001107
      ],
      [
        "식",
        -7.674819777865059
      ],
      [
        "대해",
        -7.67792190635873
      ],
      [
        "만들어",
        -7.67798521570408
      ],
      [
        "호",
        -7.679543253720238
      ],
      [
        "일을",
        -7.685447257110054
      ],
      [
        "연",
        -7.6890295365599
      ],
      [
        "할수",
        -7.691893532572253
      ],
      [
        "방",
        -7.701403548289928
      ],
      [
        "다고",
        -7.701447974119587
      ],
      [
        "현",
        -7.701950252437122
      ],
      [
        "피",
        -7.708117439951282
      ],
      [
        "하나",
        -7.710113443587057
      ],
      [
        "않습니다",
        -7.713094604085251
      ],
      [
        "관련",
        -7.714051857092738
      ],
      [
        "관",
        -7.714757668050678
      ],
      [
        "공",
        -7.71802170334554
      ],
      [
        "계속",
        -7.71934739389005
      ],
      [
        "“",
        -7.7216629395454195
      ],
      [
        "있도록",
        -7.724984447608845
      ],
      [
        "=",
        -7.732524948453941
      ],
      [
        "히",
        -7.740354373719587
      ],
      [
        "교육",
        -7.753157846707037
      ],
      [
        "걸",
        -7.764649611619163
      ],
      [
        "공무원",
        -7.76573342902425
      ],
      [
        "군",
        -7.767571651452
      ],
      [
        "본",
        -7.770622459535943
      ],
      [
        "10",
        -7.7732703772440015
      ],
      [
        "외",
        -7.774457450128068
      ],
      [
        "”",
        -7.774939258782963
      ],
      [
        "보면",
        -7.7776045969881995
      ],
      [
        "습니다",
        -7.778190969001885
      ],
      [
        "사람",
        -7.781091296704533
      ],
      [
        "‘",
        -7.782525970902874
      ],
      [
        "’",
        -7.783645730681146
      ],
      [
        "이다",
        -7.783646580843669
      ],
      [
        "같이",
        -7.787359137339289
      ],
      [
        "처벌",
        -7.792423317598846
      ],
      [
        "마",
        -7.7972378920407674
      ],
      [
        "지만",
        -7.798074080550522
      ],
      [
        "양",
        -7.79847455575333
      ],
      [
        "물",
        -7.801735869989596
      ],
      [
        "바",
        -7.8060844109669905
      ],
      [
        "김",
        -7.806453923066194
      ],
      [
        "박",
        -7.806742462987897
      ],
      [
        "부탁드립니다",
        -7.809490781718237
      ],
      [
        "하였습니다",
        -7.811946798826575
      ],
      [
        "있는데",
        -7.816985381230413
      ],
      [
        "바로",
        -7.817582188924005
      ],
      [
        "그래서",
        -7.818500290143316
      ],
      [
        "사용",
        -7.8191863183321715
      ],
      [
        "대통령",
        -7.819843178900369
      ],
      [
        "없고",
        -7.820256438160989
      ],
      [
        "사람들이",
        -7.8220972599489755
      ],
      [
        "우",
        -7.824118623264379
      ],
      [
        "대통령님",
        -7.829578131206343
      ],
      [
        "던",
        -7.829593550572145
      ],
      [
        "입",
        -7.830370407278847
      ],
      [
        "아닙니다",
        -7.830956578216538
      ],
      [
        "일이",
        -7.832124318668093
      ],
      [
        "금",
        -7.835121824619378
      ],
      [
        "영",
        -7.836059639263965
      ],
      [
        "경찰",
        -7.836422766728175
      ],
      [
        "겁니다",
        -7.838064509874405
      ],
      [
        "남",
        -7.839316927073851
      ],
      [
        "어떤",
        -7.843387064393166
      ],
      [
        "있다고",
        -7.84644957444214
      ],
      [
        "경제",
        -7.846506009733568
      ],
      [
        "부동산",
        -7.850811754294655
      ],
      [
        "좋은",
        -7.851292600699233
      ],
      [
        "권",
        -7.8538331490756335
      ],
      [
        "길",
        -7.85703743230162
      ],
      [
        "제대로",
        -7.858897321156993
      ],
      [
        "용",
        -7.863524679374606
      ],
      [
        "들어",
        -7.8639601739708525
      ],
      [
        "직",
        -7.865103559229098
      ],
      [
        "되었습니다",
        -7.866053473385932
      ],
      [
        "것도",
        -7.874427797553738
      ],
      [
        "에는",
        -7.876096346058766
      ],
      [
        "계",
        -7.877092049187711
      ],
      [
        "사회",
        -7.884361115495739
      ],
      [
        "가장",
        -7.885932759720676
      ],
      [
        "심",
        -7.8860443097363575
      ],
      [
        "꼭",
        -7.886475675061035
      ],
      [
        "봅니다",
        -7.8870887209105085
      ],
      [
        "문제가",
        -7.888183589460779
      ],
      [
        "속",
        -7.888677260026501
      ],
      [
        "것이다",
        -7.892310267150579
      ],
      [
        "사건",
        -7.893993584761148
      ],
      [
        "같습니다",
        -7.894107677064175
      ],
      [
        "했다",
        -7.895302968073137
      ],
      [
        "서울",
        -7.897657233971206
      ],
      [
        "들의",
        -7.900244102609745
      ],
      [
        "그냥",
        -7.9003939186304954
      ],
      [
        "온",
        -7.900588085550817
      ],
      [
        "것으로",
        -7.902584236991382
      ],
      [
        "되",
        -7.904463045907626
      ],
      [
        "이러한",
        -7.906766489759475
      ],
      [
        "우리나라",
        -7.90749017552365
      ],
      [
        "시간",
        -7.910263372786863
      ],
      [
        "타",
        -7.910783889615097
      ],
      [
        "번",
        -7.912646066250645
      ],
      [
        "7",
        -7.919621323858383
      ],
      [
        "받아",
        -7.921275993112932
      ],
      [
        "않은",
        -7.924229439380834
      ],
      [
        "d",
        -7.9245140145111215
      ],
      [
        "물론",
        -7.925034306593005
      ],
      [
        "각",
        -7.92542021354455
      ],
      [
        "감",
        -7.928182978688483
      ],
      [
        "그렇게",
        -7.929123480845934
      ],
      [
        "정책",
        -7.933216591754082
      ],
      [
        "참",
        -7.9407506461562
      ],
      [
        "한다는",
        -7.941300503273425
      ],
      [
        "인지",
        -7.943064266746434
      ],
      [
        "임",
        -7.945653953551796
      ],
      [
        "따라",
        -7.9464704807509
      ],
      [
        "발",
        -7.948281201647269
      ],
      [
        "그러나",
        -7.952817994279844
      ],
      [
        "초",
        -7.956306712837739
      ],
      [
        "있을",
        -7.96073961952801
      ],
      [
        "폐지",
        -7.960904449126462
      ],
      [
        "여성",
        -7.961074677946483
      ],
      [
        "망",
        -7.9611425662640265
      ],
      [
        "에서는",
        -7.961723840570418
      ],
      [
        "범죄",
        -7.970525939660812
      ],
      [
        "없다",
        -7.972838557581694
      ],
      [
        "학교",
        -7.974205042510777
      ],
      [
        "주는",
        -7.975214979900949
      ],
      [
        "배",
        -7.9806004397944115
      ],
      [
        "아파트",
        -7.981139759689075
      ],
      [
        "관리",
        -7.982964162638309
      ],
      [
        "불법",
        -7.9856761488463945
      ],
      [
        "병",
        -7.988376561084047
      ],
      [
        "인해",
        -7.993850324032435
      ],
      [
        "밖에",
        -7.994588645716046
      ],
      [
        "점",
        -7.994737792977068
      ],
      [
        "통해",
        -7.998982235549764
      ],
      [
        "또는",
        -7.999813220203919
      ],
      [
        "이라",
        -7.999916136464918
      ],
      [
        "지역",
        -8.001232185103703
      ],
      [
        "이번",
        -8.00416174912617
      ],
      [
        "파",
        -8.006838817945843
      ],
      [
        "국민이",
        -8.007524741280278
      ],
      [
        "가지고",
        -8.007914216795438
      ],
      [
        "받는",
        -8.009493807649935
      ],
      [
        "조사",
        -8.011284683466512
      ],
      [
        "법을",
        -8.011854447835518
      ],
      [
        "세금",
        -8.01515873437396
      ],
      [
        "되면",
        -8.015364322227628
      ],
      [
        "통",
        -8.021573314902627
      ],
      [
        "아니",
        -8.024670389798652
      ],
      [
        "돈을",
        -8.027407107577043
      ],
      [
        "s",
        -8.028610888857022
      ],
      [
        "8",
        -8.032967812135814
      ],
      [
        "사는",
        -8.033832527988443
      ],
      [
        "형",
        -8.035740549048164
      ],
      [
        "강",
        -8.038845000675408
      ],
      [
        "이미",
        -8.04029006979742
      ],
      [
        "함",
        -8.04405002989224
      ],
      [
        "못하고",
        -8.044190727839284
      ],
      [
        "주고",
        -8.045453844135103
      ],
      [
        "무슨",
        -8.045799135656805
      ],
      [
        "처리",
        -8.047480805107007
      ],
      [
        "글을",
        -8.047576421577187
      ],
      [
        "면서",
        -8.051228051294958
      ],
      [
        "해당",
        -8.05261122040344
      ],
      [
        "이게",
        -8.065453458325297
      ],
      [
        "북한",
        -8.067333177879894
      ],
      [
        "말이",
        -8.067721590555967
      ],
      [
        "정도",
        -8.068817569115955
      ],
      [
        "국민들이",
        -8.071884368957413
      ],
      [
        "이제",
        -8.073689241296275
      ],
      [
        "역",
        -8.073702183224905
      ],
      [
        "트",
        -8.07848563854803
      ],
      [
        "9",
        -8.081668003848845
      ],
      [
        "일반",
        -8.082093387061386
      ],
      [
        "란",
        -8.0822834100763
      ],
      [
        "주택",
        -8.083771787859694
      ],
      [
        "천",
        -8.092296489230439
      ],
      [
        "근무",
        -8.094280434781592
      ],
      [
        "요즘",
        -8.09643015867133
      ],
      [
        "난",
        -8.100342784248774
      ],
      [
        "종",
        -8.100523745460132
      ],
      [
        "려",
        -8.101908086875474
      ],
      [
        "있다는",
        -8.10487648528409
      ],
      [
        "이며",
        -8.108050589871478
      ],
      [
        "신고",
        -8.111554287965138
      ],
      [
        "든",
        -8.114266077758595
      ],
      [
        "몇",
        -8.115536094511057
      ],
      [
        "수사",
        -8.116536248354663
      ],
      [
        "글",
        -8.118161311952676
      ],
      [
        "해결",
        -8.120053874501767
      ],
      [
        "보호",
        -8.120277443370377
      ],
      [
        "열",
        -8.123745632759611
      ],
      [
        "교",
        -8.124189888433012
      ],
      [
        "알",
        -8.129195621006463
      ],
      [
        "동안",
        -8.132046266509564
      ],
      [
        "민",
        -8.132181260308357
      ],
      [
        "급",
        -8.13616844536835
      ],
      [
        "....",
        -8.143757655414678
      ],
      [
        "좋겠습니다",
        -8.146463850366304
      ],
      [
        "??",
        -8.154757086748427
      ],
      [
        "다는",
        -8.1551993260261
      ],
      [
        "국민을",
        -8.157261169104865
      ],
      [
        "일부",
        -8.15846908992725
      ],
      [
        "수가",
        -8.161131725488247
      ],
      [
        "매",
        -8.163119979349265
      ],
      [
        "생",
        -8.16539218417937
      ],
      [
        "에도",
        -8.16837367921725
      ],
      [
        "사고",
        -8.168562905997705
      ],
      [
        "확인",
        -8.171762822970932
      ],
      [
        "한번",
        -8.172425762618566
      ],
      [
        "네요",
        -8.173021301503567
      ],
      [
        "볼",
        -8.174510643313367
      ],
      [
        "20",
        -8.174706052845249
      ],
      [
        "죠",
        -8.180819731383647
      ],
      [
        "달",
        -8.181747922374102
      ],
      [
        "e",
        -8.184901746994681
      ],
      [
        "드",
        -8.185389499564566
      ],
      [
        "회",
        -8.18690360787999
      ],
      [
        "있게",
        -8.188864662299064
      ],
      [
        "거나",
        -8.189758013436524
      ],
      [
        "청와대",
        -8.19133233481547
      ],
      [
        "청",
        -8.19144064505856
      ],
      [
        "행정",
        -8.193762148600147
      ],
      [
        "전혀",
        -8.197309482974028
      ],
      [
        "사업",
        -8.197491706181758
      ],
      [
        "많습니다",
        -8.19903347612857
      ],
      [
        "위해서",
        -8.201770469773395
      ],
      [
        "자기",
        -8.202236673606981
      ],
      [
        "라도",
        -8.203878513691421
      ],
      [
        "입니까",
        -8.204288081704474
      ],
      [
        "시켜",
        -8.205107344590806
      ],
      [
        "안녕하세요",
        -8.205396738287277
      ],
      [
        "함께",
        -8.208909475645736
      ],
      [
        "갈",
        -8.211011064316597
      ],
      [
        "행",
        -8.211518824724605
      ],
      [
        "하니",
        -8.21186692932315
      ],
      [
        "받지",
        -8.212071152973541
      ],
      [
        "얼마나",
        -8.21218348821428
      ],
      [
        "했던",
        -8.216082877793152
      ],
      [
        "노",
        -8.218471710753194
      ],
      [
        "처",
        -8.222481772998519
      ],
      [
        "가는",
        -8.224590646147835
      ],
      [
        "지급",
        -8.224704898199551
      ],
      [
        "변",
        -8.226374390020306
      ],
      [
        "운영",
        -8.22791476428286
      ],
      [
        "정부가",
        -8.232362845590993
      ],
      [
        "시행",
        -8.234036737204233
      ],
      [
        "국회의원",
        -8.241029263934587
      ],
      [
        "·",
        -8.242997038264006
      ],
      [
        "발생",
        -8.243917906502183
      ],
      [
        "직접",
        -8.245447287738243
      ],
      [
        "필요",
        -8.245627150063235
      ],
      [
        "시작",
        -8.24886589137739
      ],
      [
        "생활",
        -8.248915453196373
      ],
      [
        "증",
        -8.25192776848954
      ],
      [
        "애",
        -8.25288695158146
      ],
      [
        "개선",
        -8.256407973139366
      ],
      [
        "채",
        -8.256532185159989
      ],
      [
        "이유로",
        -8.256614962417395
      ],
      [
        "피해",
        -8.258600207139507
      ],
      [
        "하다",
        -8.259593158414514
      ],
      [
        "진행",
        -8.260730886467469
      ],
      [
        "되어야",
        -8.260801453864248
      ],
      [
        "있어",
        -8.262621232253126
      ],
      [
        "개인",
        -8.264373793752384
      ],
      [
        "대한민국의",
        -8.265052666327863
      ],
      [
        "정치",
        -8.267956143015573
      ],
      [
        "지난",
        -8.268119523566277
      ],
      [
        "제도",
        -8.270276961970524
      ],
      [
        "지도",
        -8.273416895145372
      ],
      [
        "네",
        -8.274165966128425
      ],
      [
        "받을",
        -8.274739562554625
      ],
      [
        "된다",
        -8.277788017438597
      ],
      [
        "://",
        -8.279789008300938
      ],
      [
        "사실",
        -8.279964603764126
      ],
      [
        "피해를",
        -8.280673327443692
      ],
      [
        "지요",
        -8.282654704038992
      ],
      [
        "]",
        -8.285232261717105
      ],
      [
        "결정",
        -8.287350045705631
      ],
      [
        "총",
        -8.288697950915571
      ],
      [
        "A",
        -8.289791499632434
      ],
      [
        "적용",
        -8.290872668918729
      ],
      [
        "아니고",
        -8.292070297752046
      ],
      [
        "먼저",
        -8.293238870115669
      ],
      [
        "회사",
        -8.294901953719016
      ],
      [
        "청원합니다",
        -8.297393572813835
      ],
      [
        "[",
        -8.29776506283317
      ],
      [
        "인정",
        -8.301191465140782
      ],
      [
        "오히려",
        -8.303401611715953
      ],
      [
        "태",
        -8.30843452519063
      ],
      [
        "받은",
        -8.309159978343205
      ],
      [
        "편",
        -8.309314677454624
      ],
      [
        "!!",
        -8.310451031839605
      ],
      [
        "한다면",
        -8.310742883177925
      ],
      [
        "정부는",
        -8.311619553150395
      ],
      [
        "어느",
        -8.313456976207608
      ],
      [
        "까",
        -8.31664276354425
      ],
      [
        "지는",
        -8.318359312315382
      ],
      [
        "만큼",
        -8.320773800534909
      ],
      [
        "수도",
        -8.321881666828384
      ],
      [
        "여러",
        -8.32308809032542
      ],
      [
        "30",
        -8.324601232703225
      ],
      [
        "체",
        -8.324833284257872
      ],
      [
        "반드시",
        -8.327106132308192
      ],
      [
        "싶습니다",
        -8.331104949005999
      ],
      [
        "당시",
        -8.33355528667474
      ],
      [
        "투자",
        -8.334831320905735
      ],
      [
        "별",
        -8.33858065526874
      ],
      [
        "손",
        -8.340848291836261
      ],
      [
        "결국",
        -8.344318170784767
      ],
      [
        "일본",
        -8.344414877691534
      ],
      [
        "없어",
        -8.347169919105596
      ],
      [
        "특히",
        -8.347826059715223
      ],
      [
        "병원",
        -8.348896296022927
      ],
      [
        "년",
        -8.349697119851582
      ],
      [
        "없다고",
        -8.35013886704787
      ],
      [
        "포",
        -8.350301102359074
      ],
      [
        "대로",
        -8.35046985068976
      ],
      [
        "시험",
        -8.352025024697904
      ],
      [
        "살고",
        -8.35210751171449
      ],
      [
        "보장",
        -8.353142117815555
      ],
      [
        "등을",
        -8.355689309849595
      ],
      [
        "터",
        -8.355972009282631
      ],
      [
        "복지",
        -8.358301599166316
      ],
      [
        "세계",
        -8.360143340720848
      ],
      [
        "잘못",
        -8.365069688126068
      ],
      [
        "장애인",
        -8.36552361904365
      ],
      [
        "준",
        -8.366160796224055
      ],
      [
        "친",
        -8.36666535788297
      ],
      [
        "신청",
        -8.36700738933195
      ],
      [
        "일자리",
        -8.367619681102173
      ],
      [
        "하라",
        -8.372360362620892
      ],
      [
        "개발",
        -8.37720586274416
      ],
      [
        "국민들의",
        -8.378735727104742
      ],
      [
        "설치",
        -8.381783122396358
      ],
      [
        "기업",
        -8.38331825491188
      ],
      [
        "죄",
        -8.383877156431254
      ],
      [
        "석",
        -8.384176050293034
      ],
      [
        "사람들",
        -8.38536786443065
      ],
      [
        "막",
        -8.386917575958899
      ],
      [
        "못하는",
        -8.388799523477292
      ],
      [
        "열심히",
        -8.392428232050152
      ],
      [
        "말을",
        -8.393731908649807
      ],
      [
        "안전",
        -8.39613390089243
      ],
      [
        "하거나",
        -8.397253529117501
      ],
      [
        "있지만",
        -8.398026470300309
      ],
      [
        "자가",
        -8.400447971740146
      ],
      [
        "먹고",
        -8.400598656561034
      ],
      [
        "중국",
        -8.400700441317534
      ],
      [
        "국민연금",
        -8.400968243216072
      ],
      [
        "했는데",
        -8.402006749268189
      ],
      [
        "이용",
        -8.405166134787892
      ],
      [
        "합니까",
        -8.405452372654288
      ],
      [
        "결",
        -8.406774137656976
      ],
      [
        "들에게",
        -8.407232952805897
      ],
      [
        "백",
        -8.40792247324852
      ],
      [
        "이란",
        -8.4115355228096
      ],
      [
        "국민들",
        -8.412453126285106
      ],
      [
        "금지",
        -8.414907088998337
      ],
      [
        "운",
        -8.41756092620762
      ],
      [
        "진짜",
        -8.418197688495438
      ],
      [
        "반대",
        -8.421452464173308
      ],
      [
        "판단",
        -8.424038609635696
      ],
      [
        "나라가",
        -8.426247701119948
      ],
      [
        "아이",
        -8.426535367112248
      ],
      [
        "m",
        -8.426863864107546
      ],
      [
        "여자",
        -8.428737165347224
      ],
      [
        "있으며",
        -8.429478375506312
      ],
      [
        "미국",
        -8.430329795904544
      ],
      [
        "놓고",
        -8.430822860572313
      ],
      [
        "12",
        -8.432934645247439
      ],
      [
        "음",
        -8.434089427618138
      ],
      [
        "듯",
        -8.435226910914048
      ],
      [
        "조차",
        -8.436298291832781
      ],
      [
        "기관",
        -8.437109377056807
      ],
      [
        "다가",
        -8.441496693951086
      ],
      [
        "매우",
        -8.442369681030657
      ],
      [
        "당장",
        -8.444548260131834
      ],
      [
        "필요한",
        -8.446739996708006
      ],
      [
        "누가",
        -8.447496851009001
      ],
      [
        "안되는",
        -8.452528523232678
      ],
      [
        "벌",
        -8.454116957794584
      ],
      [
        "사람은",
        -8.455671513979594
      ],
      [
        "공개",
        -8.456139723981913
      ],
      [
        "법이",
        -8.45718488465571
      ],
      [
        "하루",
        -8.457599556393097
      ],
      [
        "져",
        -8.45760528107596
      ],
      [
        "가지",
        -8.459443993378953
      ],
      [
        "업무",
        -8.459917531175458
      ],
      [
        "예",
        -8.46042099316504
      ],
      [
        "청소년",
        -8.460862177003433
      ],
      [
        "월",
        -8.462494470348963
      ],
      [
        "말고",
        -8.462543381950514
      ],
      [
        "저의",
        -8.462764686452092
      ],
      [
        "대학",
        -8.462933070422944
      ],
      [
        "&",
        -8.46628659980397
      ],
      [
        "즉",
        -8.469520739066608
      ],
      [
        "생각이",
        -8.470049488357983
      ],
      [
        "울",
        -8.47750089461745
      ],
      [
        "정부의",
        -8.4784219958262
      ],
      [
        "유지",
        -8.481901028168828
      ],
      [
        "내가",
        -8.484844541325607
      ],
      [
        "대표",
        -8.485312839010009
      ],
      [
        "정책을",
        -8.488528105106498
      ],
      [
        "차량",
        -8.488818312402355
      ],
      [
        "기사",
        -8.490772157357966
      ],
      [
        "주십시오",
        -8.492349389449165
      ],
      [
        "보니",
        -8.492992172004145
      ],
      [
        "이라도",
        -8.494434327767353
      ],
      [
        "학",
        -8.495224606116505
      ],
      [
        "설",
        -8.495736601030575
      ],
      [
        "1년",
        -8.496518277208065
      ],
      [
        "검사",
        -8.497425483965456
      ],
      [
        "규제",
        -8.499366851901131
      ],
      [
        "이건",
        -8.50005594748673
      ],
      [
        "오늘",
        -8.500171619250146
      ],
      [
        "최근",
        -8.500525514514898
      ],
      [
        "강화",
        -8.50093170232393
      ],
      [
        "한테",
        -8.502069150687806
      ],
      [
        "표",
        -8.50256212403353
      ],
      [
        "분들이",
        -8.50270162732775
      ],
      [
        "사람들은",
        -8.50343079963293
      ],
      [
        "니까",
        -8.503434115098425
      ],
      [
        "출",
        -8.503662666003825
      ],
      [
        "고용",
        -8.505418440553008
      ],
      [
        "러",
        -8.505500770913061
      ],
      [
        "p",
        -8.505823187284777
      ],
      [
        "자신의",
        -8.50684066038281
      ],
      [
        "0",
        -8.50862434384174
      ],
      [
        "연금",
        -8.509470582764749
      ],
      [
        "미세먼지",
        -8.509793251779028
      ],
      [
        "요구",
        -8.511567339301912
      ],
      [
        "으면",
        -8.511819845014445
      ],
      [
        "창",
        -8.513146959494287
      ],
      [
        "민원",
        -8.5142072417407
      ],
      [
        "이야기",
        -8.516706494727929
      ],
      [
        "새",
        -8.516890420275097
      ],
      [
        "거래",
        -8.517760339632137
      ],
      [
        "않을",
        -8.51835533124219
      ],
      [
        "려고",
        -8.520491965737115
      ],
      [
        "산업",
        -8.520808165164194
      ],
      [
        "등의",
        -8.521481429754346
      ],
      [
        "없",
        -8.522761485896165
      ],
      [
        "외국인",
        -8.52290633331539
      ],
      [
        "돈이",
        -8.523080155780674
      ],
      [
        "판",
        -8.523249142089409
      ],
      [
        "지지",
        -8.52345318920146
      ],
      [
        "*",
        -8.523479049877404
      ],
      [
        "내용",
        -8.523878815615488
      ],
      [
        "보험",
        -8.524243132596753
      ],
      [
        "공사",
        -8.52476920996019
      ],
      [
        "S",
        -8.526075902152652
      ],
      [
        "다면",
        -8.52619035314305
      ],
      [
        "된다고",
        -8.527482048782126
      ],
      [
        "이를",
        -8.528677319424418
      ],
      [
        "불구하고",
        -8.530356650954543
      ],
      [
        "전에",
        -8.531297915012129
      ],
      [
        "최저임금",
        -8.53150682323609
      ],
      [
        "2018년",
        -8.532101712880426
      ],
      [
        "채용",
        -8.533487092109642
      ],
      [
        "시설",
        -8.534902002155613
      ],
      [
        "복",
        -8.535881208921815
      ],
      [
        "인권",
        -8.536368869768497
      ],
      [
        "100",
        -8.536388809015465
      ],
      [
        "제한",
        -8.539191427998244
      ],
      [
        "삼",
        -8.539372082405404
      ],
      [
        "순",
        -8.539941002632371
      ],
      [
        "절대",
        -8.540863526337747
      ],
      [
        "대출",
        -8.542466073829642
      ],
      [
        "a",
        -8.542505247774653
      ],
      [
        "계약",
        -8.54309085704823
      ],
      [
        "등등",
        -8.54453992521125
      ],
      [
        "아니면",
        -8.54563624690718
      ],
      [
        "평",
        -8.545768975115354
      ],
      [
        "하시는",
        -8.54612337318743
      ],
      [
        "나라를",
        -8.546346849234805
      ],
      [
        "내고",
        -8.546840296747922
      ],
      [
        "방송",
        -8.54742102883663
      ],
      [
        "취업",
        -8.551353237313956
      ],
      [
        "결과",
        -8.553607035498871
      ],
      [
        "중에",
        -8.554160287906402
      ],
      [
        "님",
        -8.554966871855354
      ],
      [
        "이후",
        -8.555074664685694
      ],
      [
        "남자",
        -8.555694135085945
      ],
      [
        "아주",
        -8.558035198477935
      ],
      [
        "취",
        -8.558515802724433
      ],
      [
        "개정",
        -8.560123111585284
      ],
      [
        "더욱",
        -8.561510319654756
      ],
      [
        "50",
        -8.561605114037407
      ],
      [
        "부패한",
        -8.562480706144438
      ],
      [
        "앞으로",
        -8.563900049248216
      ],
      [
        "사기",
        -8.564146563952837
      ],
      [
        "보는",
        -8.564294175216812
      ],
      [
        "단체",
        -8.565034606667327
      ],
      [
        "추",
        -8.565832594870566
      ],
      [
        "못한",
        -8.567961998035033
      ],
      [
        "지금당장",
        -8.571348098032738
      ],
      [
        "동의",
        -8.573915738933671
      ],
      [
        "정부에서",
        -8.573924894858475
      ],
      [
        "소리",
        -8.575875987964295
      ],
      [
        "피해자",
        -8.576070599875264
      ],
      [
        "발전",
        -8.5781113716733
      ],
      [
        "철",
        -8.579008472321435
      ],
      [
        "자는",
        -8.579724224370326
      ],
      [
        "않",
        -8.583944044572538
      ],
      [
        "했고",
        -8.584280567355233
      ],
      [
        "과연",
        -8.584640962117122
      ],
      [
        "뒤",
        -8.585390556619188
      ],
      [
        "다음",
        -8.585920062664213
      ],
      [
        "엔",
        -8.586348464370861
      ],
      [
        "거의",
        -8.587597567819625
      ],
      [
        "소득",
        -8.588282859990674
      ],
      [
        "기술",
        -8.590075243254665
      ],
      [
        "그럼",
        -8.593237403983823
      ],
      [
        "마련",
        -8.595413864621378
      ],
      [
        "인한",
        -8.595528634667213
      ],
      [
        "선거",
        -8.596555076737301
      ],
      [
        "시키고",
        -8.596570105423694
      ],
      [
        "긴",
        -8.598636577426605
      ],
      [
        "잘못된",
        -8.598675080832857
      ],
      [
        "치료",
        -8.599421642225892
      ],
      [
        "인상",
        -8.600461606116298
      ],
      [
        "서로",
        -8.600894387408351
      ],
      [
        "가서",
        -8.60207041739708
      ],
      [
        "문화",
        -8.602091845379713
      ],
      [
        "아이를",
        -8.604607009554602
      ],
      [
        "지방",
        -8.604861705842941
      ],
      [
        "작",
        -8.605308041800136
      ],
      [
        "쓰",
        -8.605310944016605
      ],
      [
        "요청",
        -8.607457988411293
      ],
      [
        "뭐",
        -8.608191247051321
      ],
      [
        "린",
        -8.611673626684798
      ],
      [
        "독",
        -8.611925027673
      ],
      [
        "**",
        -8.612310495493265
      ],
      [
        "적폐",
        -8.612418281134406
      ],
      [
        "목",
        -8.613787557320546
      ],
      [
        "건설",
        -8.613993442295692
      ],
      [
        "나는",
        -8.614427680851236
      ],
      [
        "국내",
        -8.620283350614246
      ],
      [
        "헌법",
        -8.622313322881782
      ],
      [
        "귀",
        -8.624510312451715
      ],
      [
        "답변",
        -8.625114547132872
      ],
      [
        "노력",
        -8.62754039529696
      ],
      [
        "들도",
        -8.627730958948723
      ],
      [
        "전화",
        -8.628516856249783
      ],
      [
        "감사합니다",
        -8.628641811153614
      ],
      [
        "18",
        -8.628827637719073
      ],
      [
        "가족",
        -8.629012456102283
      ],
      [
        "주시기",
        -8.629542716423776
      ],
      [
        "층",
        -8.631810378610425
      ],
      [
        "있어서",
        -8.632006213945278
      ],
      [
        "분들",
        -8.633002707030819
      ],
      [
        "받아야",
        -8.63611856162199
      ],
      [
        "C",
        -8.636205602519645
      ],
      [
        "냐",
        -8.63733846812393
      ],
      [
        "절",
        -8.6377254501986
      ],
      [
        "감사",
        -8.639064531809577
      ],
      [
        "범",
        -8.639768664239067
      ],
      [
        "암",
        -8.640656986846002
      ],
      [
        "의무",
        -8.64128970757738
      ],
      [
        "f",
        -8.6423803530327
      ],
      [
        "대해서",
        -8.643573281911133
      ],
      [
        "환경",
        -8.643655645570327
      ],
      [
        "기를",
        -8.645840967222357
      ],
      [
        "쳐",
        -8.645897019357365
      ],
      [
        "인터넷",
        -8.648443257469605
      ],
      [
        "활동",
        -8.648871674298327
      ],
      [
        "북",
        -8.650116520245014
      ],
      [
        "니다",
        -8.650922324823393
      ],
      [
        "찾아",
        -8.65188743797559
      ],
      [
        "르",
        -8.654163289503627
      ],
      [
        "각종",
        -8.65543031017223
      ],
      [
        "있었습니다",
        -8.656419801990939
      ],
      [
        "투기",
        -8.657007873299701
      ],
      [
        "평가",
        -8.658248674497706
      ],
      [
        "문제를",
        -8.659515943548033
      ],
      [
        "포함",
        -8.661363834782637
      ],
      [
        "하도록",
        -8.662236170887773
      ],
      [
        "보내",
        -8.662924092385285
      ],
      [
        "안됩니다",
        -8.664233966658632
      ],
      [
        "없다는",
        -8.665177998472704
      ],
      [
        "뿐",
        -8.667307397376694
      ],
      [
        "때문입니다",
        -8.67070234092458
      ],
      [
        "대하여",
        -8.671116496899044
      ],
      [
        "자동차",
        -8.671951387564912
      ],
      [
        "이유는",
        -8.672664152116754
      ],
      [
        "업",
        -8.672682449946805
      ],
      [
        "토",
        -8.672922034021546
      ],
      [
        "마다",
        -8.673186657485068
      ],
      [
        "근",
        -8.675532064431815
      ],
      [
        "난민",
        -8.677128866895158
      ],
      [
        "힘든",
        -8.67738108609005
      ],
      [
        "도대체",
        -8.67840166835806
      ],
      [
        "!!!",
        -8.681309155147098
      ],
      [
        "받",
        -8.682909303454505
      ],
      [
        "집단",
        -8.683171128054774
      ],
      [
        "대기업",
        -8.685252287372743
      ],
      [
        "조치",
        -8.685620360121458
      ],
      [
        "격",
        -8.686957253603293
      ],
      [
        "국민들은",
        -8.68741592657004
      ],
      [
        "최",
        -8.688963228337258
      ],
      [
        "아무",
        -8.68950061912436
      ],
      [
        "폐",
        -8.689522049747769
      ],
      [
        "무조건",
        -8.691067791867324
      ],
      [
        "비리",
        -8.691911032590962
      ],
      [
        "하세요",
        -8.693653919717596
      ],
      [
        "지고",
        -8.69541904424358
      ],
      [
        "술",
        -8.695598440123224
      ],
      [
        "시간이",
        -8.695844853900285
      ],
      [
        "2년",
        -8.696768769262073
      ],
      [
        "있지",
        -8.696968926104319
      ],
      [
        "더이상",
        -8.697677632924242
      ],
      [
        "아무런",
        -8.69780369622959
      ],
      [
        "은행",
        -8.698098682499383
      ],
      [
        "교사",
        -8.699440351032962
      ],
      [
        "따라서",
        -8.70338352898071
      ],
      [
        "문제는",
        -8.703786332139389
      ],
      [
        "지켜",
        -8.70497862641016
      ],
      [
        ">",
        -8.705435095394755
      ],
      [
        "레",
        -8.70578960419889
      ],
      [
        "정권",
        -8.706488560023196
      ],
      [
        "관한",
        -8.706494009184945
      ],
      [
        "유치원",
        -8.708266507579616
      ],
      [
        "변경",
        -8.70870047887173
      ],
      [
        "사람을",
        -8.709797257020828
      ],
      [
        "곳",
        -8.71025893783019
      ],
      [
        "우선",
        -8.713110163011859
      ],
      [
        "이명박",
        -8.713560073996895
      ],
      [
        "11",
        -8.714581047801627
      ],
      [
        "항",
        -8.716599267877235
      ],
      [
        "부담",
        -8.716678839937764
      ],
      [
        "학생",
        -8.717018026301787
      ],
      [
        "주지",
        -8.717310663995276
      ],
      [
        "자유",
        -8.717912959165854
      ],
      [
        "도록",
        -8.718786899091258
      ],
      [
        "우리가",
        -8.719695464007033
      ],
      [
        "월급",
        -8.720580581958924
      ],
      [
        "국회",
        -8.723334403192426
      ],
      [
        "있어야",
        -8.723356090003303
      ],
      [
        "폭행",
        -8.723758566419177
      ],
      [
        "올",
        -8.725412383449912
      ],
      [
        "행위",
        -8.725423355978533
      ],
      [
        "아무리",
        -8.726887758108132
      ],
      [
        "겁니까",
        -8.727025000167565
      ],
      [
        "뉴스",
        -8.728864388427128
      ],
      [
        "랑",
        -8.729127097877381
      ],
      [
        "하는게",
        -8.730140294483514
      ],
      [
        "조직",
        -8.731305357619311
      ],
      [
        "전부",
        -8.732224408812218
      ],
      [
        "했다고",
        -8.732323537048716
      ],
      [
        "남성",
        -8.73238081252458
      ],
      [
        "참여",
        -8.732530468683533
      ],
      [
        "없을",
        -8.732745080850242
      ],
      [
        "빨리",
        -8.73401315615106
      ],
      [
        "주장",
        -8.73589280487188
      ],
      [
        "기간",
        -8.736147701026283
      ],
      [
        "처벌을",
        -8.737263388860216
      ],
      [
        "세금을",
        -8.738692588396715
      ],
      [
        "아직",
        -8.739488169478923
      ],
      [
        "조작",
        -8.739691035085475
      ],
      [
        "승",
        -8.740047544447723
      ],
      [
        "하던",
        -8.740765208038502
      ],
      [
        "재산",
        -8.742051353328016
      ],
      [
        "가진",
        -8.74211251314011
      ],
      [
        "B",
        -8.742478626315918
      ],
      [
        "상황이",
        -8.743757231750983
      ],
      [
        "이면",
        -8.74435085698068
      ],
      [
        "도로",
        -8.74641416125625
      ],
      [
        "의해",
        -8.746561711171594
      ],
      [
        "기준",
        -8.749560456585117
      ],
      [
        "가상화폐",
        -8.750297020631884
      ],
      [
        "중요한",
        -8.75158219473721
      ],
      [
        "당연히",
        -8.751593846970936
      ],
      [
        "인가요",
        -8.751888095433037
      ],
      [
        "있는지",
        -8.75230647002485
      ],
      [
        "래",
        -8.75283665498886
      ],
      [
        "15",
        -8.75311862183098
      ],
      [
        "씨",
        -8.755341869508053
      ],
      [
        "어려운",
        -8.755583824135782
      ],
      [
        "정도로",
        -8.757584083218322
      ],
      [
        "건가요",
        -8.760469486644354
      ],
      [
        "말도",
        -8.761534516175491
      ],
      [
        "의료",
        -8.76169603331844
      ],
      [
        "력",
        -8.762378338362314
      ],
      [
        "결혼",
        -8.76371249062244
      ],
      [
        "었습니다",
        -8.764482660388241
      ],
      [
        "재판",
        -8.767608484308067
      ],
      [
        "기본",
        -8.769070419066479
      ],
      [
        "하라고",
        -8.769339981923407
      ],
      [
        "합",
        -8.769584672502127
      ],
      [
        "정보",
        -8.770677452064003
      ],
      [
        "10년",
        -8.771097905852208
      ],
      [
        "차별",
        -8.771768459700162
      ],
      [
        "하였고",
        -8.771921236215542
      ],
      [
        "c",
        -8.771941268174798
      ],
      [
        "나요",
        -8.772032734229217
      ],
      [
        "강제",
        -8.772068195826144
      ],
      [
        "죽",
        -8.772365619091328
      ],
      [
        "버스",
        -8.772724995067161
      ],
      [
        "악",
        -8.774393081704362
      ],
      [
        "모르는",
        -8.774962299057819
      ],
      [
        "존재",
        -8.7755129492098
      ],
      [
        "상황",
        -8.776715035185115
      ],
      [
        "구요",
        -8.77764090852649
      ],
      [
        "추가",
        -8.777802641603259
      ],
      [
        "팔",
        -8.777968054049781
      ],
      [
        "시장",
        -8.778121659716179
      ],
      [
        "이유",
        -8.778408882776915
      ],
      [
        "공부",
        -8.778615676109775
      ],
      [
        "주시길",
        -8.780091256605425
      ],
      [
        "얘기",
        -8.780909031971643
      ],
      [
        "너무나",
        -8.781314439541013
      ],
      [
        "아닙니까",
        -8.782818901477242
      ],
      [
        "투",
        -8.785021873676689
      ],
      [
        "보상",
        -8.786567830038303
      ],
      [
        "마음",
        -8.787941216420089
      ],
      [
        "스스로",
        -8.78878315566405
      ],
      [
        "시키는",
        -8.78882348296373
      ],
      [
        "아직도",
        -8.78911133723692
      ],
      [
        "의원",
        -8.789426713856631
      ],
      [
        "탈",
        -8.791207403714733
      ],
      [
        "역시",
        -8.793052727921786
      ],
      [
        "만든",
        -8.794246765634655
      ],
      [
        "항상",
        -8.794850089976899
      ],
      [
        "장관",
        -8.795332835079478
      ],
      [
        "임금",
        -8.796714003746626
      ],
      [
        "우리는",
        -8.797175447793814
      ],
      [
        "게임",
        -8.797277596568524
      ],
      [
        "어린이집",
        -8.797285398325423
      ],
      [
        "부디",
        -8.797644558077472
      ],
      [
        "하는지",
        -8.798156218714245
      ],
      [
        "해야합니다",
        -8.798468928444867
      ],
      [
        "드립니다",
        -8.799036500145704
      ],
      [
        "직원",
        -8.799957548012225
      ],
      [
        "못하게",
        -8.804093373782052
      ],
      [
        "본인",
        -8.8046797344386
      ],
      [
        "책임",
        -8.805303792767067
      ],
      [
        "환",
        -8.805510344170672
      ],
      [
        "살아",
        -8.805904189866045
      ],
      [
        "세대",
        -8.806118061455527
      ],
      [
        "박근혜",
        -8.806766009632016
      ],
      [
        "이제는",
        -8.807535297031775
      ],
      [
        "담당",
        -8.80801663860758
      ],
      [
        "갑질",
        -8.808248636520227
      ],
      [
        "나라에서",
        -8.810049401521518
      ],
      [
        "사회적",
        -8.810350457955339
      ],
      [
        "http",
        -8.81178875136208
      ],
      [
        "담",
        -8.814678576163512
      ],
      [
        "40",
        -8.815061832592024
      ],
      [
        "법률",
        -8.81536845445609
      ],
      [
        "부모",
        -8.816342711648414
      ],
      [
        "구속",
        -8.816737521348225
      ],
      [
        "노동",
        -8.817985927086962
      ],
      [
        "하여야",
        -8.818807700349645
      ],
      [
        "제공",
        -8.819558682792547
      ],
      [
        "나서",
        -8.8205594184262
      ],
      [
        "ㆍ",
        -8.821328833476818
      ],
      [
        "탄",
        -8.821452535416078
      ],
      [
        "시간을",
        -8.823505722644397
      ],
      [
        "생각을",
        -8.823607030909331
      ],
      [
        "청원을",
        -8.823979140124667
      ],
      [
        "코",
        -8.824249408502892
      ],
      [
        "아이들이",
        -8.825567673791928
      ],
      [
        "3년",
        -8.827140040304046
      ],
      [
        "삼성",
        -8.827708824258188
      ],
      [
        "짓",
        -8.827933042110812
      ],
      [
        "개혁",
        -8.828597974850446
      ],
      [
        "씩",
        -8.828768500474098
      ],
      [
        "판매",
        -8.829107552763496
      ],
      [
        "따른",
        -8.829901446922246
      ],
      [
        "고통",
        -8.829990701796127
      ],
      [
        "작은",
        -8.830453237031891
      ],
      [
        "분양",
        -8.832219456383129
      ],
      [
        "그대로",
        -8.833854462997685
      ],
      [
        "있으면",
        -8.834466677230594
      ],
      [
        "g",
        -8.83832410991011
      ],
      [
        "아닌가요",
        -8.839471830710147
      ],
      [
        "주십시요",
        -8.841836545391377
      ],
      [
        "있",
        -8.842692739860183
      ],
      [
        "대부분",
        -8.84449202735187
      ],
      [
        "정신",
        -8.84461856540603
      ],
      [
        "T",
        -8.8455461673776
      ],
      [
        "사실을",
        -8.845666738648804
      ],
      [
        "준비",
        -8.847132285239121
      ],
      [
        "책임을",
        -8.847367652856963
      ],
      [
        "의사",
        -8.848959224707345
      ],
      [
        "발표",
        -8.849333923465164
      ],
      [
        "<",
        -8.850001792338594
      ],
      [
        "낸",
        -8.850847272517138
      ],
      [
        "않게",
        -8.852153365280742
      ],
      [
        "가능",
        -8.852188240228605
      ],
      [
        "지금까지",
        -8.853658750137852
      ],
      [
        "평화",
        -8.854609518364013
      ],
      [
        "예산",
        -8.854626780377409
      ],
      [
        "공급",
        -8.855419923276237
      ],
      [
        "제도를",
        -8.856097771339313
      ],
      [
        "단속",
        -8.85816419013658
      ],
      [
        "기에",
        -8.859306570495098
      ],
      [
        "위반",
        -8.860866769094464
      ],
      [
        "곳이",
        -8.865383694983425
      ],
      [
        "국가가",
        -8.865706789665554
      ],
      [
        "해라",
        -8.86580407832176
      ],
      [
        "계획",
        -8.865906268309153
      ],
      [
        "2018",
        -8.866905055880954
      ],
      [
        "답",
        -8.867371005694492
      ],
      [
        "b",
        -8.868783656613738
      ],
      [
        "만약",
        -8.869288317972881
      ],
      [
        "기도",
        -8.869440762350964
      ],
      [
        "경우가",
        -8.869485944988819
      ],
      [
        "선택",
        -8.871701890274341
      ],
      [
        "저도",
        -8.873561618485423
      ],
      [
        "건지",
        -8.876783246304264
      ],
      [
        "강남",
        -8.878984075588198
      ],
      [
        "대통령이",
        -8.879410782979885
      ],
      [
        "과거",
        -8.881508162677227
      ],
      [
        "하다고",
        -8.882382446921952
      ],
      [
        "주의",
        -8.88238997740265
      ],
      [
        "보수",
        -8.88404421775257
      ],
      [
        "전환",
        -8.884511426600044
      ],
      [
        "청년",
        -8.885348366054732
      ],
      [
        "제출",
        -8.885516930260856
      ],
      [
        "비용",
        -8.885612090461882
      ],
      [
        "대체",
        -8.886371362089301
      ],
      [
        "이해가",
        -8.886964964860837
      ],
      [
        "인간",
        -8.888251850502737
      ],
      [
        "인사",
        -8.888265806093942
      ],
      [
        "힘",
        -8.888588456528984
      ],
      [
        "대책",
        -8.888731107507132
      ],
      [
        "수많은",
        -8.889625294269537
      ],
      [
        "워",
        -8.890342271182117
      ],
      [
        "내려",
        -8.891546192238597
      ],
      [
        "맞",
        -8.891943939336393
      ],
      [
        "내는",
        -8.892354751427192
      ],
      [
        "않아",
        -8.892781248655862
      ],
      [
        "책",
        -8.893101379303975
      ],
      [
        "않으면",
        -8.893145055463453
      ],
      [
        "쉽게",
        -8.893735108237204
      ],
      [
        "크",
        -8.894951804526995
      ],
      [
        "필요합니다",
        -8.895810119281391
      ],
      [
        "색",
        -8.896914759497731
      ],
      [
        "설명",
        -8.897789357537695
      ],
      [
        "관계",
        -8.898190880356005
      ],
      [
        "팀",
        -8.898268763352581
      ],
      [
        "19",
        -8.898898460924114
      ],
      [
        "늘",
        -8.901672617172833
      ],
      [
        "조금",
        -8.901854014367105
      ],
      [
        "하신",
        -8.902622450256173
      ],
      [
        "와서",
        -8.903041965664016
      ],
      [
        "추진",
        -8.904405100844475
      ],
      [
        "높은",
        -8.90482995669081
      ],
      [
        "2017년",
        -8.905016975436608
      ],
      [
        "라면",
        -8.906527803319896
      ],
      [
        "등록",
        -8.906615429203073
      ],
      [
        "아래",
        -8.907342711318067
      ],
      [
        "왔습니다",
        -8.908657496651447
      ],
      [
        "했지만",
        -8.90896906915443
      ],
      [
        "생각해",
        -8.909127593794166
      ],
      [
        "치고",
        -8.90928492956926
      ],
      [
        "허",
        -8.909373007830306
      ],
      [
        "욕",
        -8.911939489775513
      ],
      [
        "com",
        -8.91314907590005
      ],
      [
        "위하여",
        -8.91340916870295
      ],
      [
        "행사",
        -8.913586143471004
      ],
      [
        "언론",
        -8.914918379106389
      ],
      [
        "카",
        -8.914995843571589
      ],
      [
        "작성",
        -8.9159380928707
      ],
      [
        "이지만",
        -8.916353620397018
      ],
      [
        "눈",
        -8.917368492319024
      ],
      [
        "가정",
        -8.917901314824409
      ],
      [
        "현장",
        -8.918671895828838
      ],
      [
        "가입",
        -8.91928358922979
      ],
      [
        "5년",
        -8.91992497763795
      ],
      [
        "들과",
        -8.920429425885096
      ],
      [
        "근데",
        -8.922749925261561
      ],
      [
        "이전",
        -8.92286165973122
      ],
      [
        "극",
        -8.92302640080632
      ],
      [
        "중소기업",
        -8.92442612893273
      ],
      [
        "맞는",
        -8.925894062593795
      ],
      [
        "송",
        -8.92648793981637
      ],
      [
        "나라의",
        -8.927206014875196
      ],
      [
        "폭력",
        -8.927221023848501
      ],
      [
        "에서도",
        -8.927251771314346
      ],
      [
        "없어서",
        -8.929936021329512
      ],
      [
        "검찰",
        -8.930736545929317
      ],
      [
        "내용을",
        -8.930854494764596
      ],
      [
        "전문",
        -8.931471461961598
      ],
      [
        "w",
        -8.931581213154356
      ],
      [
        "적이",
        -8.931678363562638
      ],
      [
        "13",
        -8.932023573246719
      ],
      [
        "것이고",
        -8.932656416322653
      ],
      [
        "두고",
        -8.932860667961549
      ],
      [
        "혜택을",
        -8.933531441327666
      ],
      [
        "해외",
        -8.933840804304866
      ],
      [
        "돌",
        -8.934056758010458
      ],
      [
        "집을",
        -8.934460899986018
      ],
      [
        "통일",
        -8.93451869094626
      ],
      [
        "부산",
        -8.93462090806384
      ],
      [
        "하자",
        -8.935629192747358
      ],
      [
        "하려고",
        -8.936769834723012
      ],
      [
        "25",
        -8.937664170967247
      ],
      [
        "넘",
        -8.937828016984088
      ],
      [
        "남북",
        -8.939557977379655
      ],
      [
        "올립니다",
        -8.941918129914747
      ],
      [
        "t",
        -8.942644411798845
      ],
      [
        "봉",
        -8.943102538977922
      ],
      [
        "앞",
        -8.94373727295769
      ],
      [
        "규정",
        -8.943753121543423
      ],
      [
        "경기",
        -8.944417528518569
      ],
      [
        "듭니다",
        -8.94472238604526
      ],
      [
        "단지",
        -8.945357232415184
      ],
      [
        "것에",
        -8.94617517560674
      ],
      [
        "보도",
        -8.946911704142765
      ],
      [
        "생각됩니다",
        -8.947167191864711
      ],
      [
        "건물",
        -8.947922669169124
      ],
      [
        "걱정",
        -8.949211306004521
      ],
      [
        "잡",
        -8.952611806718544
      ],
      [
        "않도록",
        -8.95346400469877
      ],
      [
        "너",
        -8.954533288966829
      ],
      [
        "쪽",
        -8.95457601260698
      ],
      [
        "하시고",
        -8.955383799746208
      ],
      [
        "혹은",
        -8.957915249017734
      ],
      [
        "국민은",
        -8.958225009370818
      ],
      [
        "P",
        -8.958560357990303
      ],
      [
        "새로운",
        -8.958775482446741
      ],
      [
        "하시",
        -8.958956579676578
      ],
      [
        "디",
        -8.95975508596405
      ],
      [
        "교통",
        -8.961069532486924
      ],
      [
        "어디",
        -8.96193870252976
      ],
      [
        "국민들을",
        -8.96433029635276
      ],
      [
        "주변",
        -8.964602286300805
      ],
      [
        "퍼",
        -8.964987634363938
      ],
      [
        "그만",
        -8.966274823292334
      ],
      [
        "군대",
        -8.966452738327963
      ],
      [
        "서비스",
        -8.968225053344844
      ],
      [
        "판결",
        -8.970233792917913
      ],
      [
        "값",
        -8.970602959777569
      ],
      [
        "위원회",
        -8.972892293761353
      ],
      [
        "고발",
        -8.973572981450618
      ],
      [
        "된다면",
        -8.973994426839546
      ],
      [
        "아이들",
        -8.9746496153197
      ],
      [
        "제안",
        -8.974774428277247
      ],
      [
        "지금은",
        -8.975091431112816
      ],
      [
        "성을",
        -8.97523296904223
      ],
      [
        "운동",
        -8.976970472697586
      ],
      [
        "량",
        -8.979246072536432
      ],
      [
        "있다면",
        -8.979582428650648
      ],
      [
        "겨",
        -8.980303349766896
      ],
      [
        "이유가",
        -8.980435656819632
      ],
      [
        "뿐만",
        -8.98204805289116
      ],
      [
        "시스템",
        -8.982212319638897
      ],
      [
        "서민",
        -8.98233167183972
      ],
      [
        "키",
        -8.982455192585585
      ],
      [
        "자료",
        -8.982491665280499
      ],
      [
        "세요",
        -8.982764189497276
      ],
      [
        "부탁",
        -8.984625608247326
      ],
      [
        "국가의",
        -8.985078128763693
      ],
      [
        "패",
        -8.985261895626131
      ],
      [
        "올해",
        -8.985664725547243
      ],
      [
        "고등학교",
        -8.987048064145652
      ],
      [
        "대한민국은",
        -8.989236204567923
      ],
      [
        "사건을",
        -8.991418244997268
      ],
      [
        "운전",
        -8.991608509792718
      ],
      [
        "업체",
        -8.991751766797611
      ],
      [
        "만들고",
        -8.992152537007518
      ],
      [
        "류",
        -8.992733200898918
      ],
      [
        "먹",
        -8.99282291013709
      ],
      [
        "급여",
        -8.993191840369732
      ],
      [
        "했",
        -8.99341279505872
      ],
      [
        "싶은",
        -8.993914972405493
      ],
      [
        "범죄를",
        -8.99424986032933
      ],
      [
        "종교",
        -8.995125551064497
      ],
      [
        "폭",
        -8.995893240962713
      ],
      [
        "분이",
        -8.997102863279695
      ],
      [
        "였습니다",
        -8.997282518503084
      ],
      [
        "처음",
        -8.998472878075784
      ],
      [
        "자리",
        -8.99892915715044
      ],
      [
        "버",
        -8.998950647965282
      ],
      [
        "거리",
        -8.999824392512698
      ],
      [
        "돌려",
        -9.004226690828293
      ],
      [
        "N",
        -9.004885881718593
      ],
      [
        "점점",
        -9.005331634403795
      ],
      [
        "감독",
        -9.00567429064272
      ],
      [
        "더군요",
        -9.0060852456174
      ],
      [
        "금융",
        -9.006319418063605
      ],
      [
        "식으로",
        -9.00665226334191
      ],
      [
        "70",
        -9.007841018924061
      ],
      [
        "국가에서",
        -9.008342315265008
      ],
      [
        "살인",
        -9.008872256827791
      ],
      [
        "벌금",
        -9.011122182386964
      ],
      [
        "성장",
        -9.011492564050688
      ],
      [
        "상태",
        -9.01190000313456
      ],
      [
        "척",
        -9.013139893888754
      ],
      [
        "상승",
        -9.013817854659715
      ],
      [
        "교육을",
        -9.014392699873818
      ],
      [
        "D",
        -9.014811030507293
      ],
      [
        "검토",
        -9.014994421163852
      ],
      [
        "직장",
        -9.01612062146099
      ],
      [
        "나이",
        -9.016609188039086
      ],
      [
        "집에",
        -9.016674841661175
      ],
      [
        "들고",
        -9.016901165388507
      ],
      [
        "M",
        -9.017151496088415
      ],
      [
        "써",
        -9.018239105839301
      ],
      [
        "만들",
        -9.018246408047247
      ],
      [
        "넘어",
        -9.018262541511517
      ],
      [
        "심지어",
        -9.018398954134403
      ],
      [
        "핵",
        -9.018871846133482
      ],
      [
        "얼마",
        -9.019350403039304
      ],
      [
        "O",
        -9.019698696128685
      ],
      [
        "변호사",
        -9.019971455140945
      ],
      [
        "기가",
        -9.020117800840096
      ],
      [
        "크게",
        -9.020290633096032
      ],
      [
        "납부",
        -9.023846255722852
      ],
      [
        "했으면",
        -9.023846264265348
      ],
      [
        "특",
        -9.023899023586228
      ],
      [
        "수당",
        -9.024556735885593
      ],
      [
        "인가",
        -9.024562749025922
      ],
      [
        "올려",
        -9.026365078975559
      ],
      [
        "구매",
        -9.027092891936167
      ],
      [
        "택시",
        -9.028283921345556
      ],
      [
        "어린",
        -9.028760834139648
      ],
      [
        "댓글",
        -9.029454369791116
      ],
      [
        "건강",
        -9.032049087297267
      ],
      [
        "사이트",
        -9.033237339731764
      ],
      [
        "했다는",
        -9.033957431227801
      ],
      [
        "https",
        -9.033958052852046
      ],
      [
        "부과",
        -9.035634404155807
      ],
      [
        "내용이",
        -9.035730597943529
      ],
      [
        "어찌",
        -9.036299495098826
      ],
      [
        "세상",
        -9.041565168942697
      ],
      [
        "올림픽",
        -9.042617152928393
      ],
      [
        "론",
        -9.043023709057238
      ],
      [
        "액",
        -9.043578454861262
      ],
      [
        "200",
        -9.043800595891504
      ],
      [
        "황",
        -9.044362659640896
      ],
      [
        "장애",
        -9.04444214486732
      ],
      [
        "도움이",
        -9.044538369238426
      ],
      [
        "구조",
        -9.04491545856979
      ],
      [
        "당한",
        -9.045567576860787
      ],
      [
        "대상",
        -9.045596541831266
      ],
      [
        "으며",
        -9.04615960182085
      ],
      [
        "주민",
        -9.047071992407572
      ],
      [
        "희",
        -9.047731112288421
      ],
      [
        "000",
        -9.047797540790757
      ],
      [
        "근로자",
        -9.050569346814276
      ],
      [
        "K",
        -9.050677255403443
      ],
      [
        "쓰고",
        -9.050864490977412
      ],
      [
        "부정",
        -9.0509400049204
      ],
      [
        "나오는",
        -9.051303448585854
      ],
      [
        "광",
        -9.05268642632336
      ],
      [
        "떠",
        -9.054313857875863
      ],
      [
        "실시",
        -9.054605701214637
      ],
      [
        "증거",
        -9.056935525629175
      ],
      [
        "민주당",
        -9.057855754093056
      ],
      [
        "확대",
        -9.060003954867748
      ],
      [
        "돌아",
        -9.060246772534652
      ],
      [
        "민주주의",
        -9.060350676906026
      ],
      [
        "이자",
        -9.060728982287358
      ],
      [
        "서류",
        -9.061552267401778
      ],
      [
        "동물",
        -9.062128754424355
      ],
      [
        "분명",
        -9.062149878550688
      ],
      [
        "겠습니다",
        -9.062341429621094
      ],
      [
        "특정",
        -9.062733592717976
      ],
      [
        "치는",
        -9.062937239064365
      ],
      [
        "생산",
        -9.063824761411002
      ],
      [
        "강력한",
        -9.064131846543225
      ],
      [
        "???",
        -9.064202008704195
      ],
      [
        "자들",
        -9.064576838112682
      ],
      [
        "그동안",
        -9.065016852228108
      ],
      [
        "거부",
        -9.066070294592736
      ],
      [
        "근로",
        -9.066207713993014
      ],
      [
        "도입",
        -9.066328453237904
      ],
      [
        "것인지",
        -9.066798798399347
      ],
      [
        "80",
        -9.067326419445871
      ],
      [
        "17",
        -9.06916249884597
      ],
      [
        "정책이",
        -9.069553987139127
      ],
      [
        "60",
        -9.07054798264549
      ],
      [
        "상황에서",
        -9.071152460999214
      ],
      [
        "주시고",
        -9.071252256480992
      ],
      [
        "증가",
        -9.071503579641071
      ],
      [
        "연구",
        -9.071867364654004
      ],
      [
        "대구",
        -9.07285897109551
      ],
      [
        "지금도",
        -9.073075977274662
      ],
      [
        "수술",
        -9.073207166904277
      ],
      [
        "젊은",
        -9.073447481820796
      ],
      [
        "전쟁",
        -9.07369371614008
      ],
      [
        "~~",
        -9.074393479569949
      ],
      [
        "16",
        -9.076046662954806
      ],
      [
        "가격",
        -9.077542790618763
      ],
      [
        "도시",
        -9.077594765113686
      ],
      [
        "접",
        -9.078036573343617
      ],
      [
        "news",
        -9.07811345649953
      ],
      [
        "할때",
        -9.078837010758226
      ],
      [
        "방법",
        -9.079012919760245
      ],
      [
        "역사",
        -9.07950840645004
      ],
      [
        "일은",
        -9.079542423545108
      ],
      [
        "자격",
        -9.079811798093289
      ],
      [
        "말씀",
        -9.079979736482684
      ],
      [
        "일하는",
        -9.080099529031747
      ],
      [
        "자살",
        -9.080393168607516
      ],
      [
        "지정",
        -9.081066674433679
      ],
      [
        "가해자",
        -9.082427423260805
      ],
      [
        "끝",
        -9.08379927966049
      ],
      [
        "까요",
        -9.083955077570488
      ],
      [
        "분들은",
        -9.084838797673685
      ],
      [
        "의견",
        -9.08687249959342
      ],
      [
        "권을",
        -9.087936635442317
      ],
      [
        "만드는",
        -9.087981416069766
      ],
      [
        "피해자가",
        -9.090228099276619
      ],
      [
        "우리의",
        -9.091439249033105
      ],
      [
        "청구",
        -9.091633936369119
      ],
      [
        "주셨으면",
        -9.09240635961434
      ],
      [
        "y",
        -9.09320630365236
      ],
      [
        "오는",
        -9.093313828725707
      ],
      [
        "들었습니다",
        -9.094076350974301
      ],
      [
        "판사",
        -9.095155701500786
      ],
      [
        "www",
        -9.095415586830285
      ],
      [
        "곳에",
        -9.09719515852641
      ],
      [
        "조정",
        -9.097196167283453
      ],
      [
        "국민들에게",
        -9.097304289637764
      ],
      [
        "좋아",
        -9.097791973430413
      ],
      [
        "쓰는",
        -9.098475512924633
      ],
      [
        "가요",
        -9.09879355838699
      ],
      [
        "낭비",
        -9.099084107982883
      ],
      [
        "둔",
        -9.099734892946355
      ],
      [
        "엄청난",
        -9.099803734987107
      ],
      [
        "집값",
        -9.099883557826821
      ],
      [
        "쓰레기",
        -9.100300746605207
      ],
      [
        "림",
        -9.100426125572001
      ],
      [
        "하려",
        -9.10113565464639
      ],
      [
        "시민",
        -9.101893418430063
      ],
      [
        "주식",
        -9.10249275709286
      ],
      [
        "우리나라는",
        -9.10250967976304
      ],
      [
        "+",
        -9.103562139383254
      ],
      [
        "포기",
        -9.104060045325015
      ],
      [
        "형사",
        -9.104303126437934
      ],
      [
        "사건이",
        -9.106311704302064
      ],
      [
        "저를",
        -9.106399599114637
      ],
      [
        "세금으로",
        -9.106454822670091
      ],
      [
        "않았습니다",
        -9.10800857208475
      ],
      [
        "대신",
        -9.108010824075695
      ],
      [
        "매일",
        -9.108605925878319
      ],
      [
        "자들이",
        -9.10928855192677
      ],
      [
        "받았습니다",
        -9.110980646214777
      ],
      [
        "카드",
        -9.111148788703503
      ],
      [
        "하나요",
        -9.112084970620847
      ],
      [
        "프로",
        -9.113502554024416
      ],
      [
        "따",
        -9.11391534064166
      ],
      [
        "듣고",
        -9.114027704596584
      ],
      [
        "훈련",
        -9.114291691071541
      ],
      [
        "땅",
        -9.11451924499514
      ],
      [
        "지금의",
        -9.114527156951
      ],
      [
        "갑",
        -9.115174494118012
      ],
      [
        "행동",
        -9.11628939300421
      ],
      [
        "잠",
        -9.116448342346697
      ],
      [
        "아이가",
        -9.11715555716434
      ],
      [
        "k",
        -9.118164727187335
      ],
      [
        "몸",
        -9.118866389312824
      ],
      [
        "대학교",
        -9.11909538723685
      ],
      [
        "범죄자",
        -9.119269212076697
      ],
      [
        "밀",
        -9.119357920197308
      ],
      [
        "제기",
        -9.119527561665942
      ],
      [
        "시청",
        -9.119763232609474
      ],
      [
        "o",
        -9.120150775481815
      ],
      [
        "침해",
        -9.120431661953797
      ],
      [
        "축",
        -9.120890833536025
      ],
      [
        "믿고",
        -9.122065713105151
      ],
      [
        "14",
        -9.12211241640888
      ],
      [
        "자녀",
        -9.122308470809664
      ],
      [
        "하네요",
        -9.122487604123858
      ],
      [
        "n",
        -9.122622684443837
      ],
      [
        "점을",
        -9.124006218114248
      ],
      [
        "군인",
        -9.124200682828452
      ],
      [
        "부분",
        -9.125062983634947
      ],
      [
        "루",
        -9.125890377622884
      ],
      [
        "심각한",
        -9.12604635926265
      ],
      [
        "등으로",
        -9.126464986600912
      ],
      [
        "미래",
        -9.126825469238362
      ],
      [
        "그래도",
        -9.127301580928847
      ],
      [
        "혼자",
        -9.127509251890356
      ],
      [
        "부족",
        -9.128043073356361
      ],
      [
        "방문",
        -9.12816161676461
      ],
      [
        "담배",
        -9.129488188067766
      ],
      [
        "풀",
        -9.129876957419661
      ],
      [
        "된다는",
        -9.130644032472157
      ],
      [
        "엄마",
        -9.131248941700285
      ],
      [
        "원하는",
        -9.131691514090697
      ],
      [
        "사랑",
        -9.132088776652171
      ],
      [
        "공장",
        -9.13215793590484
      ],
      [
        "힘들어",
        -9.132510780586617
      ],
      [
        "풍",
        -9.134283944370065
      ],
      [
        "보다는",
        -9.13508473105267
      ],
      [
        "알려",
        -9.135140455034605
      ],
      [
        "허가",
        -9.135709359664077
      ],
      [
        "가능한",
        -9.136711972914004
      ],
      [
        "능력",
        -9.138219486164427
      ],
      [
        "속에서",
        -9.138729794816019
      ],
      [
        "보여",
        -9.139323389142938
      ],
      [
        "음주운전",
        -9.139601667794235
      ],
      [
        "어떠한",
        -9.140237489197041
      ],
      [
        "직업",
        -9.140300396494743
      ],
      [
        "권리",
        -9.140805032907293
      ],
      [
        "납니다",
        -9.140944130849642
      ],
      [
        "모두가",
        -9.14126274206308
      ],
      [
        "학원",
        -9.141509984316247
      ],
      [
        "락",
        -9.14461640535535
      ],
      [
        "비정규직",
        -9.145566188120194
      ],
      [
        "L",
        -9.145616549041478
      ],
      [
        "평생",
        -9.145705510790345
      ],
      [
        "시는",
        -9.147162797580542
      ],
      [
        "공공",
        -9.147186952621716
      ],
      [
        "초등학교",
        -9.147484366283573
      ],
      [
        "먹는",
        -9.148515894333844
      ],
      [
        "많아",
        -9.148519367351769
      ],
      [
        "이해",
        -9.148776468284918
      ],
      [
        "그러면",
        -9.14889733105063
      ],
      [
        "받게",
        -9.15016158972367
      ],
      [
        "고소",
        -9.150197379806036
      ],
      [
        "기대",
        -9.150758015477313
      ],
      [
        "집니다",
        -9.151695494251763
      ],
      [
        "외국",
        -9.15170016792116
      ],
      [
        "여기",
        -9.152018539505733
      ],
      [
        "걸로",
        -9.152135403677441
      ],
      [
        "돼",
        -9.152735217449411
      ],
      [
        "명의",
        -9.15293789750485
      ],
      [
        "장이",
        -9.152952981162837
      ],
      [
        "접수",
        -9.153015355875215
      ],
      [
        "아니라고",
        -9.155627707197693
      ],
      [
        "반복",
        -9.156135216613347
      ],
      [
        "티",
        -9.157328560646494
      ],
      [
        "뿐입니다",
        -9.158417251006723
      ],
      [
        "농",
        -9.158838530142035
      ],
      [
        "품",
        -9.159261842995537
      ],
      [
        "보기",
        -9.160976020460229
      ],
      [
        "사항",
        -9.161281345361475
      ],
      [
        "자를",
        -9.161559447599554
      ],
      [
        "마시고",
        -9.161633367415181
      ],
      [
        "경찰이",
        -9.161707974680331
      ],
      [
        "위에",
        -9.16202042276821
      ],
      [
        "있으니",
        -9.162089273357822
      ],
      [
        "노동자",
        -9.162345578123626
      ],
      [
        "통과",
        -9.163262091976266
      ],
      [
        "실제",
        -9.16359151677455
      ],
      [
        "의무를",
        -9.164158178908203
      ],
      [
        "등에",
        -9.16430637571375
      ],
      [
        "꺼",
        -9.16474792658426
      ],
      [
        "전세",
        -9.165429763896979
      ],
      [
        "전국",
        -9.168145717943176
      ],
      [
        "구입",
        -9.169375256763754
      ],
      [
        "선수",
        -9.169479817897079
      ],
      [
        "금액",
        -9.17104918770417
      ],
      [
        "경찰서",
        -9.173989529485263
      ],
      [
        "말입니다",
        -9.17454315985491
      ],
      [
        "국민에게",
        -9.175297781851596
      ],
      [
        "그들의",
        -9.175309253157778
      ],
      [
        "진정",
        -9.175882688193234
      ],
      [
        "인하여",
        -9.176485035901633
      ],
      [
        "그게",
        -9.17656149435746
      ],
      [
        "***",
        -9.177768043274819
      ],
      [
        "줘야",
        -9.178283485225425
      ],
      [
        "되기",
        -9.178528389120059
      ],
      [
        "살기",
        -9.179718780061354
      ],
      [
        "이니",
        -9.180384680317657
      ],
      [
        "다니는",
        -9.180712324233621
      ],
      [
        "법으로",
        -9.18143299398421
      ],
      [
        "무시",
        -9.182563803843896
      ],
      [
        "기존",
        -9.182736888647533
      ],
      [
        "밥",
        -9.18291862717669
      ],
      [
        "딸",
        -9.18348242995616
      ],
      [
        "있기",
        -9.184445498956133
      ],
      [
        "R",
        -9.185708143935447
      ],
      [
        "억",
        -9.186011700289741
      ],
      [
        "숨",
        -9.186363311134077
      ],
      [
        "해주는",
        -9.186435381294697
      ],
      [
        "릴",
        -9.186919824951556
      ],
      [
        "법은",
        -9.186956807064538
      ],
      [
        "00",
        -9.188137825701308
      ],
      [
        "저에게",
        -9.188301616336712
      ],
      [
        "덕",
        -9.188764707289826
      ],
      [
        "학생들이",
        -9.189950479154668
      ],
      [
        "희생",
        -9.190115474559063
      ],
      [
        "취소",
        -9.192385944167974
      ],
      [
        "삭제",
        -9.194064226871422
      ],
      [
        "듯이",
        -9.19467119770737
      ],
      [
        "전체",
        -9.194848208251486
      ],
      [
        "사진",
        -9.195018932447555
      ],
      [
        "간곡히",
        -9.196425725102182
      ],
      [
        "알아",
        -9.196453823422718
      ],
      [
        "불안",
        -9.196766850102536
      ],
      [
        "기록",
        -9.197421140227195
      ],
      [
        "아동",
        -9.198147696324773
      ],
      [
        "자금",
        -9.198508933039946
      ],
      [
        "대응",
        -9.198803555986505
      ],
      [
        "그때",
        -9.200354745050573
      ],
      [
        "숙",
        -9.201127594461743
      ],
      [
        "E",
        -9.201560193837967
      ],
      [
        "만을",
        -9.202156395936465
      ],
      [
        "지를",
        -9.20229391872462
      ],
      [
        "영어",
        -9.203332085221708
      ],
      [
        "도와주세요",
        -9.204304813243786
      ],
      [
        "시대",
        -9.204527783179806
      ],
      [
        "당하고",
        -9.204724803879664
      ],
      [
        "김정은",
        -9.205142386327292
      ],
      [
        "자체가",
        -9.20518121586679
      ],
      [
        "센터",
        -9.205474808916223
      ],
      [
        "여러분",
        -9.206463996777874
      ],
      [
        "달라",
        -9.206632011672172
      ],
      [
        "프",
        -9.207136836462269
      ],
      [
        "혀",
        -9.20735545667147
      ],
      [
        "부모님",
        -9.208165468461209
      ],
      [
        "방법이",
        -9.209541578219847
      ],
      [
        "성범죄",
        -9.211441267024675
      ],
      [
        "그저",
        -9.211873909835607
      ],
      [
        "인력",
        -9.21265007817916
      ],
      [
        "----------------",
        -9.212726375291524
      ],
      [
        "집행",
        -9.213810973041856
      ],
      [
        "로서",
        -9.214813952929942
      ],
      [
        "선진국",
        -9.215233152826357
      ],
      [
        "로부터",
        -9.215675819777752
      ],
      [
        "아버지",
        -9.216159754804723
      ],
      [
        "더니",
        -9.216284528524405
      ],
      [
        "다니",
        -9.216580258953984
      ],
      [
        "소통",
        -9.216653541523545
      ],
      [
        "되었고",
        -9.216928778405792
      ],
      [
        "칠",
        -9.217851859453303
      ],
      [
        "거래소",
        -9.218693784218381
      ],
      [
        "이것은",
        -9.218876123222826
      ],
      [
        "있던",
        -9.21902918577149
      ],
      [
        "하더라도",
        -9.219662195416811
      ],
      [
        "j",
        -9.219703544474482
      ],
      [
        "입장",
        -9.221129856622612
      ],
      [
        "힘들게",
        -9.221469656038648
      ],
      [
        "어야",
        -9.22156281668924
      ],
      [
        "민원을",
        -9.22183201876613
      ],
      [
        "으로서",
        -9.222231674792699
      ],
      [
        "안하고",
        -9.22238862475361
      ],
      [
        "돈으로",
        -9.222482184414897
      ],
      [
        "차라리",
        -9.22304385632961
      ],
      [
        "이하",
        -9.223251514294969
      ],
      [
        "환자",
        -9.223476322092429
      ],
      [
        "인천",
        -9.225081770793405
      ],
      [
        "_",
        -9.225117688737365
      ],
      [
        "소송",
        -9.225450382240176
      ],
      [
        "행위를",
        -9.225467452679434
      ],
      [
        "머",
        -9.226126330780946
      ],
      [
        "충분히",
        -9.22746817633359
      ],
      [
        "달라고",
        -9.22813055108264
      ],
      [
        "고민",
        -9.229191838771797
      ],
      [
        "정작",
        -9.230675573397857
      ],
      [
        "하겠습니다",
        -9.231689018101472
      ],
      [
        "이상의",
        -9.2319801016209
      ],
      [
        "둘",
        -9.232572237691276
      ],
      [
        "조사를",
        -9.233072577959321
      ],
      [
        "습니까",
        -9.233246603828663
      ],
      [
        "폐쇄",
        -9.233539922488376
      ],
      [
        "내부",
        -9.234047411159677
      ],
      [
        "순간",
        -9.234228307596757
      ],
      [
        "없었습니다",
        -9.234463499964846
      ],
      [
        "부서",
        -9.234787503011905
      ],
      [
        "광고",
        -9.235009561599208
      ],
      [
        "권력",
        -9.235180143971187
      ],
      [
        "갑자기",
        -9.235532686169458
      ],
      [
        "이것이",
        -9.23620944214069
      ],
      [
        "으니",
        -9.236615135844751
      ],
      [
        "자신이",
        -9.237389582912462
      ],
      [
        "필",
        -9.237429497986374
      ],
      [
        "인구",
        -9.237725918992274
      ],
      [
        "친구",
        -9.238616977744455
      ],
      [
        "아는",
        -9.238882479383602
      ],
      [
        "화가",
        -9.239167228111576
      ],
      [
        "저희는",
        -9.239240462967743
      ],
      [
        "겠죠",
        -9.240743836620743
      ],
      [
        "아들",
        -9.240770583898346
      ],
      [
        "kr",
        -9.240827622947714
      ],
      [
        "퇴",
        -9.241260719099795
      ],
      [
        "국제",
        -9.241827064733688
      ],
      [
        "모르고",
        -9.242110025504063
      ],
      [
        "자의",
        -9.243548813735911
      ],
      [
        "그러",
        -9.243677103573607
      ],
      [
        "→",
        -9.245302716593832
      ],
      [
        "넘는",
        -9.245318804429944
      ],
      [
        "붙",
        -9.246328303849763
      ],
      [
        "평등",
        -9.246951200787521
      ],
      [
        "아니다",
        -9.248448214978518
      ],
      [
        "노조",
        -9.24847869070837
      ],
      [
        "사망",
        -9.248848034144682
      ],
      [
        "언제",
        -9.249327833699333
      ],
      [
        "있습니까",
        -9.249820322973548
      ],
      [
        "언",
        -9.250136260037452
      ],
      [
        "기사를",
        -9.250530419897233
      ],
      [
        "맞지",
        -9.251402751318778
      ],
      [
        "중인",
        -9.252920183503525
      ],
      [
        "아이들을",
        -9.253383357463479
      ],
      [
        "율",
        -9.253714122804404
      ],
      [
        "임대",
        -9.254000068248216
      ],
      [
        "모르",
        -9.254433820421605
      ],
      [
        "사과",
        -9.254445293832664
      ],
      [
        "때는",
        -9.255336057803108
      ],
      [
        "모르겠습니다",
        -9.255847598923449
      ],
      [
        "잡아",
        -9.25585095657378
      ],
      [
        "생명",
        -9.255890649145051
      ],
      [
        "법적",
        -9.25875223945315
      ],
      [
        "쓸",
        -9.258763914216251
      ],
      [
        "적이고",
        -9.259118252536261
      ],
      [
        "했을",
        -9.259425301926377
      ],
      [
        "경기도",
        -9.259608603222189
      ],
      [
        "봐야",
        -9.260250781195163
      ],
      [
        "그것도",
        -9.26030121839294
      ],
      [
        "가야",
        -9.260598628952176
      ],
      [
        "이번에",
        -9.261293523347195
      ],
      [
        "갖고",
        -9.261719676837291
      ],
      [
        "착",
        -9.261993552277374
      ],
      [
        "창출",
        -9.26234231801917
      ],
      [
        "함을",
        -9.262771107118624
      ],
      [
        "골",
        -9.263041043189666
      ],
      [
        "봐",
        -9.263546804025426
      ],
      [
        "현실",
        -9.264805472062736
      ],
      [
        "000원",
        -9.26526211839892
      ],
      [
        "동네",
        -9.265455504903658
      ],
      [
        "공매도",
        -9.266636964747969
      ],
      [
        "정의",
        -9.267033364117287
      ],
      [
        "우리나라의",
        -9.267060462769653
      ],
      [
        "하였으나",
        -9.268399641674817
      ],
      [
        "법에",
        -9.268570646123731
      ],
      [
        "것처럼",
        -9.268643047764304
      ],
      [
        "출산",
        -9.26932091208818
      ],
      [
        "어서",
        -9.269347249787538
      ],
      [
        "한달",
        -9.269797033108611
      ],
      [
        "되는데",
        -9.270418094617785
      ],
      [
        "토지",
        -9.270518616030747
      ],
      [
        "갑니다",
        -9.271188070449933
      ],
      [
        "온갖",
        -9.271522829172328
      ],
      [
        "안보",
        -9.272244960637963
      ],
      [
        "성폭력",
        -9.27273282023305
      ],
      [
        "왕",
        -9.273576170191307
      ],
      [
        "노인",
        -9.27432500925351
      ],
      [
        "사람들을",
        -9.276034684861182
      ],
      [
        "희망",
        -9.276203241892162
      ],
      [
        "낮",
        -9.27629659924093
      ],
      [
        "합의",
        -9.276296734585658
      ],
      [
        "밤",
        -9.27662269065591
      ],
      [
        "나와",
        -9.279527705044039
      ],
      [
        "사람의",
        -9.279728478138077
      ],
      [
        "맘",
        -9.28020324676148
      ],
      [
        "지원을",
        -9.280579277614441
      ],
      [
        "놀",
        -9.280752714586509
      ],
      [
        "제시",
        -9.280846676149634
      ],
      [
        "겠습니까",
        -9.28096044887743
      ],
      [
        "표현",
        -9.281030632520956
      ],
      [
        "하려는",
        -9.2815800333577
      ],
      [
        "앞에",
        -9.281661628957206
      ],
      [
        "하다가",
        -9.282402695764349
      ],
      [
        "협박",
        -9.283577917003422
      ],
      [
        "법의",
        -9.284603958149082
      ],
      [
        "이라면",
        -9.284616286488687
      ],
      [
        "차단",
        -9.285243099796723
      ],
      [
        "경찰의",
        -9.286053511511534
      ],
      [
        "빼",
        -9.286467791564908
      ],
      [
        "장을",
        -9.286602438981765
      ],
      [
        "마치",
        -9.28672910110949
      ],
      [
        "비를",
        -9.287198126240636
      ],
      [
        "12월",
        -9.287719304231052
      ],
      [
        "없애",
        -9.287798432516531
      ],
      [
        "최고",
        -9.28782922793529
      ],
      [
        "상대로",
        -9.288819337715818
      ],
      [
        "거짓",
        -9.289109575286506
      ],
      [
        "보입니다",
        -9.28962874442585
      ],
      [
        "주차",
        -9.289681172509402
      ],
      [
        "위험",
        -9.289913508146855
      ],
      [
        "받을수",
        -9.290564907461931
      ],
      [
        "매년",
        -9.291321962680957
      ],
      [
        "졸업",
        -9.29295345389547
      ],
      [
        "이어",
        -9.293712458024773
      ],
      [
        "하라는",
        -9.294010728780437
      ],
      [
        "제품",
        -9.294704553010483
      ],
      [
        "평균",
        -9.29491445123328
      ],
      [
        "조선",
        -9.295241927080767
      ],
      [
        "나쁜",
        -9.295968479145591
      ],
      [
        "가게",
        -9.296665307703275
      ],
      [
        "합시다",
        -9.29693449931924
      ],
      [
        "름",
        -9.29731777983733
      ],
      [
        "인식",
        -9.297462534200745
      ],
      [
        "성적",
        -9.298290894441832
      ],
      [
        "겠지만",
        -9.300083539391046
      ],
      [
        "I",
        -9.300403298828002
      ],
      [
        "힘들",
        -9.300749741864774
      ],
      [
        "십",
        -9.301966019857142
      ],
      [
        "지나",
        -9.302099295814875
      ],
      [
        "상황을",
        -9.302963228238587
      ],
      [
        "부부",
        -9.303350781666913
      ],
      [
        "거짓말",
        -9.304492411261192
      ],
      [
        "광주",
        -9.306577817256363
      ],
      [
        "억울한",
        -9.306854320810233
      ],
      [
        "료",
        -9.306965928131753
      ],
      [
        "하실",
        -9.309573526191135
      ],
      [
        "찬",
        -9.30984047417366
      ],
      [
        "엄",
        -9.309999934087777
      ],
      [
        "시간에",
        -9.3102423078453
      ],
      [
        "정규직",
        -9.310868172473315
      ],
      [
        "수업",
        -9.312270519224771
      ],
      [
        "연락",
        -9.31368951199519
      ],
      [
        "보지",
        -9.314028343622658
      ],
      [
        "허용",
        -9.31491452746461
      ],
      [
        "나가",
        -9.315224299251208
      ],
      [
        "것이라고",
        -9.31554650809633
      ],
      [
        "현실입니다",
        -9.317109240078787
      ],
      [
        "견",
        -9.318205316345505
      ],
      [
        "쓴",
        -9.318276268034495
      ],
      [
        "윤",
        -9.318396632187
      ],
      [
        "누구나",
        -9.31867464497454
      ],
      [
        "됨",
        -9.319533089864846
      ],
      [
        "뜻",
        -9.319972562017957
      ],
      [
        "상황입니다",
        -9.320192699237346
      ],
      [
        "이익",
        -9.320197541749783
      ],
      [
        "특별",
        -9.321204450310073
      ],
      [
        "7월",
        -9.322588211948093
      ],
      [
        "4년",
        -9.324322196915245
      ],
      [
        "임을",
        -9.32440386326589
      ],
      [
        "생각하고",
        -9.32451434000292
      ],
      [
        "벌어",
        -9.325001612627178
      ],
      [
        "아닌가",
        -9.325194424623628
      ],
      [
        "F",
        -9.325208632560253
      ],
      [
        "저출산",
        -9.325562859924684
      ],
      [
        "틀",
        -9.325834028102834
      ],
      [
        "전화를",
        -9.326112337612336
      ],
      [
        "탄핵",
        -9.326199879237565
      ],
      [
        "전기",
        -9.326591861383585
      ],
      [
        "이름",
        -9.326601825264692
      ],
      [
        "깨",
        -9.32661817123706
      ],
      [
        "고생",
        -9.326878332192123
      ],
      [
        "본인이",
        -9.326936516154749
      ],
      [
        "민족",
        -9.32711501345893
      ],
      [
        "행복",
        -9.327816557241539
      ],
      [
        "조건",
        -9.328177878286613
      ],
      [
        "확보",
        -9.32853839076376
      ],
      [
        "대해서는",
        -9.329061602740373
      ],
      [
        "출근",
        -9.329178021090666
      ],
      [
        "죄를",
        -9.330790310414912
      ],
      [
        "반영",
        -9.331342650920119
      ],
      [
        "허위",
        -9.331347781054047
      ],
      [
        "곳에서",
        -9.33148837278151
      ],
      [
        "집중",
        -9.331656885018786
      ],
      [
        "의미",
        -9.332316747259682
      ],
      [
        "감시",
        -9.332864019754261
      ],
      [
        "하는거",
        -9.333684066043787
      ],
      [
        "대비",
        -9.333818681602931
      ],
      [
        "문을",
        -9.334786688631693
      ],
      [
        "빚",
        -9.335035489844627
      ],
      [
        "대책을",
        -9.335667765597147
      ],
      [
        "머리",
        -9.33614109265361
      ],
      [
        "그리",
        -9.33628895005044
      ],
      [
        "제2",
        -9.336812283440358
      ],
      [
        "위해서는",
        -9.336939541551274
      ],
      [
        "......",
        -9.3370279322581
      ],
      [
        "하고자",
        -9.338328554825909
      ],
      [
        "홍보",
        -9.338609389846745
      ],
      [
        "성공",
        -9.338901570055976
      ],
      [
        "경쟁",
        -9.340181787019878
      ],
      [
        "가져",
        -9.340256262757299
      ],
      [
        "제를",
        -9.340995417980913
      ],
      [
        "대형",
        -9.341433953671245
      ],
      [
        "회장",
        -9.341646947980468
      ],
      [
        "오래",
        -9.341728564188479
      ],
      [
        "별로",
        -9.341958064089562
      ],
      [
        "들에",
        -9.34200253116944
      ],
      [
        "못할",
        -9.34203146164771
      ],
      [
        "자유한국당",
        -9.342707940811062
      ],
      [
        "들어가",
        -9.34337653224119
      ],
      [
        "법원",
        -9.343853597537276
      ],
      [
        "2016년",
        -9.344537275326504
      ],
      [
        "개인의",
        -9.344658914000023
      ],
      [
        "정당",
        -9.3448900078406
      ],
      [
        "사법",
        -9.345667691318276
      ],
      [
        "나온",
        -9.345746699991956
      ],
      [
        "수입",
        -9.346901788556364
      ],
      [
        "싸",
        -9.34729111850951
      ],
      [
        "소음",
        -9.347311966211766
      ],
      [
        "그래야",
        -9.347404417726183
      ],
      [
        "효과",
        -9.347596327292264
      ],
      [
        "자신들의",
        -9.347619551618035
      ],
      [
        "봐도",
        -9.348863494320831
      ],
      [
        "스포츠",
        -9.350604438278532
      ],
      [
        "것이며",
        -9.350890813555786
      ],
      [
        "었",
        -9.351051111785877
      ],
      [
        "일입니다",
        -9.351141970587792
      ],
      [
        "시고",
        -9.351159788602438
      ],
      [
        "아예",
        -9.352096683152475
      ],
      [
        "G",
        -9.352909947586266
      ],
      [
        "혜택",
        -9.35377116187666
      ],
      [
        "세력",
        -9.353804492578531
      ],
      [
        "주거",
        -9.354134641247388
      ],
      [
        "달리",
        -9.354491505561784
      ],
      [
        "2차",
        -9.355700363894224
      ],
      [
        "누",
        -9.356529898171114
      ],
      [
        "영업",
        -9.356538690842147
      ],
      [
        "후에",
        -9.356617833906553
      ],
      [
        "사람들에게",
        -9.357299068447318
      ],
      [
        "자체",
        -9.357344703370003
      ],
      [
        "같",
        -9.35779284014683
      ],
      [
        "일정",
        -9.358265707175827
      ],
      [
        "과정에서",
        -9.358381251976978
      ],
      [
        "미래를",
        -9.359170605322607
      ],
      [
        "연봉",
        -9.359308321696153
      ],
      [
        "1월",
        -9.359339836342947
      ],
      [
        "공공기관",
        -9.35956894052363
      ],
      [
        "한반도",
        -9.359622264902665
      ],
      [
        "중앙",
        -9.360799583008884
      ],
      [
        "수행",
        -9.361198009154526
      ],
      [
        "메",
        -9.361411957934111
      ],
      [
        "2017",
        -9.361520415033773
      ],
      [
        "성폭행",
        -9.362806632911688
      ],
      [
        "생각하는",
        -9.363752266733572
      ],
      [
        "힘을",
        -9.364950763350484
      ],
      [
        "활용",
        -9.365895268901088
      ],
      [
        "내야",
        -9.36647597822494
      ],
      [
        "않을까요",
        -9.366659346735226
      ],
      [
        "아무것도",
        -9.366685786094294
      ],
      [
        "양심",
        -9.36778776955547
      ],
      [
        "방치",
        -9.368500863729569
      ],
      [
        "작업",
        -9.36852139918132
      ],
      [
        "현대",
        -9.368580818637563
      ],
      [
        "안녕하십니까",
        -9.369385965277713
      ],
      [
        "관련된",
        -9.369413762729842
      ],
      [
        "삶을",
        -9.370459555638234
      ],
      [
        "던지",
        -9.370485978012345
      ],
      [
        "어요",
        -9.370940907494425
      ],
      [
        "께",
        -9.371114105311442
      ],
      [
        "i",
        -9.371375959641336
      ],
      [
        "수정",
        -9.371579280590389
      ],
      [
        "사람입니다",
        -9.372049752229712
      ],
      [
        "사실이",
        -9.372116556404677
      ],
      [
        "헌",
        -9.372487322248489
      ],
      [
        "않습니까",
        -9.37279854286153
      ],
      [
        "청산",
        -9.372883000978138
      ],
      [
        "사람도",
        -9.37319513430893
      ],
      [
        "사고가",
        -9.373388106842949
      ],
      [
        "소속",
        -9.373568592705096
      ],
      [
        "운행",
        -9.373981812876343
      ],
      [
        "해주십시오",
        -9.374648950978605
      ],
      [
        "입법",
        -9.374670708298131
      ],
      [
        "될수",
        -9.374903484223866
      ],
      [
        "침",
        -9.375491704654053
      ],
      [
        "선생님",
        -9.37674674521658
      ],
      [
        "고객",
        -9.377127759156934
      ],
      [
        "안된다고",
        -9.377786110041015
      ],
      [
        "통합",
        -9.37913506701016
      ],
      [
        "올라",
        -9.379473646163788
      ],
      [
        "반대합니다",
        -9.379776537479
      ],
      [
        "​",
        -9.38132071845873
      ],
      [
        "처분",
        -9.383541717559806
      ],
      [
        "중단",
        -9.38384040617955
      ],
      [
        "사장",
        -9.3840357340497
      ],
      [
        "실제로",
        -9.385128697538095
      ],
      [
        "밝혀",
        -9.38526849662997
      ],
      [
        "문제로",
        -9.38645592695213
      ],
      [
        "소유",
        -9.38666903043447
      ],
      [
        "90",
        -9.388417777943129
      ],
      [
        "이었습니다",
        -9.388575352094788
      ],
      [
        "영상",
        -9.389378461130512
      ],
      [
        "이익을",
        -9.389387716941727
      ],
      [
        "건축",
        -9.389640327046964
      ],
      [
        "정상",
        -9.38980761934977
      ],
      [
        "필요하다고",
        -9.390037355903887
      ],
      [
        "대부분의",
        -9.390461849286865
      ],
      [
        "ㅡ",
        -9.390989248730222
      ],
      [
        "차를",
        -9.391013442039203
      ],
      [
        "권리를",
        -9.391741430803336
      ],
      [
        "보면서",
        -9.391766769787479
      ],
      [
        "많",
        -9.392369187377987
      ],
      [
        "연장",
        -9.392565594087703
      ],
      [
        "솔직히",
        -9.39313837508032
      ],
      [
        "알게",
        -9.3935858517245
      ],
      [
        "풀어",
        -9.393944876253677
      ],
      [
        "버린",
        -9.394887397169905
      ],
      [
        "서민들",
        -9.39536846062833
      ],
      [
        "6개월",
        -9.395667695940418
      ],
      [
        "조치를",
        -9.39626365211115
      ],
      [
        "돌아가",
        -9.396534080399384
      ],
      [
        "장난",
        -9.396746955755297
      ],
      [
        "철저히",
        -9.396835163617038
      ],
      [
        "심사",
        -9.397187502422026
      ],
      [
        "화재",
        -9.39719947499616
      ],
      [
        "그들이",
        -9.397384389388545
      ],
      [
        "시켜야",
        -9.397891981123378
      ],
      [
        "원칙",
        -9.398087214762104
      ],
      [
        "령",
        -9.398310135726364
      ],
      [
        "회의",
        -9.398916666067297
      ],
      [
        "더라도",
        -9.399026651394145
      ],
      [
        "기타",
        -9.39916416470688
      ],
      [
        "수용",
        -9.39954683088776
      ],
      [
        "촛불",
        -9.39965692618937
      ],
      [
        "그에",
        -9.399707323833393
      ],
      [
        "퇴직",
        -9.399773286082326
      ],
      [
        "말로",
        -9.400124049605992
      ],
      [
        "상황에",
        -9.400527533158423
      ],
      [
        "복무",
        -9.400743492426082
      ],
      [
        "이든",
        -9.401376209873156
      ],
      [
        "의견을",
        -9.40177430083699
      ],
      [
        "생활을",
        -9.401849829420154
      ],
      [
        "장기",
        -9.40216302486707
      ],
      [
        "커",
        -9.402478792209646
      ],
      [
        "성이",
        -9.40252510702672
      ],
      [
        "노후",
        -9.402543475775
      ],
      [
        "모습",
        -9.402871708281872
      ],
      [
        "도움을",
        -9.40391432288978
      ],
      [
        "대한민국이",
        -9.404493019608665
      ],
      [
        "할까요",
        -9.404807168435385
      ],
      [
        "거라",
        -9.405229957059463
      ],
      [
        "필요가",
        -9.40547057865813
      ],
      [
        "빈",
        -9.40550059470004
      ],
      [
        "법인",
        -9.406570238990776
      ],
      [
        "성인",
        -9.407831158095618
      ],
      [
        "제외",
        -9.40809772492305
      ],
      [
        "번호",
        -9.40856833157747
      ],
      [
        "발언",
        -9.408684215894953
      ],
      [
        "제정",
        -9.410255732657681
      ],
      [
        "안내",
        -9.410690254317378
      ],
      [
        "시절",
        -9.410848825033243
      ],
      [
        "교수",
        -9.41123851463661
      ],
      [
        "아빠",
        -9.411270011497232
      ],
      [
        "위협",
        -9.411516659927738
      ],
      [
        "인권을",
        -9.412091261083416
      ],
      [
        "못해",
        -9.412497707168557
      ],
      [
        "충",
        -9.412764066749178
      ],
      [
        "고통을",
        -9.412901827722083
      ],
      [
        "학교에서",
        -9.413629812376401
      ],
      [
        "버리고",
        -9.41421179018083
      ],
      [
        "대한민국을",
        -9.41453248216215
      ],
      [
        "네이버",
        -9.415471835133037
      ],
      [
        "져야",
        -9.415677541656532
      ],
      [
        "제도가",
        -9.41587837621126
      ],
      [
        "부처",
        -9.415990107959882
      ],
      [
        "있을까요",
        -9.416108189428678
      ],
      [
        "저런",
        -9.416342351653764
      ],
      [
        "힘이",
        -9.416846189778603
      ],
      [
        "끼",
        -9.417098412184604
      ],
      [
        "사람들의",
        -9.418105820072498
      ],
      [
        "있음",
        -9.418289212572567
      ],
      [
        "다양한",
        -9.41873550697971
      ],
      [
        "족",
        -9.419321581016225
      ],
      [
        "등이",
        -9.419559373495966
      ],
      [
        "물어",
        -9.419853224304813
      ],
      [
        "그럴",
        -9.420096354194634
      ],
      [
        "서는",
        -9.420599286939899
      ],
      [
        "나오",
        -9.42105615723057
      ],
      [
        "기회를",
        -9.4211171740089
      ],
      [
        "얼굴",
        -9.422222407091974
      ],
      [
        "민간",
        -9.424110896270289
      ],
      [
        "방해",
        -9.424119484727244
      ],
      [
        "거죠",
        -9.42450239065877
      ],
      [
        "진정한",
        -9.424772511960343
      ],
      [
        "어머니",
        -9.42542748150141
      ],
      [
        "목적",
        -9.42552551040733
      ],
      [
        "안정",
        -9.425755374315282
      ],
      [
        "테",
        -9.42619943621681
      ],
      [
        "시급",
        -9.426252583760414
      ],
      [
        "투표",
        -9.42639456077768
      ],
      [
        "작년",
        -9.426424878194565
      ],
      [
        "고려",
        -9.426718629738858
      ],
      [
        "않을까",
        -9.42911548070283
      ],
      [
        "경영",
        -9.430298405312195
      ],
      [
        "축구",
        -9.430433118678408
      ],
      [
        "일단",
        -9.43051610332248
      ],
      [
        "아침",
        -9.430629034410165
      ],
      [
        "자연",
        -9.431237578336338
      ],
      [
        "겠다고",
        -9.431452630990856
      ],
      [
        "이행",
        -9.431942659258763
      ],
      [
        "이기",
        -9.433480482563445
      ],
      [
        "똑같은",
        -9.433733265900875
      ],
      [
        "속에",
        -9.433979768844063
      ],
      [
        "수준",
        -9.43398006782137
      ],
      [
        "H",
        -9.434317591636601
      ],
      [
        "북한의",
        -9.434404657086747
      ],
      [
        "존경하는",
        -9.434920987656048
      ],
      [
        "3월",
        -9.434924194010314
      ],
      [
        "홍",
        -9.43764701681756
      ],
      [
        "도와",
        -9.437729898352472
      ],
      [
        "남녀",
        -9.43843151587278
      ],
      [
        "6월",
        -9.438731223745599
      ],
      [
        "엄청",
        -9.440032765668517
      ],
      [
        "국방",
        -9.440047995242026
      ],
      [
        "바라",
        -9.440260385117575
      ],
      [
        "낼",
        -9.440373698850086
      ],
      [
        "스트레스",
        -9.440435895816941
      ],
      [
        "모습을",
        -9.442181434531884
      ],
      [
        "비해",
        -9.442483353647654
      ],
      [
        "기억",
        -9.442752059816964
      ],
      [
        "사례",
        -9.4427600275191
      ],
      [
        "가면",
        -9.442987748018211
      ],
      [
        "답변을",
        -9.443081152077442
      ],
      [
        "못합니다",
        -9.444622358408703
      ],
      [
        "시기",
        -9.445258874504825
      ],
      [
        "겠다는",
        -9.445918405462868
      ],
      [
        "나중에",
        -9.446766628897173
      ],
      [
        "것과",
        -9.447228509056321
      ],
      [
        "그것이",
        -9.447312919241785
      ],
      [
        "잔",
        -9.448916531003599
      ],
      [
        "타고",
        -9.448951659407884
      ],
      [
        "려면",
        -9.449865367433395
      ],
      [
        "최대",
        -9.45103355983774
      ],
      [
        "수능",
        -9.451165781113623
      ],
      [
        "인원",
        -9.45164735286655
      ],
      [
        "징역",
        -9.453544259912613
      ],
      [
        "도박",
        -9.45354791644734
      ],
      [
        "곡",
        -9.453633068601627
      ],
      [
        "제일",
        -9.454413381049205
      ],
      [
        "입원",
        -9.454451821080744
      ],
      [
        "정치인",
        -9.454805714737525
      ],
      [
        "해주",
        -9.455869576500628
      ],
      [
        "그들은",
        -9.457482931532104
      ],
      [
        "통화",
        -9.458510268311956
      ],
      [
        "누구",
        -9.458794726642722
      ],
      [
        "졌습니다",
        -9.459777835906689
      ],
      [
        "규",
        -9.459788895645673
      ],
      [
        "소비자",
        -9.459862888481217
      ],
      [
        "일까요",
        -9.460299138389619
      ],
      [
        "참고",
        -9.461262142482468
      ],
      [
        "훨씬",
        -9.46126801047981
      ],
      [
        "로써",
        -9.461464133920137
      ],
      [
        "때마다",
        -9.462693324819272
      ],
      [
        "없으면",
        -9.462788828994544
      ],
      [
        "잡고",
        -9.463218587979963
      ],
      [
        "l",
        -9.463245841087168
      ],
      [
        "있으나",
        -9.463438597811722
      ],
      [
        "의심",
        -9.463675019622285
      ],
      [
        "없는데",
        -9.46420834067822
      ],
      [
        "자주",
        -9.464407370356861
      ],
      [
        "최소",
        -9.46445505489388
      ],
      [
        "봉사",
        -9.465339446072425
      ],
      [
        "받기",
        -9.465695181553064
      ],
      [
        "u",
        -9.466093802350768
      ],
      [
        "출신",
        -9.466836307380946
      ],
      [
        "물을",
        -9.467209903940464
      ],
      [
        "일하고",
        -9.467293722591817
      ],
      [
        "동시에",
        -9.467981201586138
      ],
      [
        "집에서",
        -9.468903850007434
      ],
      [
        "특수",
        -9.468908959447857
      ],
      [
        "살아야",
        -9.470077942885975
      ],
      [
        "으",
        -9.47015616814953
      ],
      [
        "만한",
        -9.470698304439145
      ],
      [
        "몰",
        -9.471274063268964
      ],
      [
        "안에",
        -9.471710490347117
      ],
      [
        "우려",
        -9.473052284091004
      ],
      [
        "흡연",
        -9.473676199937787
      ],
      [
        "곧",
        -9.473808642883501
      ],
      [
        "주기",
        -9.474280009208725
      ],
      [
        "월세",
        -9.474396199343614
      ],
      [
        "방법을",
        -9.474402395832689
      ],
      [
        "8월",
        -9.474802872010443
      ],
      [
        "병역",
        -9.474976471189816
      ],
      [
        "뉴스를",
        -9.475072428032993
      ],
      [
        "자영업자",
        -9.475213394309735
      ],
      [
        "앞에서",
        -9.475648957207799
      ],
      [
        "주시",
        -9.475977045093506
      ],
      [
        "말하는",
        -9.476040189991942
      ],
      [
        "려는",
        -9.476297780765822
      ],
      [
        "시키",
        -9.476346689086176
      ],
      [
        "적은",
        -9.476418152556619
      ],
      [
        "수를",
        -9.476709301305917
      ],
      [
        "겠다",
        -9.478132310647046
      ],
      [
        "자들은",
        -9.478361119670971
      ],
      [
        "그걸",
        -9.47839127840579
      ],
      [
        "해주고",
        -9.47899635441878
      ],
      [
        "염",
        -9.479713983380984
      ],
      [
        "똑같이",
        -9.479790347404315
      ],
      [
        "공원",
        -9.479854116293923
      ],
      [
        "한국의",
        -9.479997661577443
      ],
      [
        "최소한",
        -9.480474173040083
      ],
      [
        "담당자",
        -9.480619592255694
      ],
      [
        "방지",
        -9.480923265657147
      ],
      [
        "예방",
        -9.482491910101444
      ],
      [
        "마음이",
        -9.48416298934353
      ],
      [
        "음주",
        -9.48458937281796
      ],
      [
        "없음",
        -9.485456764296204
      ],
      [
        "피해가",
        -9.486591594922983
      ],
      [
        "였",
        -9.486973834941242
      ],
      [
        "공감",
        -9.48719883248356
      ],
      [
        "더불어",
        -9.48743894509347
      ],
      [
        "26",
        -9.487586393943277
      ],
      [
        "파악",
        -9.487820224854575
      ],
      [
        "반성",
        -9.488135719934737
      ],
      [
        "혼",
        -9.491913378587109
      ],
      [
        "in",
        -9.491966002145963
      ],
      [
        "나라에",
        -9.493622346650039
      ],
      [
        "었다",
        -9.493964096646533
      ],
      [
        "수밖에",
        -9.493978152841956
      ],
      [
        "비판",
        -9.494876782338148
      ],
      [
        "경험",
        -9.49575015215105
      ],
      [
        "것이라",
        -9.495903852813665
      ],
      [
        "으로써",
        -9.496864976131969
      ],
      [
        "방안",
        -9.496930584597061
      ],
      [
        "많고",
        -9.497271581731567
      ],
      [
        "무고한",
        -9.497281307147675
      ],
      [
        "남편",
        -9.497985786837413
      ],
      [
        "원장",
        -9.498318141263415
      ],
      [
        "사회가",
        -9.498379923396094
      ],
      [
        "약속",
        -9.498955672062044
      ],
      [
        "간절히",
        -9.500289880291886
      ],
      [
        "사법부",
        -9.50048488243688
      ],
      [
        "보통",
        -9.501071378137329
      ],
      [
        "대법원",
        -9.501160798799946
      ],
      [
        "점이",
        -9.501339013467602
      ],
      [
        "지적",
        -9.501396314007494
      ],
      [
        "따로",
        -9.501619904677355
      ],
      [
        "뒷",
        -9.502395563893723
      ],
      [
        "쉬",
        -9.502751941756348
      ],
      [
        "찍",
        -9.503190833030146
      ],
      [
        "슬",
        -9.503822539521162
      ],
      [
        "주시면",
        -9.504171836236415
      ],
      [
        "사람에게",
        -9.50419381664851
      ],
      [
        "23",
        -9.504721327771517
      ],
      [
        "률",
        -9.505053782628293
      ],
      [
        "저와",
        -9.50636264867577
      ],
      [
        "대한민국에서",
        -9.506486688921129
      ],
      [
        "되었",
        -9.506873661077531
      ],
      [
        "자식",
        -9.5069449541577
      ],
      [
        "검색",
        -9.507232163294251
      ],
      [
        "활성화",
        -9.507522110361219
      ],
      [
        "신고를",
        -9.507650551739108
      ],
      [
        "수사를",
        -9.507873026376908
      ],
      [
        "여기서",
        -9.50918528007808
      ],
      [
        "의한",
        -9.5108298722317
      ],
      [
        "업무를",
        -9.511191972268728
      ],
      [
        "텐데",
        -9.51128442062841
      ],
      [
        "해야할",
        -9.512403010104789
      ],
      [
        "훈",
        -9.513063262480488
      ],
      [
        "건의",
        -9.513641926602908
      ],
      [
        "링크",
        -9.514514887984358
      ],
      [
        "지하철",
        -9.515388239463888
      ],
      [
        "되었으면",
        -9.51551742702705
      ],
      [
        "법안",
        -9.516586499752739
      ],
      [
        "겨우",
        -9.516684784436455
      ],
      [
        "하더군요",
        -9.517131893562883
      ],
      [
        "없도록",
        -9.517192083029764
      ],
      [
        "교체",
        -9.517233049226705
      ],
      [
        "놓",
        -9.517436311746264
      ],
      [
        "겠지요",
        -9.517781087958037
      ],
      [
        "사업을",
        -9.51797796014382
      ],
      [
        "첫",
        -9.51818289108146
      ],
      [
        "감정",
        -9.519555844943106
      ],
      [
        "매매",
        -9.519761961938974
      ],
      [
        "그러니",
        -9.520059075077537
      ],
      [
        "9월",
        -9.520587345633007
      ],
      [
        "활",
        -9.521083515483063
      ],
      [
        "내용은",
        -9.523356038779117
      ],
      [
        "유럽",
        -9.523416234569764
      ],
      [
        "립",
        -9.523795681407954
      ],
      [
        "꼴",
        -9.523846655305556
      ],
      [
        "고시",
        -9.52437526353908
      ],
      [
        "하기도",
        -9.524678708676431
      ],
      [
        "남아",
        -9.525169518361952
      ],
      [
        "재벌",
        -9.525183798701052
      ],
      [
        "법적으로",
        -9.525366937263708
      ],
      [
        "측",
        -9.525459795383114
      ],
      [
        "기만",
        -9.525736117100465
      ],
      [
        "간호사",
        -9.526394511349759
      ],
      [
        "상담",
        -9.526450195669755
      ],
      [
        "빠른",
        -9.526566033901965
      ],
      [
        "협회",
        -9.526674731886226
      ],
      [
        "혈",
        -9.527133257280548
      ],
      [
        "신경",
        -9.527569106726068
      ],
      [
        "할수있는",
        -9.527778593542141
      ],
      [
        "후보",
        -9.528059919032978
      ],
      [
        "성추행",
        -9.528116167152433
      ],
      [
        "나라는",
        -9.52825118187759
      ],
      [
        "부분이",
        -9.528502794710425
      ],
      [
        "건데",
        -9.528512792372865
      ],
      [
        "여러가지",
        -9.5286614378152
      ],
      [
        "보이지",
        -9.528772057576404
      ],
      [
        "졌",
        -9.528909185836886
      ],
      [
        "불편",
        -9.529865673751134
      ],
      [
        "감소",
        -9.529920160518582
      ],
      [
        "왔",
        -9.530117527194335
      ],
      [
        "기회",
        -9.530135142181495
      ],
      [
        "중학교",
        -9.530366317144646
      ],
      [
        "에게는",
        -9.530417749468102
      ],
      [
        "사업자",
        -9.53065661933417
      ],
      [
        "v",
        -9.531060746964492
      ],
      [
        "co",
        -9.531129456380432
      ],
      [
        "사형",
        -9.531349384657911
      ],
      [
        "대처",
        -9.53199585730994
      ],
      [
        "나면",
        -9.532225710720908
      ],
      [
        "사회에",
        -9.532239333754196
      ],
      [
        "례",
        -9.53238615376831
      ],
      [
        "간의",
        -9.532544976760647
      ],
      [
        "키우는",
        -9.532743495092257
      ],
      [
        "손해",
        -9.532938002147626
      ],
      [
        "22",
        -9.533226310301846
      ],
      [
        "완전",
        -9.533926643353432
      ],
      [
        "선고",
        -9.535685314117439
      ],
      [
        "직원들",
        -9.53611273397381
      ],
      [
        "단계",
        -9.536144503580843
      ],
      [
        "같다",
        -9.536333971352615
      ],
      [
        "계산",
        -9.536359893304127
      ],
      [
        "해야하는",
        -9.536392698773515
      ],
      [
        "저녁",
        -9.536599672132033
      ],
      [
        "님들",
        -9.536855122926106
      ],
      [
        "중요",
        -9.536928181858746
      ],
      [
        "향",
        -9.537093160480827
      ],
      [
        "기준으로",
        -9.537155677527311
      ],
      [
        "도저히",
        -9.538047553372886
      ],
      [
        "통제",
        -9.538580172177467
      ],
      [
        "않는다",
        -9.539134834968312
      ],
      [
        "잇",
        -9.539321030022586
      ],
      [
        "세월호",
        -9.539381692670002
      ],
      [
        "나올",
        -9.539511590827521
      ],
      [
        "덜",
        -9.539556324201898
      ],
      [
        "요청합니다",
        -9.539681351374696
      ],
      [
        "수도권",
        -9.540320007094842
      ],
      [
        "없게",
        -9.54042530305521
      ],
      [
        "언제까지",
        -9.541199081990806
      ],
      [
        "재정",
        -9.541233959027709
      ],
      [
        "종합",
        -9.541338079697631
      ],
      [
        "성과",
        -9.541629226965282
      ],
      [
        "1억",
        -9.54234265483832
      ],
      [
        "본다",
        -9.542371365375953
      ],
      [
        "넘게",
        -9.542610631748445
      ],
      [
        "시킬",
        -9.543249348728386
      ],
      [
        "적극",
        -9.543809951147962
      ],
      [
        "는게",
        -9.544259028618049
      ],
      [
        "요금",
        -9.544285693705424
      ],
      [
        "실행",
        -9.544416747855445
      ],
      [
        "지시",
        -9.544840812912732
      ],
      [
        "원인",
        -9.54490003030235
      ],
      [
        "둘째",
        -9.544903618778282
      ],
      [
        "영화",
        -9.54499706581926
      ],
      [
        "장소",
        -9.545190345220382
      ],
      [
        "힘듭니다",
        -9.54523255105677
      ],
      [
        "됩니까",
        -9.545460282610543
      ],
      [
        "한명",
        -9.546707457144882
      ],
      [
        "볼수",
        -9.549295879572792
      ],
      [
        "그나마",
        -9.54950833955725
      ],
      [
        "있나요",
        -9.549594404567488
      ],
      [
        "위치",
        -9.550137058632114
      ],
      [
        "해주시길",
        -9.551710636916951
      ],
      [
        "가며",
        -9.5517843157072
      ],
      [
        "적어도",
        -9.55232474782168
      ],
      [
        "면접",
        -9.552936064367236
      ],
      [
        "적폐청산",
        -9.552961193901998
      ],
      [
        "학대",
        -9.552965945550945
      ],
      [
        "만나",
        -9.55316749420201
      ],
      [
        "대화",
        -9.553344397296762
      ],
      [
        "그렇다면",
        -9.555029720550559
      ],
      [
        "검",
        -9.555395994072768
      ],
      [
        "으나",
        -9.555422173898883
      ],
      [
        "읽어",
        -9.555687383400745
      ],
      [
        "하겠다고",
        -9.555855136032722
      ],
      [
        "보며",
        -9.556089251887904
      ],
      [
        "무기",
        -9.557358212636062
      ],
      [
        "경찰관",
        -9.557640087859872
      ],
      [
        "지자체",
        -9.5580025791343
      ],
      [
        "20대",
        -9.55856869847022
      ],
      [
        "그렇지",
        -9.558825617195648
      ],
      [
        "이야기를",
        -9.558911679852756
      ],
      [
        ".....",
        -9.559256080006758
      ],
      [
        "올바른",
        -9.559959236485192
      ],
      [
        "인생",
        -9.56013174362094
      ],
      [
        "갔",
        -9.560241546664036
      ],
      [
        "r",
        -9.56029626484422
      ],
      [
        "예정",
        -9.56034440671142
      ],
      [
        "#",
        -9.56052782602917
      ],
      [
        "움",
        -9.560738787406965
      ],
      [
        "칭",
        -9.561242231220458
      ],
      [
        "폭등",
        -9.561268745960769
      ],
      [
        "너무나도",
        -9.562063745335584
      ],
      [
        "제1항",
        -9.562098760307428
      ],
      [
        "하는것이",
        -9.562805123915513
      ],
      [
        "명이",
        -9.562895106638909
      ],
      [
        "지구",
        -9.562953024464385
      ],
      [
        "27",
        -9.563012765907487
      ],
      [
        "기는",
        -9.563084962163144
      ],
      [
        "대통령의",
        -9.563519290729117
      ],
      [
        "빛",
        -9.563880717946905
      ],
      [
        "마저",
        -9.564974028055289
      ],
      [
        "4월",
        -9.565322532023366
      ],
      [
        "29",
        -9.565347789941008
      ],
      [
        "북한이",
        -9.565707124193642
      ],
      [
        "자에게",
        -9.565948768557549
      ],
      [
        "교육부",
        -9.566169001033959
      ],
      [
        "24",
        -9.566544162744881
      ],
      [
        "놈",
        -9.56702417651732
      ],
      [
        "문의",
        -9.567580963403662
      ],
      [
        "등급",
        -9.567752654502643
      ],
      [
        "흥",
        -9.568591133307985
      ],
      [
        "부여",
        -9.56905274898438
      ],
      [
        "^^",
        -9.569292759218575
      ],
      [
        "전문가",
        -9.569330088859827
      ],
      [
        "해지",
        -9.569371888362959
      ],
      [
        "조두순",
        -9.56941951626024
      ],
      [
        "11월",
        -9.569696583351877
      ],
      [
        "변화",
        -9.56976907773906
      ],
      [
        "뭘",
        -9.570593663694924
      ],
      [
        "뜨",
        -9.572075031505861
      ],
      [
        "대통령은",
        -9.572076501488867
      ],
      [
        "외교",
        -9.572457110360297
      ],
      [
        "보이는",
        -9.574450696282835
      ],
      [
        "프로그램",
        -9.57618342793783
      ],
      [
        "정도의",
        -9.57686251679077
      ],
      [
        "공약",
        -9.576880826070196
      ],
      [
        "예를",
        -9.577178968868676
      ],
      [
        "마을",
        -9.577314620537566
      ],
      [
        "불가",
        -9.57753439905062
      ],
      [
        "…",
        -9.577963497232167
      ],
      [
        "알바",
        -9.57818105003682
      ],
      [
        "보았습니다",
        -9.580102191727576
      ],
      [
        "지불",
        -9.581710680319155
      ],
      [
        "드는",
        -9.582260961880609
      ],
      [
        "관광",
        -9.58327378076428
      ],
      [
        "민주",
        -9.583391614595529
      ],
      [
        "5월",
        -9.583954867779047
      ],
      [
        "성매매",
        -9.584432952580162
      ],
      [
        "20년",
        -9.584452237150868
      ],
      [
        "이젠",
        -9.585207412437436
      ],
      [
        "분들도",
        -9.585596273629386
      ],
      [
        "말은",
        -9.586386624465314
      ],
      [
        "대기",
        -9.587870259908202
      ],
      [
        "국민청원",
        -9.588533994135515
      ],
      [
        "께서",
        -9.588779261111757
      ],
      [
        "사태",
        -9.589384911579078
      ],
      [
        "입학",
        -9.589689827474801
      ],
      [
        "안되고",
        -9.590754149219135
      ],
      [
        "경제적",
        -9.591083450703634
      ],
      [
        "일자리를",
        -9.591552846022202
      ],
      [
        "통한",
        -9.592081416766554
      ],
      [
        "♥",
        -9.592534497606888
      ],
      [
        "경력",
        -9.592635773432841
      ],
      [
        "정지",
        -9.592644828909359
      ],
      [
        "논",
        -9.592686867333407
      ],
      [
        "쯤",
        -9.592929627233007
      ],
      [
        "마지막",
        -9.593212961877812
      ],
      [
        "강요",
        -9.593327486368251
      ],
      [
        "조성",
        -9.593373869271563
      ],
      [
        "정리",
        -9.593375823590282
      ],
      [
        "해소",
        -9.594024175843744
      ],
      [
        "TV",
        -9.5941428310204
      ],
      [
        "통장",
        -9.59427271513048
      ],
      [
        "병원에서",
        -9.594302683128992
      ],
      [
        "꾸",
        -9.594586636480656
      ],
      [
        "21",
        -9.59521814294242
      ],
      [
        "이동",
        -9.597328897978663
      ],
      [
        "분명히",
        -9.597624952005232
      ],
      [
        "바라는",
        -9.597789187515133
      ],
      [
        "하다는",
        -9.597858324528952
      ],
      [
        "사유",
        -9.598108263969127
      ],
      [
        "커녕",
        -9.598395245707346
      ],
      [
        "되며",
        -9.598402445392413
      ],
      [
        "딱",
        -9.598457868332304
      ],
      [
        "차례",
        -9.598982412437213
      ],
      [
        "시킨",
        -9.599072112019236
      ],
      [
        "기초",
        -9.599233475759467
      ],
      [
        "박탈",
        -9.599437392463411
      ],
      [
        "10월",
        -9.599787117925588
      ],
      [
        "오고",
        -9.60059150292494
      ],
      [
        "싶",
        -9.601442895132193
      ],
      [
        "만명",
        -9.602862581580048
      ],
      [
        "평범한",
        -9.603100797658385
      ],
      [
        "절대로",
        -9.603138310836192
      ],
      [
        "논리",
        -9.603916617401389
      ],
      [
        "보육",
        -9.605002400792992
      ],
      [
        "퇴근",
        -9.605290278493465
      ],
      [
        "하겠다는",
        -9.606385210460626
      ],
      [
        "자로",
        -9.60718531881731
      ],
      [
        "노무현",
        -9.607219562150322
      ],
      [
        "뿌리",
        -9.607637209225965
      ],
      [
        "꿈",
        -9.607925365455214
      ],
      [
        "헤",
        -9.608057617307095
      ],
      [
        "탓",
        -9.608337129520033
      ],
      [
        "소년법",
        -9.60916831690155
      ],
      [
        "보내고",
        -9.609204135184028
      ],
      [
        "하늘",
        -9.609692500152072
      ],
      [
        "길을",
        -9.61026110402431
      ],
      [
        "본인의",
        -9.610647546624293
      ],
      [
        "자기들",
        -9.611641583405095
      ],
      [
        "징계",
        -9.611909416717904
      ],
      [
        "겁",
        -9.612362661404172
      ],
      [
        "자고",
        -9.61257695338983
      ],
      [
        "자꾸",
        -9.612892110767264
      ],
      [
        "때까지",
        -9.612942037343004
      ],
      [
        "나아가",
        -9.613810065018672
      ],
      [
        "정책은",
        -9.61413598041329
      ],
      [
        "정상적인",
        -9.614762384708335
      ],
      [
        "찬성",
        -9.61632857283388
      ],
      [
        "눈치",
        -9.616442565732417
      ],
      [
        "으로부터",
        -9.617047158352275
      ],
      [
        "근거",
        -9.617149666160646
      ],
      [
        "처벌이",
        -9.617336332845307
      ],
      [
        "같아",
        -9.618161454702648
      ],
      [
        "주면",
        -9.61940111188298
      ],
      [
        "국가를",
        -9.61940658833916
      ],
      [
        "항의",
        -9.619436754882726
      ],
      [
        "아님",
        -9.619859516398542
      ],
      [
        "신분",
        -9.620248715544752
      ],
      [
        "애들",
        -9.620806415821416
      ],
      [
        "임신",
        -9.621456709455815
      ],
      [
        "지속",
        -9.621668862573806
      ],
      [
        "개념",
        -9.621725385987952
      ],
      [
        "안전을",
        -9.621763906198154
      ],
      [
        "서울시",
        -9.622695513113785
      ],
      [
        "신규",
        -9.622903133343414
      ],
      [
        "사안",
        -9.623917176343918
      ],
      [
        "기자",
        -9.624615770671625
      ],
      [
        "소비",
        -9.624759125048687
      ],
      [
        "시도",
        -9.625186957759405
      ],
      [
        "올리는",
        -9.62519966503216
      ],
      [
        "독립",
        -9.625716286131494
      ],
      [
        "공정한",
        -9.626450351161651
      ],
      [
        "체육",
        -9.626674423879624
      ],
      [
        "목적으로",
        -9.626854127728327
      ],
      [
        "원래",
        -9.626919735614486
      ],
      [
        "되었다",
        -9.627433445966025
      ],
      [
        "통해서",
        -9.628471326394184
      ],
      [
        "다들",
        -9.629236796381933
      ],
      [
        "휴",
        -9.62962488439569
      ],
      [
        "빠져",
        -9.629679866915266
      ],
      [
        "잖아요",
        -9.629687961553406
      ],
      [
        "존중",
        -9.629720110748316
      ],
      [
        "국방의",
        -9.629740653745163
      ],
      [
        "어제",
        -9.630219207551814
      ],
      [
        "오후",
        -9.630715808945126
      ],
      [
        "단축",
        -9.631582015973686
      ],
      [
        "ㅠㅠ",
        -9.632031924184892
      ],
      [
        "관심",
        -9.632314370784913
      ],
      [
        "입장에서",
        -9.63258256961325
      ],
      [
        "미리",
        -9.633469353754274
      ],
      [
        "발급",
        -9.633915924124762
      ],
      [
        "죽을",
        -9.633988247008778
      ],
      [
        "h",
        -9.634224286853714
      ],
      [
        "사실상",
        -9.63439169398829
      ],
      [
        "여행",
        -9.634648432892119
      ],
      [
        "문자",
        -9.635084811908868
      ],
      [
        "부패",
        -9.635603408646961
      ],
      [
        "2015년",
        -9.636264631610691
      ],
      [
        "선정",
        -9.63696121197443
      ],
      [
        "뭐가",
        -9.637785059939079
      ],
      [
        "다니고",
        -9.638153846384348
      ],
      [
        "길이",
        -9.63829475016141
      ],
      [
        "지식",
        -9.639299874945943
      ],
      [
        "강력하게",
        -9.639462579658728
      ],
      [
        "도움",
        -9.639821934873513
      ],
      [
        "여기에",
        -9.639900432103977
      ],
      [
        "올린",
        -9.64107272305011
      ],
      [
        "공동",
        -9.642204385921763
      ],
      [
        "연결",
        -9.642474697907971
      ],
      [
        "거주",
        -9.64247650883373
      ],
      [
        "응",
        -9.642717389337948
      ],
      [
        "화장실",
        -9.642834070610467
      ],
      [
        "마음에",
        -9.642845563694818
      ],
      [
        "주시기를",
        -9.643559579109311
      ],
      [
        "1일",
        -9.645309410871523
      ],
      [
        "상실",
        -9.64590713588436
      ],
      [
        "절차",
        -9.646351708180278
      ],
      [
        "거라고",
        -9.646476667489376
      ],
      [
        "올리",
        -9.64658521860552
      ],
      [
        "먼",
        -9.646925216212018
      ],
      [
        "※",
        -9.647208839687847
      ],
      [
        "가구",
        -9.648158410223925
      ],
      [
        "금리",
        -9.648557703765915
      ],
      [
        "미성년자",
        -9.648614929367202
      ],
      [
        "해주셨으면",
        -9.648790072744411
      ],
      [
        "학부모",
        -9.649041491220999
      ],
      [
        "인증",
        -9.649208945064611
      ],
      [
        "영향을",
        -9.649411324614544
      ],
      [
        "막아",
        -9.649524297022676
      ],
      [
        "위원장",
        -9.65017305100068
      ],
      [
        "치료를",
        -9.650306219338587
      ],
      [
        "분노",
        -9.650482032923414
      ],
      [
        "진술",
        -9.650902013700364
      ],
      [
        "테러",
        -9.651025031592741
      ],
      [
        "병원에",
        -9.651369752814347
      ],
      [
        "사회에서",
        -9.651808417608725
      ],
      [
        "파괴",
        -9.652231673928831
      ],
      [
        "익",
        -9.653338083850247
      ],
      [
        "경우에는",
        -9.65369857286425
      ],
      [
        "과목",
        -9.654279475140596
      ],
      [
        "사가",
        -9.654653597831523
      ],
      [
        "결과를",
        -9.654871214161483
      ],
      [
        "화를",
        -9.654937354587151
      ],
      [
        "갔습니다",
        -9.655403733197103
      ],
      [
        "관심을",
        -9.656054777429118
      ],
      [
        "옥",
        -9.65644771413324
      ],
      [
        "바람",
        -9.656664581844137
      ],
      [
        "하는것",
        -9.656834167266721
      ],
      [
        "진실",
        -9.657986126621585
      ],
      [
        "배려",
        -9.658574260614877
      ],
      [
        "이혼",
        -9.658841506124764
      ],
      [
        "실패",
        -9.659023055224655
      ],
      [
        "승인",
        -9.659523791081684
      ],
      [
        "해요",
        -9.659617950617035
      ],
      [
        "주소",
        -9.660106095084991
      ],
      [
        "1명",
        -9.66051501116836
      ],
      [
        "받아서",
        -9.66173000370056
      ],
      [
        "x",
        -9.662120051087749
      ],
      [
        "최저",
        -9.662528182549957
      ],
      [
        "둥",
        -9.663010621236944
      ],
      [
        "곳은",
        -9.66333835071665
      ],
      [
        "억원",
        -9.663631189039522
      ],
      [
        "제재",
        -9.663808283098918
      ],
      [
        "강력히",
        -9.664230164306634
      ],
      [
        "30분",
        -9.664751521238932
      ],
      [
        "시위",
        -9.665465735781092
      ],
      [
        "공무원이",
        -9.665642066996636
      ],
      [
        "묻고",
        -9.665980938918077
      ],
      [
        "사용하는",
        -9.666083055139996
      ],
      [
        "소방",
        -9.66638578249338
      ],
      [
        "여전히",
        -9.666605873559735
      ],
      [
        "원을",
        -9.668376999896699
      ],
      [
        "면제",
        -9.668478838686697
      ],
      [
        "살수",
        -9.66863591718637
      ],
      [
        "이루",
        -9.668637820052158
      ],
      [
        "렸",
        -9.668685406892383
      ],
      [
        "했는지",
        -9.66883588648215
      ],
      [
        "버리",
        -9.669279149604893
      ],
      [
        "싸움",
        -9.669752881857406
      ],
      [
        "즈",
        -9.670665442994606
      ],
      [
        "떠나",
        -9.6706751866805
      ],
      [
        "신문",
        -9.67073286005291
      ],
      [
        "2월",
        -9.67127361936863
      ],
      [
        "심한",
        -9.672230516238091
      ],
      [
        "곤",
        -9.672425047199997
      ],
      [
        "놓은",
        -9.672483776202673
      ],
      [
        "제주도",
        -9.672651243744578
      ],
      [
        "국토부",
        -9.672845689032169
      ],
      [
        "었는데",
        -9.67299400485945
      ],
      [
        "경우도",
        -9.67306281565736
      ],
      [
        "법정",
        -9.673156706548946
      ],
      [
        "수익",
        -9.673576280423298
      ],
      [
        "되게",
        -9.674177333001566
      ],
      [
        "하였다",
        -9.67441624347435
      ],
      [
        "바꿔",
        -9.674455665000869
      ],
      [
        "것입니까",
        -9.67446416309151
      ],
      [
        "학생들은",
        -9.675368746166225
      ],
      [
        "당연한",
        -9.675385617678334
      ],
      [
        "강제로",
        -9.675394140405228
      ],
      [
        "취득",
        -9.67635041165763
      ],
      [
        "걸어",
        -9.67762732325902
      ],
      [
        "부족한",
        -9.677925606742432
      ],
      [
        "폐기",
        -9.678002087437834
      ],
      [
        "자들의",
        -9.678554016684261
      ],
      [
        "U",
        -9.678945413303255
      ],
      [
        "해체",
        -9.679550597980171
      ],
      [
        "그렇다고",
        -9.680002124345428
      ],
      [
        "협의",
        -9.680729920197255
      ],
      [
        "모아",
        -9.681200462767636
      ],
      [
        "있어요",
        -9.68135384320676
      ],
      [
        "다만",
        -9.682432152776776
      ],
      [
        "짐",
        -9.682700526482744
      ],
      [
        "방식",
        -9.683107475119805
      ],
      [
        "비용을",
        -9.683500746825123
      ],
      [
        "그것을",
        -9.683553173155731
      ],
      [
        "주차장",
        -9.683866285944127
      ],
      [
        "몰아",
        -9.683979943965811
      ],
      [
        "일도",
        -9.684061477086841
      ],
      [
        "행동을",
        -9.684268095453215
      ],
      [
        "청소",
        -9.684508329842444
      ],
      [
        "3개월",
        -9.686909372811941
      ],
      [
        "하려면",
        -9.68736163234461
      ],
      [
        "28",
        -9.687809415067118
      ],
      [
        "현실이",
        -9.687862803653548
      ],
      [
        "오로지",
        -9.6879907009246
      ],
      [
        "상대",
        -9.688824663767125
      ],
      [
        "안된다",
        -9.689060002987773
      ],
      [
        "시대에",
        -9.68923389026965
      ],
      [
        "피의자",
        -9.690000496802659
      ],
      [
        "여름",
        -9.690153500366756
      ],
      [
        "해주시고",
        -9.69090757528629
      ],
      [
        "겠",
        -9.690920383051965
      ],
      [
        "공단",
        -9.690922291541105
      ],
      [
        "학생들의",
        -9.691376661455795
      ],
      [
        "높",
        -9.691693550753834
      ],
      [
        "칼",
        -9.693646174970864
      ],
      [
        "궁",
        -9.694035562560797
      ],
      [
        "naver",
        -9.694279806992693
      ],
      [
        "사람들도",
        -9.69469745394995
      ],
      [
        "여성가족부",
        -9.695879779824354
      ],
      [
        "웃",
        -9.696254904833262
      ],
      [
        "이상한",
        -9.697362513239872
      ],
      [
        "판결을",
        -9.697549794804742
      ],
      [
        "당하는",
        -9.698526044380092
      ],
      [
        "아닐",
        -9.698608026112941
      ],
      [
        "사상",
        -9.69895950136907
      ],
      [
        "공무원들",
        -9.699193156655333
      ],
      [
        "전달",
        -9.699320275557803
      ],
      [
        "미만",
        -9.699583203229428
      ],
      [
        "습",
        -9.700445462679685
      ],
      [
        "X",
        -9.700650730384657
      ],
      [
        "냐고",
        -9.700994211645543
      ],
      [
        "녀",
        -9.701597998521759
      ],
      [
        "안되",
        -9.701977196176989
      ],
      [
        "했으나",
        -9.702020141259723
      ],
      [
        "계신",
        -9.70259236817798
      ],
      [
        "발견",
        -9.703083738187948
      ],
      [
        "하락",
        -9.703348715212773
      ],
      [
        "갔다",
        -9.703468772863767
      ],
      [
        "실망",
        -9.70403064036604
      ],
      [
        "읍니다",
        -9.704168048811605
      ],
      [
        "육",
        -9.704240099669523
      ],
      [
        "통신",
        -9.704284867331129
      ],
      [
        "자원",
        -9.704419205536169
      ],
      [
        "짓을",
        -9.704861063279711
      ],
      [
        "현장에서",
        -9.705547677833094
      ],
      [
        "상식",
        -9.705690931247016
      ],
      [
        "다시는",
        -9.70586215965662
      ],
      [
        "즉시",
        -9.705867345164032
      ],
      [
        "차원에서",
        -9.705907325619565
      ],
      [
        "되도록",
        -9.705909292354711
      ],
      [
        "설립",
        -9.706052576669055
      ],
      [
        "촌",
        -9.706800895532682
      ],
      [
        "하셨",
        -9.707164534329117
      ],
      [
        "압",
        -9.707807596653486
      ],
      [
        "배치",
        -9.708412142569454
      ],
      [
        "정보를",
        -9.708482499554686
      ],
      [
        "중심",
        -9.708576176322527
      ],
      [
        "대출을",
        -9.708762858017122
      ],
      [
        "공기업",
        -9.708863007567995
      ],
      [
        "넣어",
        -9.709047818817226
      ],
      [
        "전자",
        -9.709387490479005
      ],
      [
        "살아가는",
        -9.709523163738623
      ],
      [
        "의식",
        -9.710285315981668
      ],
      [
        "심판",
        -9.710510189143546
      ],
      [
        "물가",
        -9.710938833213648
      ],
      [
        "무엇을",
        -9.711998352007761
      ],
      [
        "케",
        -9.712013637303514
      ],
      [
        "정당한",
        -9.713270538142641
      ],
      [
        "싶다",
        -9.713620079783963
      ],
      [
        "굴",
        -9.713722913777614
      ],
      [
        "사회의",
        -9.713927716225472
      ],
      [
        "정부와",
        -9.71420461925383
      ],
      [
        "무시하고",
        -9.714264113927166
      ],
      [
        "당사자",
        -9.714943382597614
      ],
      [
        "싶어",
        -9.715275358473527
      ],
      [
        "이러",
        -9.715927032561979
      ],
      [
        "회사에서",
        -9.716878520456639
      ],
      [
        "휴가",
        -9.717011882851951
      ],
      [
        "빠",
        -9.71771356419616
      ],
      [
        "압니다",
        -9.718578475910087
      ],
      [
        "호소",
        -9.718630502466715
      ],
      [
        "남한",
        -9.719368822592106
      ],
      [
        "인건비",
        -9.719645486075525
      ],
      [
        "노출",
        -9.719879435017775
      ],
      [
        "없으니",
        -9.720660580018944
      ],
      [
        "언급",
        -9.721471049023819
      ],
      [
        "높아",
        -9.721512951334805
      ],
      [
        "거기에",
        -9.721761044510364
      ],
      [
        "째",
        -9.721836294414008
      ],
      [
        "필수",
        -9.722333733426877
      ],
      [
        "매출",
        -9.722982773882217
      ],
      [
        "재산을",
        -9.723003156419445
      ],
      [
        "점검",
        -9.723643279046618
      ],
      [
        "되어서",
        -9.72389240606607
      ],
      [
        "제로",
        -9.72431300314605
      ],
      [
        "하는건",
        -9.724727935118127
      ],
      [
        "무엇이",
        -9.72486126924741
      ],
      [
        "좋지",
        -9.725262280443916
      ],
      [
        "상태에서",
        -9.725937886534588
      ],
      [
        "구성",
        -9.726699674731291
      ],
      [
        "자신",
        -9.72797276994895
      ],
      [
        "동일",
        -9.728181448720848
      ],
      [
        "심리",
        -9.728749557947962
      ],
      [
        "무고",
        -9.728902036098457
      ],
      [
        "멸",
        -9.729161072062835
      ],
      [
        "줄어들",
        -9.730336816193377
      ],
      [
        "추천",
        -9.730499463269224
      ],
      [
        "구분",
        -9.730704879832212
      ],
      [
        "수수료",
        -9.730789103958973
      ],
      [
        "낮은",
        -9.73155983649941
      ],
      [
        "저지른",
        -9.73191205463217
      ],
      [
        "취급",
        -9.7321389212293
      ],
      [
        "구청",
        -9.73272842472808
      ],
      [
        "혐오",
        -9.73287538589524
      ],
      [
        "학교에",
        -9.732988896644569
      ],
      [
        "사이",
        -9.733052839207447
      ],
      [
        "현행",
        -9.733426941579598
      ],
      [
        "비난",
        -9.734430635603529
      ],
      [
        "많은데",
        -9.735382245895153
      ],
      [
        "방법으로",
        -9.735773633397468
      ],
      [
        "끊",
        -9.737794143071097
      ],
      [
        "세워",
        -9.737828468535417
      ],
      [
        "버리는",
        -9.737875055026517
      ],
      [
        "있었던",
        -9.738142060668318
      ],
      [
        "주어야",
        -9.738482304434804
      ],
      [
        "1조",
        -9.738707265526518
      ],
      [
        "이거",
        -9.739828181683293
      ],
      [
        "야당",
        -9.740207073559736
      ],
      [
        "예상",
        -9.740498002276164
      ],
      [
        "약자",
        -9.740620802482187
      ],
      [
        "나오고",
        -9.740708211999197
      ],
      [
        "것만",
        -9.741783290295217
      ],
      [
        "금을",
        -9.741926343998808
      ],
      [
        "하죠",
        -9.74218728268432
      ],
      [
        "독도",
        -9.74321544679711
      ],
      [
        "았",
        -9.743325528190729
      ],
      [
        "운전자",
        -9.74366738096879
      ],
      [
        "시험을",
        -9.743862410503919
      ],
      [
        "분들의",
        -9.744325321409471
      ],
      [
        "입고",
        -9.744585100436094
      ],
      [
        "교육청",
        -9.744848971593331
      ],
      [
        "공기",
        -9.745524247413705
      ],
      [
        "아이들은",
        -9.745635736490634
      ],
      [
        "대통령님께서",
        -9.745718775995405
      ],
      [
        "보유",
        -9.745943813462954
      ],
      [
        "최저시급",
        -9.746870881625021
      ],
      [
        "두번",
        -9.747278924248981
      ],
      [
        "대우",
        -9.748641612832554
      ],
      [
        "뇌",
        -9.748658529980688
      ],
      [
        "정권이",
        -9.74912285660481
      ],
      [
        "들로",
        -9.749562047042934
      ],
      [
        "대상으로",
        -9.74970542623636
      ],
      [
        "능",
        -9.749882569593082
      ],
      [
        "개입",
        -9.750111212758481
      ],
      [
        "르고",
        -9.750114407775142
      ],
      [
        "현재의",
        -9.750400198169128
      ],
      [
        "분야",
        -9.750621980827557
      ],
      [
        "만들어주세요",
        -9.75095877593805
      ],
      [
        "부당",
        -9.75124699810883
      ],
      [
        "가족이",
        -9.751336762535027
      ],
      [
        "공격",
        -9.751405950541487
      ],
      [
        "사건에",
        -9.751533295233829
      ],
      [
        "대가",
        -9.751572094993502
      ],
      [
        "청약",
        -9.75168378733701
      ],
      [
        "번째",
        -9.751779154075878
      ],
      [
        "가치",
        -9.75187948485195
      ],
      [
        "실현",
        -9.752818942659596
      ],
      [
        "가격이",
        -9.75347446823791
      ],
      [
        "주인",
        -9.754076577984026
      ],
      [
        "카페",
        -9.75420482566456
      ],
      [
        "말만",
        -9.754336229897058
      ],
      [
        "기준을",
        -9.754446057157944
      ],
      [
        "경우는",
        -9.754558095497794
      ],
      [
        "한국인",
        -9.754989990999695
      ],
      [
        "사회를",
        -9.75504387624607
      ],
      [
        "꿈을",
        -9.755349686850275
      ],
      [
        "통보",
        -9.755467230840765
      ],
      [
        "무죄",
        -9.755585619309507
      ],
      [
        "났",
        -9.755793762462517
      ],
      [
        "통하여",
        -9.756422820999294
      ],
      [
        "나오지",
        -9.756691785623035
      ],
      [
        "계시",
        -9.756992886017429
      ],
      [
        "정확한",
        -9.757204069069239
      ],
      [
        "상의",
        -9.75817693728941
      ],
      [
        "특검",
        -9.758203574397905
      ],
      [
        "합격",
        -9.758213374552396
      ],
      [
        "원합니다",
        -9.758608112567474
      ],
      [
        "이루어",
        -9.758707038728991
      ],
      [
        "시켜주세요",
        -9.759737620102968
      ],
      [
        "맞벌이",
        -9.760595598103821
      ],
      [
        "됐",
        -9.76151454158016
      ],
      [
        "한데",
        -9.762004836468067
      ],
      [
        "맞게",
        -9.762739738682368
      ],
      [
        "출국금지",
        -9.76289609974376
      ],
      [
        "베",
        -9.763673627803117
      ],
      [
        "감을",
        -9.763820989088769
      ],
      [
        "하기에",
        -9.763947152249179
      ],
      [
        "해주시기",
        -9.7647874513973
      ],
      [
        "신청을",
        -9.765080230637361
      ],
      [
        "과정",
        -9.766101135953406
      ],
      [
        "소중한",
        -9.766436615428743
      ],
      [
        "비싼",
        -9.766912291161399
      ],
      [
        "떼",
        -9.767058242962595
      ],
      [
        "주어",
        -9.767117719030649
      ],
      [
        "수십",
        -9.767251690111905
      ],
      [
        "저희가",
        -9.76798052498147
      ],
      [
        "악용",
        -9.768855565931007
      ],
      [
        "외부",
        -9.769107637510938
      ],
      [
        "그러한",
        -9.769520027242203
      ],
      [
        "활동을",
        -9.769773839246161
      ],
      [
        "나머지",
        -9.770094446600995
      ],
      [
        "주가",
        -9.7707820746318
      ],
      [
        "문재인대통령님",
        -9.770940744674565
      ],
      [
        "자본",
        -9.771240899869364
      ],
      [
        "힘들고",
        -9.77135378895953
      ],
      [
        "유도",
        -9.771528427981693
      ],
      [
        "따르면",
        -9.771813851134716
      ],
      [
        "보호법",
        -9.772014188983018
      ],
      [
        "신설",
        -9.772205063216706
      ],
      [
        "임기",
        -9.772721765752694
      ],
      [
        "아내",
        -9.773109921492567
      ],
      [
        "현금",
        -9.77316451839885
      ],
      [
        "주요",
        -9.773388320764711
      ],
      [
        "태도",
        -9.77345098852795
      ],
      [
        "조합",
        -9.773969582389439
      ],
      [
        "얼",
        -9.774118942263144
      ],
      [
        "됐다",
        -9.774566886749897
      ],
      [
        "사건은",
        -9.77459785915883
      ],
      [
        "체제",
        -9.775273351430638
      ],
      [
        "노예",
        -9.775393562944744
      ],
      [
        "것인데",
        -9.776234877634025
      ],
      [
        "삶의",
        -9.776332595325568
      ],
      [
        "시에",
        -9.776453782463657
      ],
      [
        "기계",
        -9.778118832130081
      ],
      [
        "늦",
        -9.778511253781396
      ],
      [
        "관계자",
        -9.778610769086098
      ],
      [
        "내지",
        -9.779466248917707
      ],
      [
        "35",
        -9.780349496050528
      ],
      [
        "1차",
        -9.780517050431326
      ],
      [
        "입주",
        -9.780604476611483
      ],
      [
        "누구를",
        -9.780864653117352
      ],
      [
        "뒤에",
        -9.78109901815735
      ],
      [
        "가까운",
        -9.7818435002035
      ],
      [
        "기획",
        -9.781959493571605
      ],
      [
        "철저한",
        -9.78205136559266
      ],
      [
        "문제입니다",
        -9.782661296430565
      ],
      [
        "훼손",
        -9.782875533281407
      ],
      [
        "말이다",
        -9.783287118802859
      ],
      [
        "회사에",
        -9.783680022789849
      ],
      [
        "제목",
        -9.784397222040102
      ],
      [
        "목숨",
        -9.78444372086052
      ],
      [
        "보험사",
        -9.785166622537172
      ],
      [
        "북한에",
        -9.785643701820694
      ],
      [
        "문제인",
        -9.78606554071443
      ],
      [
        "휴대폰",
        -9.786077240557859
      ],
      [
        "협력",
        -9.786131211316912
      ],
      [
        "같은데",
        -9.786240998550626
      ],
      [
        "상품",
        -9.78639160890614
      ],
      [
        "지침",
        -9.786484287190838
      ],
      [
        "소리를",
        -9.786537004287679
      ],
      [
        "전세계",
        -9.787135908377607
      ],
      [
        "폐지를",
        -9.78718921981559
      ],
      [
        "싶지",
        -9.787593742543212
      ],
      [
        "경제가",
        -9.787698146764217
      ],
      [
        "식당",
        -9.788735619878986
      ],
      [
        "나가는",
        -9.789231212160738
      ],
      [
        "투입",
        -9.789505206203255
      ],
      [
        "조항",
        -9.789542230697467
      ],
      [
        "몇년",
        -9.789639793276985
      ],
      [
        "비교",
        -9.79008429264977
      ],
      [
        "의무화",
        -9.790970155315105
      ],
      [
        "미친",
        -9.790981129959752
      ],
      [
        "그건",
        -9.791228828843103
      ],
      [
        "구역",
        -9.791330121819785
      ],
      [
        "or",
        -9.791721327308704
      ],
      [
        "결코",
        -9.792280373189989
      ],
      [
        "쇼",
        -9.792751988540365
      ],
      [
        "페",
        -9.793190384760615
      ],
      [
        "대상이",
        -9.79404409983255
      ],
      [
        "어린이",
        -9.794674149633211
      ],
      [
        "세상이",
        -9.794854012776245
      ],
      [
        "편의점",
        -9.795223970315462
      ],
      [
        "문제에",
        -9.795683138446012
      ],
      [
        "핵심",
        -9.795748428132992
      ],
      [
        "당선",
        -9.795814616669873
      ],
      [
        "여성이",
        -9.795928172725743
      ],
      [
        "만으로",
        -9.795987218434144
      ],
      [
        "조원",
        -9.796056380210958
      ],
      [
        "코인",
        -9.796255184811681
      ],
      [
        "그만큼",
        -9.796463907208022
      ],
      [
        "파면",
        -9.79649057941449
      ],
      [
        "립니다",
        -9.796613088651846
      ],
      [
        "부대",
        -9.796780565566692
      ],
      [
        "조금이라도",
        -9.796996334275512
      ],
      [
        "핸드폰",
        -9.79747676139809
      ],
      [
        "1인",
        -9.797843597797483
      ],
      [
        "완전히",
        -9.798044219284115
      ],
      [
        "참으로",
        -9.798191962215581
      ],
      [
        "하겠다",
        -9.800049330725708
      ],
      [
        "하십니까",
        -9.80020473833493
      ],
      [
        "수록",
        -9.800683892160237
      ],
      [
        "거지",
        -9.801096873211629
      ],
      [
        "남은",
        -9.801508884844491
      ],
      [
        "정부에",
        -9.801691903612657
      ],
      [
        "구나",
        -9.80173499903713
      ],
      [
        "여부",
        -9.8021044052102
      ],
      [
        "자격증",
        -9.803271413967058
      ],
      [
        "어려워",
        -9.80344200817516
      ],
      [
        "른",
        -9.803814525868638
      ],
      [
        "대한민국에",
        -9.804413098681021
      ],
      [
        "사무실",
        -9.805291361019018
      ],
      [
        "연기",
        -9.805898652245927
      ],
      [
        "지어",
        -9.806230543804954
      ],
      [
        "플",
        -9.806373494812261
      ],
      [
        "주도",
        -9.806722576564898
      ],
      [
        "일에",
        -9.80676379494196
      ],
      [
        "!!!!",
        -9.806803762175887
      ],
      [
        "불가능",
        -9.80692602954604
      ],
      [
        "학생들",
        -9.807304002336135
      ],
      [
        "에만",
        -9.808300775857992
      ],
      [
        "러시아",
        -9.808398636420078
      ],
      [
        "강간",
        -9.80877162639032
      ],
      [
        "알아서",
        -9.808774584847509
      ],
      [
        "버려",
        -9.808963669375508
      ],
      [
        "상관",
        -9.809023735792133
      ],
      [
        "지속적으로",
        -9.80905980431873
      ],
      [
        "었고",
        -9.809346564452985
      ],
      [
        "법령",
        -9.809362426067329
      ],
      [
        "행태",
        -9.809541787641054
      ],
      [
        "부당한",
        -9.810236832015116
      ],
      [
        "아이들의",
        -9.810577466754573
      ],
      [
        "금액을",
        -9.810911420801157
      ],
      [
        "체계",
        -9.810947237121884
      ],
      [
        "이유를",
        -9.810964966260537
      ],
      [
        "션",
        -9.81126457751027
      ],
      [
        "내에서",
        -9.811654887817074
      ],
      [
        "세금이",
        -9.812124167612762
      ],
      [
        "500",
        -9.812142364064005
      ],
      [
        "개인정보",
        -9.81263281363762
      ],
      [
        "보복",
        -9.812904870961228
      ],
      [
        "끝까지",
        -9.813000933933596
      ],
      [
        "생명을",
        -9.813070491718536
      ],
      [
        "새벽",
        -9.81388731233744
      ],
      [
        "하였는데",
        -9.814201937848178
      ],
      [
        "육아",
        -9.814487964160081
      ],
      [
        "전직",
        -9.814674574047537
      ],
      [
        "당신",
        -9.814869999738981
      ],
      [
        "트럼프",
        -9.815414781363158
      ],
      [
        "때문",
        -9.815733788400342
      ],
      [
        "어렵게",
        -9.81583355958371
      ],
      [
        "보조",
        -9.81670316177208
      ],
      [
        "군요",
        -9.817183799894556
      ],
      [
        "득",
        -9.817356883032085
      ],
      [
        "세상에",
        -9.817363096358717
      ],
      [
        "가능성이",
        -9.817733013745748
      ],
      [
        "보게",
        -9.818099410172982
      ],
      [
        "매장",
        -9.818137118035574
      ],
      [
        "괜찮",
        -9.818373582656953
      ],
      [
        "오직",
        -9.818514270197648
      ],
      [
        "현실을",
        -9.818534270598118
      ],
      [
        "해주십시요",
        -9.818547798274103
      ],
      [
        "기득권",
        -9.818594631230475
      ],
      [
        "@",
        -9.818998532275154
      ],
      [
        "협",
        -9.819138785114921
      ],
      [
        "유통",
        -9.819351519648466
      ],
      [
        "독일",
        -9.82002403870101
      ],
      [
        "했더니",
        -9.820485439761848
      ],
      [
        "첫째",
        -9.82054562639838
      ],
      [
        "공유",
        -9.821008673925972
      ],
      [
        "하루하루",
        -9.821288430319084
      ],
      [
        "희망을",
        -9.821995501553278
      ],
      [
        "친일",
        -9.822633896316225
      ],
      [
        "새로",
        -9.82268299770398
      ],
      [
        "가짜",
        -9.822791939498748
      ],
      [
        "정치적",
        -9.823418461614816
      ],
      [
        "봤습니다",
        -9.823921912967812
      ],
      [
        "완",
        -9.823966223431388
      ],
      [
        "운영하는",
        -9.824615936040718
      ],
      [
        "정책에",
        -9.825224062673469
      ],
      [
        "회사가",
        -9.825450536354237
      ],
      [
        "뛰어",
        -9.825641013107093
      ],
      [
        "나무",
        -9.82573873171476
      ],
      [
        "얼마전",
        -9.826969875069828
      ],
      [
        "장사",
        -9.827374968286803
      ],
      [
        "학생입니다",
        -9.827459321106558
      ],
      [
        "대전",
        -9.82754224202575
      ],
      [
        "갈등",
        -9.82759599036469
      ],
      [
        "셨",
        -9.828221637962962
      ],
      [
        "왔다",
        -9.828480180458369
      ],
      [
        "하나도",
        -9.828753432705357
      ],
      [
        "좋을",
        -9.829481776980177
      ],
      [
        "31",
        -9.82996706483995
      ],
      [
        "선발",
        -9.830171834009063
      ],
      [
        "수치",
        -9.830251256329895
      ],
      [
        "사를",
        -9.830269610299226
      ],
      [
        "한국은",
        -9.830991196121559
      ],
      [
        "굳이",
        -9.831480487847152
      ],
      [
        "한마디",
        -9.832093203153585
      ],
      [
        "방향",
        -9.832501795174597
      ],
      [
        "힌",
        -9.832884581474707
      ],
      [
        "er",
        -9.833877554684877
      ],
      [
        "놈들",
        -9.834027745193563
      ],
      [
        "아이의",
        -9.834586505946689
      ],
      [
        "약을",
        -9.834782896571964
      ],
      [
        "신뢰",
        -9.835191384538515
      ],
      [
        "짜",
        -9.835256432184762
      ],
      [
        "사업장",
        -9.836121670102541
      ],
      [
        "바보",
        -9.837049013177225
      ],
      [
        "혐의",
        -9.837158985777174
      ],
      [
        "적극적으로",
        -9.837242989150573
      ],
      [
        "때문이다",
        -9.837769302536078
      ],
      [
        "45",
        -9.837861996837555
      ],
      [
        "차이가",
        -9.838654568047865
      ],
      [
        "력이",
        -9.838763224990256
      ],
      [
        "모릅니다",
        -9.839002778881612
      ],
      [
        "에너지",
        -9.8397272277964
      ],
      [
        "위법",
        -9.840226379856038
      ],
      [
        "비핵화",
        -9.840360176171666
      ],
      [
        "임에도",
        -9.840529008195947
      ],
      [
        "마음을",
        -9.8406303677798
      ],
      [
        "공정",
        -9.840686358931848
      ],
      [
        "기업이",
        -9.840859208071523
      ],
      [
        "수리",
        -9.841095345475578
      ],
      [
        "이들은",
        -9.841186490800384
      ],
      [
        "W",
        -9.841332207033952
      ],
      [
        "여론",
        -9.841544238728153
      ],
      [
        "V",
        -9.84298711165137
      ],
      [
        "떨",
        -9.843126095879898
      ],
      [
        "유튜브",
        -9.843134363281562
      ],
      [
        "동생",
        -9.84376020289423
      ],
      [
        "였다",
        -9.844138198956637
      ],
      [
        "갈수",
        -9.844311644904646
      ],
      [
        "라며",
        -9.844759824455034
      ],
      [
        "게시물",
        -9.844893732288767
      ],
      [
        "억울",
        -9.845293662156822
      ],
      [
        "가면서",
        -9.84533154471472
      ],
      [
        "과세",
        -9.845522627658381
      ],
      [
        "증명",
        -9.845786363128532
      ],
      [
        "매달",
        -9.847830611434045
      ],
      [
        "비용이",
        -9.848183823464012
      ],
      [
        "손실",
        -9.848405146774935
      ],
      [
        "나와서",
        -9.848487258313389
      ],
      [
        "옵니다",
        -9.849134028042222
      ],
      [
        "수준이",
        -9.849810854352452
      ],
      [
        "피해자는",
        -9.84996734243977
      ],
      [
        "단순",
        -9.850159075137112
      ],
      [
        "때도",
        -9.85167328914649
      ],
      [
        "있어도",
        -9.85173698193706
      ],
      [
        "다시한번",
        -9.852172448055411
      ],
      [
        "그럼에도",
        -9.852184908875882
      ],
      [
        "때부터",
        -9.852218058086974
      ],
      [
        "입사",
        -9.852284339094155
      ],
      [
        "피해자를",
        -9.852422504107262
      ],
      [
        "올리고",
        -9.852474012807008
      ],
      [
        "줄여",
        -9.85270402713594
      ],
      [
        "공익",
        -9.852774719141312
      ],
      [
        "앞서",
        -9.852878074197674
      ],
      [
        "2명",
        -9.853206503063875
      ],
      [
        "나갈",
        -9.853498510847682
      ],
      [
        "만들어서",
        -9.853524091410645
      ],
      [
        "브",
        -9.853654478832222
      ],
      [
        "국가는",
        -9.853835720280047
      ],
      [
        "일반행정공무원들",
        -9.853879310884261
      ],
      [
        "불러",
        -9.853946072472723
      ],
      [
        "헌법재판소",
        -9.854298570268616
      ],
      [
        "안에서",
        -9.854420731990675
      ],
      [
        "완화",
        -9.854472959612824
      ],
      [
        "져서",
        -9.855513183238493
      ],
      [
        "없네요",
        -9.855636172033307
      ],
      [
        "아무도",
        -9.855812643447846
      ],
      [
        "물건",
        -9.85590711570992
      ],
      [
        "사정",
        -9.856134503358685
      ],
      [
        "술을",
        -9.856134791011879
      ],
      [
        "압박",
        -9.856151006505101
      ],
      [
        "장은",
        -9.856406597769814
      ],
      [
        "벽",
        -9.857030864548015
      ],
      [
        "내리",
        -9.857102469061248
      ],
      [
        "자산",
        -9.857368163028283
      ],
      [
        "지역에",
        -9.8577382829526
      ],
      [
        "확정",
        -9.859246362995236
      ],
      [
        "해서는",
        -9.85992485040159
      ],
      [
        "선동",
        -9.860081022205977
      ],
      [
        "갚",
        -9.862193477664274
      ],
      [
        "단순히",
        -9.86283214523844
      ],
      [
        "여성의",
        -9.862899745442627
      ],
      [
        "마시",
        -9.862936112414078
      ],
      [
        "하지도",
        -9.863033941454017
      ],
      [
        "폰",
        -9.864345487665775
      ],
      [
        "것인가",
        -9.865007374485554
      ],
      [
        "상처",
        -9.866577359775366
      ],
      [
        "만원",
        -9.866641181717982
      ],
      [
        "넘어가",
        -9.866818874514319
      ],
      [
        "대다수",
        -9.867120140361338
      ],
      [
        "차가",
        -9.867247291001648
      ],
      [
        "막고",
        -9.867441093564615
      ],
      [
        "되서",
        -9.86765384632855
      ],
      [
        "군사",
        -9.867669468072306
      ],
      [
        "닫",
        -9.867912603216517
      ],
      [
        "결제",
        -9.868128148515561
      ],
      [
        "택",
        -9.86830036302046
      ],
      [
        "맹",
        -9.86853690867236
      ],
      [
        "스러운",
        -9.869365756618455
      ],
      [
        "비가",
        -9.869390431278495
      ],
      [
        "에겐",
        -9.870032802715848
      ],
      [
        "논의",
        -9.870984291461427
      ],
      [
        "99",
        -9.87121356683661
      ],
      [
        "기간이",
        -9.871498855230513
      ],
      [
        "근무를",
        -9.871555733623756
      ],
      [
        "지진",
        -9.871563664690163
      ],
      [
        "촬영",
        -9.873433940188313
      ],
      [
        "가까이",
        -9.873824463747242
      ],
      [
        "죽음",
        -9.873971509186541
      ],
      [
        "강조",
        -9.874499800151954
      ],
      [
        "같아요",
        -9.875108099587628
      ],
      [
        "정신적",
        -9.875728906025826
      ],
      [
        "전부터",
        -9.875916690834865
      ],
      [
        "강도",
        -9.87668880072364
      ],
      [
        "자리에",
        -9.877219070761706
      ],
      [
        "30대",
        -9.877265179120188
      ],
      [
        "문서",
        -9.878021449489617
      ],
      [
        "들어서",
        -9.87818382089034
      ],
      [
        "마찬가지",
        -9.87860959207252
      ],
      [
        "양성",
        -9.87869451424125
      ],
      [
        "보건",
        -9.878983362200083
      ],
      [
        "택배",
        -9.879132653038976
      ],
      [
        "규모",
        -9.879882383410813
      ],
      [
        "미국의",
        -9.880236542007555
      ],
      [
        "자행",
        -9.880504377010457
      ],
      [
        "해줄",
        -9.880608826540204
      ],
      [
        "집안",
        -9.880802317358494
      ],
      [
        "공항",
        -9.880842799385464
      ],
      [
        "받습니다",
        -9.880954347024977
      ],
      [
        "상상",
        -9.8811780967253
      ],
      [
        "de",
        -9.88249796360426
      ],
      [
        "공부를",
        -9.882783757931316
      ],
      [
        "실정입니다",
        -9.88322928737187
      ],
      [
        "위기",
        -9.883429787998397
      ],
      [
        "창업",
        -9.884435354106218
      ],
      [
        "우리나라가",
        -9.88446101015361
      ],
      [
        "빌",
        -9.88461285163452
      ],
      [
        "이전에",
        -9.885107431510432
      ],
      [
        "어차피",
        -9.885377454668353
      ],
      [
        "고속도로",
        -9.885487930900512
      ],
      [
        "식의",
        -9.885845100610828
      ],
      [
        "출소",
        -9.885915919531028
      ],
      [
        "위로",
        -9.886938718464753
      ],
      [
        "하셨습니다",
        -9.88695781346456
      ],
      [
        "돈은",
        -9.887072343869606
      ],
      [
        "3명",
        -9.888010164904708
      ],
      [
        "그룹",
        -9.88801035655552
      ],
      [
        "자율",
        -9.888094187056218
      ],
      [
        "모를",
        -9.888638775627316
      ],
      [
        "용역",
        -9.88885086046179
      ],
      [
        "잊",
        -9.889015311768736
      ],
      [
        "느",
        -9.889043043700502
      ],
      [
        "정책으로",
        -9.889188276887403
      ],
      [
        "나옵니다",
        -9.889278077219402
      ],
      [
        "마음으로",
        -9.88943646500731
      ],
      [
        "바닥",
        -9.88945919086688
      ],
      [
        "공제",
        -9.890119990269845
      ],
      [
        "회복",
        -9.890373297416136
      ],
      [
        "정비",
        -9.890385099334342
      ],
      [
        "소방관",
        -9.890635119335197
      ],
      [
        "방학",
        -9.891312314937776
      ],
      [
        "교회",
        -9.891426849859416
      ],
      [
        "련",
        -9.891698822013844
      ],
      [
        "위원",
        -9.891837365990224
      ],
      [
        "소득이",
        -9.892584328168178
      ],
      [
        "벗어나",
        -9.892961443326788
      ],
      [
        "즉각",
        -9.892979056069949
      ],
      [
        "대회",
        -9.89299251742674
      ],
      [
        "방식으로",
        -9.892993377849459
      ],
      [
        "피해자의",
        -9.89365315312908
      ],
      [
        "~~~",
        -9.893945908696303
      ],
      [
        "접근",
        -9.894162428732827
      ],
      [
        "해석",
        -9.894382423733706
      ],
      [
        "않았",
        -9.895146005215528
      ],
      [
        "계좌",
        -9.895549741760124
      ],
      [
        "게다가",
        -9.89576298452496
      ],
      [
        "아픈",
        -9.895969304512523
      ],
      [
        "국방부",
        -9.896468318397226
      ],
      [
        "근무하는",
        -9.89657015001005
      ],
      [
        "세를",
        -9.896634485522965
      ],
      [
        "없으며",
        -9.896641069372592
      ],
      [
        "명을",
        -9.897196131716377
      ],
      [
        "국정",
        -9.897322980733776
      ],
      [
        "잔인",
        -9.897601107814738
      ],
      [
        "아마",
        -9.897690608514209
      ],
      [
        "환경을",
        -9.898582171562655
      ],
      [
        "ᆢ",
        -9.898649107105797
      ],
      [
        "경찰은",
        -9.899224131234545
      ],
      [
        "더라구요",
        -9.89939843473398
      ],
      [
        "대답",
        -9.899937069733756
      ],
      [
        "하지말고",
        -9.900464778929242
      ],
      [
        "300",
        -9.900569180302888
      ],
      [
        "어느정도",
        -9.900680854240246
      ],
      [
        "이슬람",
        -9.901371781922522
      ],
      [
        "죽어",
        -9.90148964666272
      ],
      [
        "re",
        -9.902629208588452
      ],
      [
        "①",
        -9.902734914610834
      ],
      [
        "공간",
        -9.903115196594909
      ],
      [
        "아프",
        -9.903243898704424
      ],
      [
        "아닌데",
        -9.903271272275934
      ],
      [
        "이들이",
        -9.90332878003576
      ],
      [
        "의혹",
        -9.904610164305765
      ],
      [
        "결론",
        -9.90490629012571
      ],
      [
        "탁",
        -9.904947295751187
      ],
      [
        "보안",
        -9.904992644102403
      ],
      [
        "전형",
        -9.905353346547056
      ],
      [
        "교통사고",
        -9.905375374190992
      ],
      [
        "아이들에게",
        -9.905741238420493
      ],
      [
        "현상",
        -9.906957124735127
      ],
      [
        "천만원",
        -9.907024539655259
      ],
      [
        "형태",
        -9.908075978774985
      ],
      [
        "관련하여",
        -9.908148514984578
      ],
      [
        "원전",
        -9.908956865323974
      ],
      [
        "계약을",
        -9.909360600101378
      ],
      [
        "장비",
        -9.909463749113021
      ],
      [
        "경찰청",
        -9.910134182746061
      ],
      [
        "걷",
        -9.910481406631947
      ],
      [
        "상을",
        -9.910515261013861
      ],
      [
        "영세",
        -9.910584478897622
      ],
      [
        "철도",
        -9.910827990237927
      ],
      [
        "게시판",
        -9.91087067471851
      ],
      [
        "납",
        -9.910949817844369
      ],
      [
        "몇몇",
        -9.911027666328485
      ],
      [
        "집이",
        -9.911954950857222
      ],
      [
        "실험",
        -9.912166084553046
      ],
      [
        "방안을",
        -9.91221307475664
      ],
      [
        "이상이",
        -9.912291166044643
      ],
      [
        "바란다",
        -9.912618271188162
      ],
      [
        "100만원",
        -9.913087801022494
      ],
      [
        "표시",
        -9.913365623372727
      ],
      [
        "쪽으로",
        -9.913552701401308
      ],
      [
        "본사",
        -9.914263621597435
      ],
      [
        "문제점",
        -9.914836780230736
      ],
      [
        "법무부",
        -9.915199588989774
      ],
      [
        "무상",
        -9.915378147601835
      ],
      [
        "내어",
        -9.915452290458813
      ],
      [
        "말이죠",
        -9.915623676738337
      ],
      [
        "아기",
        -9.915824432944042
      ],
      [
        "잘못을",
        -9.916203850024617
      ],
      [
        "앉",
        -9.916556461532844
      ],
      [
        "괴",
        -9.91678727220248
      ],
      [
        "팀장",
        -9.91702891421453
      ],
      [
        "면허",
        -9.917147266831577
      ],
      [
        "대상자",
        -9.91716098672659
      ],
      [
        "지출",
        -9.917532268216927
      ],
      [
        "욕을",
        -9.917905180287644
      ],
      [
        "답니다",
        -9.91875516689133
      ],
      [
        "없지만",
        -9.91913438222845
      ],
      [
        "사고를",
        -9.919688229981647
      ],
      [
        "01",
        -9.920387120509162
      ],
      [
        "명예",
        -9.920428637672016
      ],
      [
        "남의",
        -9.92160136104718
      ],
      [
        "팔아",
        -9.92167642936911
      ],
      [
        "안전한",
        -9.92192186461491
      ],
      [
        "알수",
        -9.922373750649962
      ],
      [
        "전면",
        -9.922424740299753
      ],
      [
        "화폐",
        -9.9224965066297
      ],
      [
        "만들어야",
        -9.92309439418171
      ],
      [
        "잡는",
        -9.924262059086274
      ],
      [
        "비슷한",
        -9.924442644685778
      ],
      [
        "기본적인",
        -9.924969985578702
      ],
      [
        "갈수록",
        -9.926343914475597
      ],
      [
        "하고있습니다",
        -9.926567831359112
      ],
      [
        "중간",
        -9.926690894106981
      ],
      [
        "역할을",
        -9.92674718900349
      ],
      [
        "세상을",
        -9.927218688164814
      ],
      [
        "SD",
        -9.928045399735382
      ],
      [
        "나이가",
        -9.92810294365032
      ],
      [
        "특권",
        -9.928158453962578
      ],
      [
        "보육교사",
        -9.928254832885253
      ],
      [
        "보건복지부",
        -9.928334659529288
      ],
      [
        "공권력",
        -9.928548718012596
      ],
      [
        "씨는",
        -9.928719425178976
      ],
      [
        "기다리",
        -9.92887210295805
      ],
      [
        "지원금",
        -9.929777096149849
      ],
      [
        "어디서",
        -9.929904673952556
      ],
      [
        "끼리",
        -9.931127855392738
      ],
      [
        "무고죄",
        -9.931305792920904
      ],
      [
        "옷",
        -9.931608272948479
      ],
      [
        "달려",
        -9.932036608776743
      ],
      [
        "연차",
        -9.93210648523007
      ],
      [
        "북한은",
        -9.932764665375545
      ],
      [
        "업자",
        -9.933421790234469
      ],
      [
        "탕",
        -9.933959274592542
      ],
      [
        "규제를",
        -9.934405995567001
      ],
      [
        "야간",
        -9.935659208271797
      ],
      [
        "이하의",
        -9.936059050473027
      ],
      [
        "강아지",
        -9.936094218118328
      ],
      [
        "하니까",
        -9.93667957770392
      ],
      [
        "퇴직금",
        -9.93724039731349
      ],
      [
        "어쩌",
        -9.937357612943254
      ],
      [
        "믿",
        -9.937401187777887
      ],
      [
        "배우",
        -9.937702178019684
      ],
      [
        "윗",
        -9.937919657071895
      ],
      [
        "눈에",
        -9.938089148425167
      ],
      [
        "있었는데",
        -9.938217555759705
      ],
      [
        "살려",
        -9.93829076472469
      ],
      [
        "30년",
        -9.938515989087842
      ],
      [
        "부분을",
        -9.939002400100955
      ],
      [
        "질병",
        -9.939478088483474
      ],
      [
        "능력이",
        -9.94007963894302
      ],
      [
        "에선",
        -9.940483721544581
      ],
      [
        "체험",
        -9.940685117738072
      ],
      [
        "옆",
        -9.940794494890218
      ],
      [
        "매도",
        -9.941560830567363
      ],
      [
        "2019년",
        -9.941607122119894
      ],
      [
        "한국에서",
        -9.941943833626897
      ],
      [
        "하나의",
        -9.942577367339053
      ],
      [
        "마세요",
        -9.942870432776283
      ],
      [
        "벌써",
        -9.943890842720865
      ],
      [
        "결과가",
        -9.943992776794026
      ],
      [
        "스트",
        -9.94411733626017
      ],
      [
        "가슴",
        -9.944197441702157
      ],
      [
        "까봐",
        -9.944206754498067
      ],
      [
        "있었고",
        -9.94439451883593
      ],
      [
        "st",
        -9.944448901016854
      ],
      [
        "축소",
        -9.94446230453086
      ],
      [
        "답답",
        -9.94479786646341
      ],
      [
        "유출",
        -9.945770023436419
      ],
      [
        "어이가",
        -9.945819027548119
      ],
      [
        "베트남",
        -9.945962633578384
      ],
      [
        "맨",
        -9.946449012120729
      ],
      [
        "보험료",
        -9.946951651507117
      ],
      [
        "한국에",
        -9.94760809549495
      ],
      [
        "좌",
        -9.948048376946195
      ],
      [
        "에대한",
        -9.948108264032147
      ],
      [
        "있음에도",
        -9.94814112737594
      ],
      [
        "상위",
        -9.948258851983795
      ],
      [
        "고작",
        -9.949167914133753
      ],
      [
        "부분에",
        -9.949660646009912
      ],
      [
        "지인",
        -9.949718566961552
      ],
      [
        "협상",
        -9.949948159596467
      ],
      [
        "시스템을",
        -9.949951924691977
      ],
      [
        "부지",
        -9.950000829397688
      ],
      [
        "사건의",
        -9.950502220908522
      ],
      [
        "보세요",
        -9.950666250977447
      ],
      [
        "노력을",
        -9.951066066450231
      ],
      [
        "대책이",
        -9.951169665215406
      ],
      [
        "최대한",
        -9.951850132085443
      ],
      [
        "●",
        -9.952395467469143
      ],
      [
        "생계",
        -9.952426785681107
      ],
      [
        "위와",
        -9.95335055453127
      ],
      [
        "선언",
        -9.953564577945537
      ],
      [
        "검증",
        -9.954083754749961
      ],
      [
        "가운데",
        -9.954095520396274
      ],
      [
        "숫자",
        -9.954192332061659
      ],
      [
        "기준이",
        -9.954403118803006
      ],
      [
        "해놓고",
        -9.954476779508456
      ],
      [
        "함이",
        -9.954739891870528
      ],
      [
        "위험한",
        -9.955301087284566
      ],
      [
        "이용하는",
        -9.955690379590534
      ],
      [
        "들어가는",
        -9.956070123821466
      ],
      [
        "뇌물",
        -9.956272958578687
      ],
      [
        "혜",
        -9.956513659881773
      ],
      [
        "여당",
        -9.95667556492045
      ],
      [
        "글이",
        -9.956983754199298
      ],
      [
        "드리",
        -9.957034330909117
      ],
      [
        "당신들",
        -9.957156427415297
      ],
      [
        "범죄가",
        -9.957642760214442
      ],
      [
        "분은",
        -9.957815141998383
      ],
      [
        "서민들은",
        -9.958551232735404
      ],
      [
        "토론",
        -9.958575999222319
      ],
      [
        "사전",
        -9.958624474308202
      ],
      [
        "자리를",
        -9.959388189157224
      ],
      [
        "출퇴근",
        -9.959508547918956
      ],
      [
        "않기",
        -9.96036277457624
      ],
      [
        "졸",
        -9.960727623191197
      ],
      [
        "기능",
        -9.960891826505133
      ],
      [
        "페미니즘",
        -9.961037948496793
      ],
      [
        "않아도",
        -9.961415541804245
      ],
      [
        "일들이",
        -9.96159372715875
      ],
      [
        "비트코인",
        -9.961761903047867
      ],
      [
        "진보",
        -9.961910493714832
      ],
      [
        "강력",
        -9.962398309008913
      ],
      [
        "리고",
        -9.962599312271882
      ],
      [
        "낙",
        -9.962631472343288
      ],
      [
        "오전",
        -9.963068980180322
      ],
      [
        "진실을",
        -9.963490829526462
      ],
      [
        "02",
        -9.963867884833517
      ],
      [
        "자국민",
        -9.964296643726604
      ],
      [
        "자전거",
        -9.964401697948567
      ],
      [
        "대를",
        -9.964471007037426
      ],
      [
        "바입니다",
        -9.96466438547493
      ],
      [
        "속도",
        -9.96480366335177
      ],
      [
        "던가",
        -9.96530283615923
      ],
      [
        "직원이",
        -9.965458903328365
      ],
      [
        "어렵습니다",
        -9.965610014487764
      ],
      [
        "받았",
        -9.96581374314869
      ],
      [
        "진다",
        -9.966657260591285
      ],
      [
        "언어",
        -9.967116818414857
      ],
      [
        "않는다면",
        -9.967302139094368
      ],
      [
        "졌다",
        -9.96731929705027
      ],
      [
        "학교를",
        -9.96751335954706
      ],
      [
        "효",
        -9.967606341321778
      ],
      [
        "내년",
        -9.96821020191475
      ],
      [
        "않나요",
        -9.968376903812736
      ],
      [
        "33",
        -9.96971955474469
      ],
      [
        "독재",
        -9.969970920406656
      ],
      [
        "응원",
        -9.970331135858146
      ],
      [
        "담배를",
        -9.97064663673199
      ],
      [
        "집회",
        -9.970729577440668
      ],
      [
        "그것은",
        -9.971104914026744
      ],
      [
        "존",
        -9.971290485959837
      ],
      [
        "켜",
        -9.971799573637842
      ],
      [
        "보았",
        -9.972131379287081
      ],
      [
        "되었다고",
        -9.972163509554616
      ],
      [
        "났습니다",
        -9.97220997080091
      ],
      [
        "구제",
        -9.972912188616439
      ],
      [
        "국민과",
        -9.972946235421059
      ],
      [
        "경비",
        -9.973045865229187
      ],
      [
        "푸",
        -9.973410642563552
      ],
      [
        "혹",
        -9.974134601014384
      ],
      [
        "진료",
        -9.974339730785585
      ],
      [
        ",,,",
        -9.974419921981266
      ],
      [
        "하는것은",
        -9.974452171528071
      ],
      [
        "강한",
        -9.97461303600909
      ],
[...]
