{
  "version": "1.0",
  "truncation": null,
  "padding": null,
  "added_tokens": [
    {
      "id": 0,
      "content": "<unk>",
      "single_word": false,
      "lstrip": false,
      "rstrip": false,
      "normalized": false,
      "special": true
    },
    {
      "id": 1,
      "content": "<pad>",
      "single_word": false,
      "lstrip": false,
      "rstrip": false,
      "normalized": false,
      "special": true
    }
  ],
  "normalizer": null,
  "pre_tokenizer": {
    "type": "Whitespace"
  },
  "post_processor": null,
  "decoder": null,
  "model": {
    "type": "BPE",
    "dropout": null,
    "unk_token": "<unk?",
    "continuing_subword_prefix": "##",
    "end_of_word_suffix": null,
    "fuse_unk": false,
    "byte_fallback": false,
    "ignore_merges": false,
    "vocab": {
      "<unk>": 0,
      "<pad>": 1,
      "0": 2,
      "1": 3,
      "2": 4,
      "3": 5,
      "4": 6,
      "5": 7,
      "6": 8,
      "7": 9,
      "8": 10,
      "9": 11,
      "\\": 12,
      "a": 13,
      "b": 14,
      "c": 15,
      "d": 16,
      "e": 17,
      "f": 18,
      "g": 19,
      "h": 20,
      "i": 21,
      "j": 22,
      "k": 23,
      "l": 24,
      "m": 25,
      "n": 26,
      "o": 27,
      "p": 28,
      "q": 29,
      "r": 30,
      "s": 31,
      "t": 32,
      "u": 33,
      "v": 34,
      "w": 35,
      "x": 36,
      "y": 37,
      "z": 38,
      "¡": 39,
      "¤": 40,
      "§": 41,
      "¨": 42,
      "­": 43,
      "°": 44,
      "²": 45,
      "³": 46,
      "´": 47,
      "·": 48,
      "¿": 49,
      "×": 50,
      "÷": 51,
      "˚": 52,
      "π": 53,
      "ω": 54,
      "ᆞ": 55,
      "ᆨ": 56,
      "ᆩ": 57,
      "ᆪ": 58,
      "ᆫ": 59,
      "ᆬ": 60,
      "ᆭ": 61,
      "ᆮ": 62,
      "ᆯ": 63,
      "ᆰ": 64,
      "ᆱ": 65,
      "ᆲ": 66,
      "ᆶ": 67,
      "ᆷ": 68,
      "ᆸ": 69,
      "ᆺ": 70,
      "ᆻ": 71,
      "ᆼ": 72,
      "ᆽ": 73,
      "ᆾ": 74,
      "ᆿ": 75,
      "ᇀ": 76,
      "ᇁ": 77,
      "ᇂ": 78,
      "‘": 79,
      "’": 80,
      "“": 81,
      "”": 82,
      "‥": 83,
      "…": 84,
      "‰": 85,
      "※": 86,
      "ⁿ": 87,
      "₂": 88,
      "ⅰ": 89,
      "ⅱ": 90,
      "ⅲ": 91,
      "←": 92,
      "↑": 93,
      "→": 94,
      "↓": 95,
      "↖": 96,
      "↗": 97,
      "↘": 98,
      "∀": 99,
      "∇": 100,
      "∼": 101,
      "≤": 102,
      "≥": 103,
      "⊙": 104,
      "⌒": 105,
      "①": 106,
      "②": 107,
      "⑦": 108,
      "⑹": 109,
      "ⓒ": 110,
      "ⓛ": 111,
      "ⓞ": 112,
      "─": 113,
      "━": 114,
      "┏": 115,
      "┑": 116,
      "■": 117,
      "□": 118,
      "△": 119,
      "▶": 120,
      "▷": 121,
      "▼": 122,
      "▽": 123,
      "◀": 124,
      "◁": 125,
      "◆": 126,
      "◇": 127,
      "○": 128,
      "◎": 129,
      "●": 130,
      "◐": 131,
      "◑": 132,
      "★": 133,
      "☆": 134,
      "☜": 135,
      "☞": 136,
      "☻": 137,
      "♂": 138,
      "♡": 139,
      "♣": 140,
      "♤": 141,
      "♥": 142,
      "♧": 143,
      "♨": 144,
      "♩": 145,
      "♪": 146,
      "♫": 147,
      "♬": 148,
      "、": 149,
      "。": 150,
      "《": 151,
      "》": 152,
      "「": 153,
      "」": 154,
      "『": 155,
      "』": 156,
      "【": 157,
      "】": 158,
      "あ": 159,
      "い": 160,
      "う": 161,
      "え": 162,
      "お": 163,
      "か": 164,
      "が": 165,
      "き": 166,
      "く": 167,
      "け": 168,
      "こ": 169,
      "さ": 170,
      "し": 171,
      "す": 172,
      "せ": 173,
      "そ": 174,
      "た": 175,
      "だ": 176,
      "っ": 177,
      "つ": 178,
      "づ": 179,
      "て": 180,
      "で": 181,
      "と": 182,
      "な": 183,
      "に": 184,
      "ね": 185,
      "の": 186,
      "は": 187,
      "ひ": 188,
      "ほ": 189,
      "ぽ": 190,
      "ま": 191,
      "む": 192,
      "も": 193,
      "ゃ": 194,
      "よ": 195,
      "ら": 196,
      "り": 197,
      "る": 198,
      "れ": 199,
      "ろ": 200,
      "わ": 201,
      "を": 202,
      "ん": 203,
      "イ": 204,
      "ウ": 205,
      "エ": 206,
      "カ": 207,
      "ガ": 208,
      "ク": 209,
      "グ": 210,
      "コ": 211,
      "シ": 212,
      "ス": 213,
      "セ": 214,
      "タ": 215,
      "ダ": 216,
      "チ": 217,
      "ッ": 218,
      "テ": 219,
      "デ": 220,
      "ト": 221,
      "ニ": 222,
      "ノ": 223,
      "バ": 224,
      "パ": 225,
      "ヒ": 226,
      "ビ": 227,
      "ピ": 228,
      "ベ": 229,
      "マ": 230,
      "ミ": 231,
      "ム": 232,
      "メ": 233,
      "ョ": 234,
      "ヨ": 235,
      "リ": 236,
      "ル": 237,
      "ロ": 238,
      "ワ": 239,
      "ン": 240,
      "ㄱ": 241,
      "ㄲ": 242,
      "ㄳ": 243,
      "ㄴ": 244,
      "ㄵ": 245,
      "ㄶ": 246,
      "ㄷ": 247,
      "ㄸ": 248,
      "ㄹ": 249,
      "ㄺ": 250,
      "ㄻ": 251,
      "ㅀ": 252,
      "ㅁ": 253,
      "ㅂ": 254,
      "ㅃ": 255,
      "ㅄ": 256,
      "ㅅ": 257,
      "ㅆ": 258,
      "ㅇ": 259,
      "ㅈ": 260,
      "ㅉ": 261,
      "ㅊ": 262,
      "ㅋ": 263,
      "ㅌ": 264,
      "ㅍ": 265,
      "ㅎ": 266,
      "ㅏ": 267,
      "ㅐ": 268,
      "ㅑ": 269,
      "ㅒ": 270,
      "ㅓ": 271,
      "ㅔ": 272,
      "ㅕ": 273,
      "ㅖ": 274,
      "ㅗ": 275,
      "ㅘ": 276,
      "ㅚ": 277,
      "ㅛ": 278,
      "ㅜ": 279,
      "ㅝ": 280,
      "ㅞ": 281,
      "ㅟ": 282,
      "ㅠ": 283,
      "ㅡ": 284,
      "ㅢ": 285,
      "ㅣ": 286,
      "ㅤ": 287,
      "ㆀ": 288,
      "ㆍ": 289,
      "一": 290,
      "三": 291,
      "上": 292,
      "下": 293,
      "世": 294,
      "丙": 295,
      "中": 296,
      "乃": 297,
      "也": 298,
      "亞": 299,
      "亡": 300,
      "人": 301,
      "低": 302,
      "佑": 303,
      "作": 304,
      "侖": 305,
      "信": 306,
      "候": 307,
      "倭": 308,
      "傑": 309,
      "僞": 310,
      "先": 311,
      "典": 312,
      "凡": 313,
      "凸": 314,
      "出": 315,
      "刀": 316,
      "刻": 317,
      "前": 318,
      "力": 319,
      "助": 320,
      "勇": 321,
      "化": 322,
      "北": 323,
      "千": 324,
      "及": 325,
      "友": 326,
      "反": 327,
      "古": 328,
      "史": 329,
      "名": 330,
      "吐": 331,
      "味": 332,
      "品": 333,
      "善": 334,
      "喜": 335,
      "器": 336,
      "型": 337,
      "塵": 338,
      "外": 339,
      "大": 340,
      "天": 341,
      "失": 342,
      "女": 343,
      "好": 344,
      "娼": 345,
      "婦": 346,
      "子": 347,
      "孝": 348,
      "宋": 349,
      "完": 350,
      "定": 351,
      "害": 352,
      "家": 353,
      "小": 354,
      "尾": 355,
      "山": 356,
      "岡": 357,
      "峰": 358,
      "峽": 359,
      "希": 360,
      "師": 361,
      "常": 362,
      "年": 363,
      "幸": 364,
      "庭": 365,
      "式": 366,
      "張": 367,
      "彩": 368,
      "彼": 369,
      "待": 370,
      "後": 371,
      "復": 372,
      "心": 373,
      "必": 374,
      "忍": 375,
      "忠": 376,
      "念": 377,
      "急": 378,
      "性": 379,
      "悲": 380,
      "情": 381,
      "惡": 382,
      "愛": 383,
      "感": 384,
      "慧": 385,
      "慰": 386,
      "慶": 387,
      "憎": 388,
      "戰": 389,
      "手": 390,
      "故": 391,
      "敵": 392,
      "新": 393,
      "旋": 394,
      "日": 395,
      "映": 396,
      "曰": 397,
      "曲": 398,
      "最": 399,
      "會": 400,
      "月": 401,
      "有": 402,
      "望": 403,
      "期": 404,
      "木": 405,
      "末": 406,
      "本": 407,
      "朴": 408,
      "林": 409,
      "柱": 410,
      "棒": 411,
      "様": 412,
      "檢": 413,
      "歌": 414,
      "武": 415,
      "死": 416,
      "殖": 417,
      "母": 418,
      "氣": 419,
      "水": 420,
      "永": 421,
      "求": 422,
      "江": 423,
      "法": 424,
      "派": 425,
      "流": 426,
      "淇": 427,
      "湖": 428,
      "漁": 429,
      "演": 430,
      "濡": 431,
      "火": 432,
      "無": 433,
      "熱": 434,
      "父": 435,
      "特": 436,
      "猶": 437,
      "王": 438,
      "現": 439,
      "生": 440,
      "用": 441,
      "田": 442,
      "甲": 443,
      "申": 444,
      "男": 445,
      "画": 446,
      "異": 447,
      "畵": 448,
      "白": 449,
      "的": 450,
      "皿": 451,
      "益": 452,
      "目": 453,
      "直": 454,
      "看": 455,
      "眞": 456,
      "眠": 457,
      "祖": 458,
      "神": 459,
      "禪": 460,
      "秀": 461,
      "私": 462,
      "立": 463,
      "笑": 464,
      "糞": 465,
      "紅": 466,
      "紙": 467,
      "終": 468,
      "結": 469,
      "緣": 470,
      "罪": 471,
      "美": 472,
      "義": 473,
      "者": 474,
      "腸": 475,
      "自": 476,
      "臭": 477,
      "舒": 478,
      "船": 479,
      "色": 480,
      "苦": 481,
      "英": 482,
      "萬": 483,
      "落": 484,
      "葉": 485,
      "蒼": 486,
      "藝": 487,
      "蛇": 488,
      "蜀": 489,
      "蟲": 490,
      "街": 491,
      "衛": 492,
      "要": 493,
      "見": 494,
      "觸": 495,
      "言": 496,
      "記": 497,
      "話": 498,
      "論": 499,
      "謝": 500,
      "讐": 501,
      "車": 502,
      "過": 503,
      "道": 504,
      "遠": 505,
      "部": 506,
      "都": 507,
      "里": 508,
      "野": 509,
      "針": 510,
      "鈴": 511,
      "鋒": 512,
      "錢": 513,
      "間": 514,
      "集": 515,
      "離": 516,
      "難": 517,
      "電": 518,
      "霆": 519,
      "非": 520,
      "面": 521,
      "韓": 522,
      "頑": 523,
      "頭": 524,
      "飛": 525,
      "香": 526,
      "驛": 527,
      "高": 528,
      "가": 529,
      "각": 530,
      "갂": 531,
      "간": 532,
      "갇": 533,
      "갈": 534,
      "갉": 535,
      "감": 536,
      "갑": 537,
      "값": 538,
      "갓": 539,
      "갔": 540,
      "강": 541,
      "갖": 542,
      "갗": 543,
      "갘": 544,
      "같": 545,
      "갚": 546,
      "갛": 547,
      "개": 548,
      "객": 549,
      "갠": 550,
      "갤": 551,
      "갬": 552,
      "갭": 553,
      "갮": 554,
      "갯": 555,
      "갰": 556,
      "갱": 557,
      "갵": 558,
      "갸": 559,
      "갹": 560,
      "걀": 561,
      "걈": 562,
      "걍": 563,
      "걑": 564,
      "걔": 565,
      "거": 566,
      "걱": 567,
      "건": 568,
      "걷": 569,
      "걸": 570,
      "검": 571,
      "겁": 572,
      "겂": 573,
      "것": 574,
      "겄": 575,
      "겅": 576,
      "겈": 577,
      "겉": 578,
      "겋": 579,
      "게": 580,
      "겍": 581,
      "겐": 582,
      "겓": 583,
      "겔": 584,
      "겜": 585,
      "겝": 586,
      "겟": 587,
      "겠": 588,
      "겡": 589,
      "겧": 590,
      "겨": 591,
      "격": 592,
      "겪": 593,
      "견": 594,
      "결": 595,
      "겸": 596,
      "겹": 597,
      "겻": 598,
      "겼": 599,
      "경": 600,
      "곀": 601,
      "곁": 602,
      "곃": 603,
      "계": 604,
      "곅": 605,
      "곗": 606,
      "곘": 607,
      "고": 608,
      "곡": 609,
      "곤": 610,
      "곧": 611,
      "골": 612,
      "곪": 613,
      "곰": 614,
      "곱": 615,
      "곳": 616,
      "공": 617,
      "곶": 618,
      "곷": 619,
      "곸": 620,
      "곻": 621,
      "과": 622,
      "곽": 623,
      "관": 624,
      "괄": 625,
      "광": 626,
      "괘": 627,
      "괜": 628,
      "괞": 629,
      "괭": 630,
      "괴": 631,
      "괸": 632,
      "괺": 633,
      "굉": 634,
      "교": 635,
      "굣": 636,
      "구": 637,
      "국": 638,
      "굯": 639,
      "군": 640,
      "굳": 641,
      "굴": 642,
      "굵": 643,
      "굶": 644,
      "굷": 645,
      "굼": 646,
      "굽": 647,
      "굿": 648,
      "궁": 649,
      "궂": 650,
      "궄": 651,
      "궅": 652,
      "궈": 653,
      "권": 654,
      "궐": 655,
      "궛": 656,
      "궜": 657,
      "궤": 658,
      "귀": 659,
      "귄": 660,
      "귓": 661,
      "귘": 662,
      "규": 663,
      "귝": 664,
      "균": 665,
      "귤": 666,
      "귬": 667,
      "귯": 668,
      "귱": 669,
      "그": 670,
      "극": 671,
      "귻": 672,
      "근": 673,
      "귿": 674,
      "글": 675,
      "긁": 676,
      "금": 677,
      "급": 678,
      "긋": 679,
      "긌": 680,
      "긍": 681,
      "긑": 682,
      "긔": 683,
      "긛": 684,
      "기": 685,
      "긱": 686,
      "긴": 687,
      "긷": 688,
      "길": 689,
      "김": 690,
      "깁": 691,
      "깃": 692,
      "깄": 693,
      "깅": 694,
      "깇": 695,
      "깈": 696,
      "깉": 697,
      "깊": 698,
      "까": 699,
      "깍": 700,
      "깎": 701,
      "깐": 702,
      "깔": 703,
      "깜": 704,
      "깝": 705,
      "깞": 706,
      "깟": 707,
      "깡": 708,
      "깤": 709,
      "깥": 710,
      "깨": 711,
      "깽": 712,
      "꺄": 713,
      "꺅": 714,
      "꺆": 715,
      "꺇": 716,
      "꺍": 717,
      "꺙": 718,
      "꺜": 719,
      "꺠": 720,
      "꺤": 721,
      "꺴": 722,
      "꺼": 723,
      "꺽": 724,
      "꺾": 725,
      "껀": 726,
      "껄": 727,
      "껌": 728,
      "껍": 729,
      "껏": 730,
      "껑": 731,
      "껒": 732,
      "께": 733,
      "껬": 734,
      "껭": 735,
      "껴": 736,
      "꼅": 737,
      "꼐": 738,
      "꼬": 739,
      "꼭": 740,
      "꼮": 741,
      "꼳": 742,
      "꼴": 743,
      "꼼": 744,
      "꼽": 745,
      "꼿": 746,
      "꽁": 747,
      "꽂": 748,
      "꽃": 749,
      "꽄": 750,
      "꽈": 751,
      "꽉": 752,
      "꽝": 753,
      "꽤": 754,
      "꽥": 755,
      "꽦": 756,
      "꽹": 757,
      "꾀": 758,
      "꾜": 759,
      "꾱": 760,
      "꾸": 761,
      "꾹": 762,
      "꾼": 763,
      "꾿": 764,
      "꿀": 765,
      "꿂": 766,
      "꿇": 767,
      "꿈": 768,
      "꿉": 769,
      "꿋": 770,
      "꿍": 771,
      "꿎": 772,
      "꿐": 773,
      "꿑": 774,
      "꿓": 775,
      "꿔": 776,
      "꿘": 777,
      "꿩": 778,
      "꿰": 779,
      "뀌": 780,
      "뀨": 781,
      "뀩": 782,
      "뀰": 783,
      "뀼": 784,
      "끄": 785,
      "끅": 786,
      "끆": 787,
      "끈": 788,
      "끊": 789,
      "끋": 790,
      "끌": 791,
      "끓": 792,
      "끔": 793,
      "끕": 794,
      "끗": 795,
      "끙": 796,
      "끚": 797,
      "끝": 798,
      "끠": 799,
      "끼": 800,
      "끽": 801,
      "끾": 802,
      "낀": 803,
      "낄": 804,
      "낌": 805,
      "낍": 806,
      "낏": 807,
      "낑": 808,
      "낔": 809,
      "나": 810,
      "낙": 811,
      "낚": 812,
      "낛": 813,
      "난": 814,
      "낞": 815,
      "낟": 816,
      "날": 817,
      "낡": 818,
      "남": 819,
      "납": 820,
      "낫": 821,
      "났": 822,
      "낭": 823,
      "낮": 824,
      "낯": 825,
      "낰": 826,
      "낱": 827,
      "낲": 828,
      "낳": 829,
      "내": 830,
      "낸": 831,
      "낼": 832,
      "냄": 833,
      "냅": 834,
      "냇": 835,
      "냉": 836,
      "냊": 837,
      "냌": 838,
      "냐": 839,
      "냑": 840,
      "냔": 841,
      "냘": 842,
      "냠": 843,
      "냥": 844,
      "냬": 845,
      "너": 846,
      "넉": 847,
      "넋": 848,
      "넌": 849,
      "널": 850,
      "넑": 851,
      "넓": 852,
      "넖": 853,
      "넗": 854,
      "넘": 855,
      "넙": 856,
      "넛": 857,
      "넜": 858,
      "넝": 859,
      "넢": 860,
      "넣": 861,
      "네": 862,
      "넥": 863,
      "넨": 864,
      "넬": 865,
      "넴": 866,
      "넵": 867,
      "넷": 868,
      "넸": 869,
      "넹": 870,
      "녀": 871,
      "녁": 872,
      "년": 873,
      "념": 874,
      "녓": 875,
      "녔": 876,
      "녕": 877,
      "녘": 878,
      "녜": 879,
      "노": 880,
      "녹": 881,
      "논": 882,
      "녿": 883,
      "놀": 884,
      "놃": 885,
      "놈": 886,
      "놉": 887,
      "놋": 888,
      "농": 889,
      "놑": 890,
      "높": 891,
      "놓": 892,
      "놔": 893,
      "놕": 894,
      "놘": 895,
      "놜": 896,
      "놨": 897,
      "놬": 898,
      "뇌": 899,
      "뇨": 900,
      "뇬": 901,
      "뇰": 902,
      "뇽": 903,
      "뇾": 904,
      "누": 905,
      "눅": 906,
      "눈": 907,
      "눊": 908,
      "눌": 909,
      "눔": 910,
      "눕": 911,
      "눙": 912,
      "눼": 913,
      "뉘": 914,
      "뉴": 915,
      "늄": 916,
      "늉": 917,
      "느": 918,
      "늑": 919,
      "는": 920,
      "늗": 921,
      "늘": 922,
      "늙": 923,
      "늠": 924,
      "늡": 925,
      "늣": 926,
      "능": 927,
      "늦": 928,
      "늨": 929,
      "늪": 930,
      "늬": 931,
      "늰": 932,
      "닁": 933,
      "니": 934,
      "닉": 935,
      "닊": 936,
      "닌": 937,
      "닏": 938,
      "닐": 939,
      "님": 940,
      "닙": 941,
      "닛": 942,
      "닝": 943,
      "닟": 944,
      "닠": 945,
      "다": 946,
      "닥": 947,
      "닦": 948,
      "단": 949,
      "닫": 950,
      "달": 951,
      "닭": 952,
      "닮": 953,
      "닯": 954,
      "닳": 955,
      "담": 956,
      "답": 957,
      "닶": 958,
      "닷": 959,
      "당": 960,
      "닺": 961,
      "닻": 962,
      "닼": 963,
      "닽": 964,
      "닿": 965,
      "대": 966,
      "댁": 967,
      "댄": 968,
      "댇": 969,
      "댈": 970,
      "댐": 971,
      "댑": 972,
      "댓": 973,
      "댕": 974,
      "댖": 975,
      "댜": 976,
      "댝": 977,
      "댠": 978,
      "댬": 979,
      "댸": 980,
      "더": 981,
      "덕": 982,
      "던": 983,
      "덛": 984,
      "덜": 985,
      "덟": 986,
      "덤": 987,
      "덥": 988,
      "덧": 989,
      "덨": 990,
      "덩": 991,
      "덫": 992,
      "덮": 993,
      "덯": 994,
      "데": 995,
      "덱": 996,
      "덴": 997,
      "덷": 998,
      "델": 999,
      "뎀": 1000,
      "뎁": 1001,
      "뎃": 1002,
      "뎅": 1003,
      "뎈": 1004,
      "뎌": 1005,
      "뎍": 1006,
      "뎐": 1007,
      "뎜": 1008,
      "뎟": 1009,
      "뎡": 1010,
      "뎨": 1011,
      "도": 1012,
      "독": 1013,
      "돈": 1014,
      "돋": 1015,
      "돌": 1016,
      "돔": 1017,
      "돕": 1018,
      "돗": 1019,
      "동": 1020,
      "돟": 1021,
      "돠": 1022,
      "돤": 1023,
      "돱": 1024,
      "돵": 1025,
      "돼": 1026,
      "되": 1027,
      "된": 1028,
      "됨": 1029,
      "됩": 1030,
      "됫": 1031,
      "됭": 1032,
      "됴": 1033,
      "됻": 1034,
      "두": 1035,
      "둑": 1036,
      "둔": 1037,
      "둗": 1038,
      "둘": 1039,
      "둠": 1040,
      "둡": 1041,
      "둣": 1042,
      "둥": 1043,
      "둦": 1044,
      "둬": 1045,
      "뒈": 1046,
      "뒌": 1047,
      "뒤": 1048,
      "뒷": 1049,
      "뒹": 1050,
      "뒺": 1051,
      "듀": 1052,
      "듁": 1053,
      "듕": 1054,
      "드": 1055,
      "득": 1056,
      "든": 1057,
      "듣": 1058,
      "들": 1059,
      "듦": 1060,
      "듧": 1061,
      "듨": 1062,
      "듬": 1063,
      "듭": 1064,
      "듯": 1065,
      "등": 1066,
      "듲": 1067,
      "듴": 1068,
      "듵": 1069,
      "듷": 1070,
      "듸": 1071,
      "딍": 1072,
      "디": 1073,
      "딕": 1074,
      "딘": 1075,
      "딛": 1076,
      "딜": 1077,
      "딤": 1078,
      "딥": 1079,
      "딧": 1080,
      "딨": 1081,
      "딩": 1082,
      "딪": 1083,
      "딫": 1084,
      "딬": 1085,
      "딮": 1086,
      "따": 1087,
      "딱": 1088,
      "딲": 1089,
      "딴": 1090,
      "딷": 1091,
      "딸": 1092,
      "땀": 1093,
      "땁": 1094,
      "땃": 1095,
      "땅": 1096,
      "땋": 1097,
      "때": 1098,
      "땍": 1099,
      "땓": 1100,
      "땜": 1101,
      "땟": 1102,
      "땡": 1103,
      "땨": 1104,
      "땸": 1105,
      "떄": 1106,
      "떔": 1107,
      "떘": 1108,
      "떙": 1109,
      "떠": 1110,
      "떡": 1111,
      "떤": 1112,
      "떨": 1113,
      "떫": 1114,
      "떱": 1115,
      "떳": 1116,
      "떵": 1117,
      "떻": 1118,
      "떼": 1119,
      "떽": 1120,
      "뗄": 1121,
      "뗑": 1122,
      "뗴": 1123,
      "뗵": 1124,
      "뗼": 1125,
      "또": 1126,
      "똑": 1127,
      "똔": 1128,
      "똗": 1129,
      "똘": 1130,
      "똠": 1131,
      "똥": 1132,
      "똭": 1133,
      "똴": 1134,
      "뙀": 1135,
      "뙁": 1136,
      "뙇": 1137,
      "뚜": 1138,
      "뚝": 1139,
      "뚤": 1140,
      "뚫": 1141,
      "뚬": 1142,
      "뚯": 1143,
      "뚱": 1144,
      "뛰": 1145,
      "뜀": 1146,
      "뜌": 1147,
      "뜍": 1148,
      "뜨": 1149,
      "뜩": 1150,
      "뜬": 1151,
      "뜯": 1152,
      "뜰": 1153,
      "뜷": 1154,
      "뜸": 1155,
      "뜻": 1156,
      "뜽": 1157,
      "띀": 1158,
      "띁": 1159,
      "띄": 1160,
      "띠": 1161,
      "띡": 1162,
      "띨": 1163,
      "띱": 1164,
      "띵": 1165,
      "라": 1166,
      "락": 1167,
      "란": 1168,
      "랃": 1169,
      "랄": 1170,
      "람": 1171,
      "랍": 1172,
      "랏": 1173,
      "랐": 1174,
      "랑": 1175,
      "랒": 1176,
      "랔": 1177,
      "랖": 1178,
      "랗": 1179,
      "래": 1180,
      "랙": 1181,
      "랜": 1182,
      "랠": 1183,
      "램": 1184,
      "랩": 1185,
      "랫": 1186,
      "랬": 1187,
      "랭": 1188,
      "랴": 1189,
      "략": 1190,
      "랽": 1191,
      "럈": 1192,
      "량": 1193,
      "럐": 1194,
      "럔": 1195,
      "럤": 1196,
      "러": 1197,
      "럭": 1198,
      "런": 1199,
      "럴": 1200,
      "럼": 1201,
      "럽": 1202,
      "럾": 1203,
      "럿": 1204,
      "렀": 1205,
      "렁": 1206,
      "렄": 1207,
      "렇": 1208,
      "레": 1209,
      "렉": 1210,
      "렌": 1211,
      "렐": 1212,
      "렘": 1213,
      "렙": 1214,
      "렛": 1215,
      "렜": 1216,
      "렝": 1217,
      "렠": 1218,
      "려": 1219,
      "력": 1220,
      "련": 1221,
      "렬": 1222,
      "렴": 1223,
      "렵": 1224,
      "렷": 1225,
      "렸": 1226,
      "령": 1227,
      "렿": 1228,
      "례": 1229,
      "롁": 1230,
      "롄": 1231,
      "로": 1232,
      "록": 1233,
      "론": 1234,
      "롤": 1235,
      "롬": 1236,
      "롭": 1237,
      "롯": 1238,
      "롱": 1239,
      "롷": 1240,
      "롸": 1241,
      "롹": 1242,
      "뢀": 1243,
      "뢈": 1244,
      "뢉": 1245,
      "뢍": 1246,
      "뢔": 1247,
      "뢰": 1248,
      "뢱": 1249,
      "료": 1250,
      "룔": 1251,
      "룕": 1252,
      "룡": 1253,
      "루": 1254,
      "룩": 1255,
      "룬": 1256,
      "룯": 1257,
      "룰": 1258,
      "룸": 1259,
      "룹": 1260,
      "룻": 1261,
      "룽": 1262,
      "뤄": 1263,
      "뤌": 1264,
      "뤠": 1265,
      "뤡": 1266,
      "뤰": 1267,
      "뤼": 1268,
      "뤽": 1269,
      "륄": 1270,
      "륒": 1271,
      "류": 1272,
      "륙": 1273,
      "륜": 1274,
      "률": 1275,
      "륨": 1276,
      "륫": 1277,
      "륭": 1278,
      "륰": 1279,
      "르": 1280,
      "륵": 1281,
      "른": 1282,
      "륺": 1283,
      "를": 1284,
      "름": 1285,
      "릅": 1286,
      "릇": 1287,
      "릉": 1288,
      "릋": 1289,
      "릌": 1290,
      "릎": 1291,
      "릏": 1292,
      "릐": 1293,
      "릣": 1294,
      "리": 1295,
      "릭": 1296,
      "린": 1297,
      "릳": 1298,
      "릴": 1299,
      "림": 1300,
      "립": 1301,
      "릿": 1302,
      "맀": 1303,
      "링": 1304,
      "맂": 1305,
      "맄": 1306,
      "맆": 1307,
      "마": 1308,
      "막": 1309,
      "만": 1310,
      "맍": 1311,
      "많": 1312,
      "맏": 1313,
      "말": 1314,
      "맑": 1315,
      "맖": 1316,
      "맗": 1317,
      "맘": 1318,
      "맙": 1319,
      "맛": 1320,
      "맜": 1321,
      "망": 1322,
      "맞": 1323,
      "맟": 1324,
      "맠": 1325,
      "맡": 1326,
      "맣": 1327,
      "매": 1328,
      "맥": 1329,
      "맨": 1330,
      "맬": 1331,
      "맴": 1332,
      "맵": 1333,
      "맷": 1334,
      "맹": 1335,
      "맺": 1336,
      "맻": 1337,
      "먀": 1338,
      "먄": 1339,
      "먈": 1340,
      "먕": 1341,
      "먠": 1342,
      "머": 1343,
      "먹": 1344,
      "먼": 1345,
      "먾": 1346,
      "멀": 1347,
      "멈": 1348,
      "멋": 1349,
      "멌": 1350,
      "멍": 1351,
      "멎": 1352,
      "멐": 1353,
      "멓": 1354,
      "메": 1355,
      "멕": 1356,
      "멘": 1357,
      "멜": 1358,
      "멤": 1359,
      "멧": 1360,
      "멩": 1361,
      "멬": 1362,
      "며": 1363,
      "멱": 1364,
      "면": 1365,
      "멸": 1366,
      "몀": 1367,
      "몃": 1368,
      "몄": 1369,
      "명": 1370,
      "몆": 1371,
      "몇": 1372,
      "모": 1373,
      "목": 1374,
      "몫": 1375,
      "몬": 1376,
      "몰": 1377,
      "몸": 1378,
      "몹": 1379,
      "못": 1380,
      "몽": 1381,
      "몾": 1382,
      "뫀": 1383,
      "뫁": 1384,
      "뫃": 1385,
      "뫄": 1386,
      "뫙": 1387,
      "뫼": 1388,
      "묘": 1389,
      "묠": 1390,
      "묭": 1391,
      "무": 1392,
      "묵": 1393,
      "묶": 1394,
      "문": 1395,
      "묻": 1396,
      "물": 1397,
      "묽": 1398,
      "뭄": 1399,
      "뭇": 1400,
      "뭉": 1401,
      "뭍": 1402,
      "뭏": 1403,
      "뭐": 1404,
      "뭔": 1405,
      "뭘": 1406,
      "뭣": 1407,
      "뭥": 1408,
      "뭨": 1409,
      "뭬": 1410,
      "뮁": 1411,
      "뮈": 1412,
      "뮌": 1413,
      "뮐": 1414,
      "뮝": 1415,
      "뮤": 1416,
      "뮨": 1417,
      "뮬": 1418,
      "므": 1419,
      "믄": 1420,
      "믈": 1421,
      "믐": 1422,
      "믓": 1423,
      "믕": 1424,
      "믜": 1425,
      "미": 1426,
      "믹": 1427,
      "믺": 1428,
      "민": 1429,
      "믿": 1430,
      "밀": 1431,
      "밈": 1432,
      "밉": 1433,
      "밋": 1434,
      "밌": 1435,
      "밍": 1436,
      "밎": 1437,
      "및": 1438,
      "밐": 1439,
      "밑": 1440,
      "밓": 1441,
      "바": 1442,
      "박": 1443,
      "밖": 1444,
      "반": 1445,
      "받": 1446,
      "발": 1447,
      "밝": 1448,
      "밞": 1449,
      "밟": 1450,
      "밣": 1451,
      "밤": 1452,
      "밥": 1453,
      "밧": 1454,
      "밨": 1455,
      "방": 1456,
      "밫": 1457,
      "밬": 1458,
      "밭": 1459,
      "배": 1460,
      "백": 1461,
      "밴": 1462,
      "밷": 1463,
      "밸": 1464,
      "뱀": 1465,
      "뱁": 1466,
      "뱃": 1467,
      "뱅": 1468,
      "뱆": 1469,
      "뱉": 1470,
      "뱌": 1471,
      "뱍": 1472,
      "뱎": 1473,
      "뱐": 1474,
      "뱔": 1475,
      "버": 1476,
      "벅": 1477,
      "번": 1478,
      "벋": 1479,
      "벌": 1480,
      "범": 1481,
      "법": 1482,
      "벗": 1483,
      "벙": 1484,
      "벚": 1485,
      "벝": 1486,
      "베": 1487,
      "벡": 1488,
      "벤": 1489,
      "벨": 1490,
      "벳": 1491,
      "벵": 1492,
      "벸": 1493,
      "벹": 1494,
      "벼": 1495,
      "벽": 1496,
      "변": 1497,
      "별": 1498,
      "볌": 1499,
      "볍": 1500,
      "병": 1501,
      "볓": 1502,
      "볔": 1503,
      "볕": 1504,
      "볠": 1505,
      "보": 1506,
      "복": 1507,
      "볶": 1508,
      "본": 1509,
      "볹": 1510,
      "볻": 1511,
      "볼": 1512,
      "볽": 1513,
      "봄": 1514,
      "봅": 1515,
      "봇": 1516,
      "봈": 1517,
      "봉": 1518,
      "봊": 1519,
      "봏": 1520,
      "봐": 1521,
      "봑": 1522,
      "봗": 1523,
      "봘": 1524,
      "봣": 1525,
      "봤": 1526,
      "봫": 1527,
      "봭": 1528,
      "봵": 1529,
      "뵈": 1530,
      "뵙": 1531,
      "뵛": 1532,
      "뵜": 1533,
      "뵤": 1534,
      "뵨": 1535,
      "뵹": 1536,
      "부": 1537,
      "북": 1538,
      "분": 1539,
      "붅": 1540,
      "붆": 1541,
      "붇": 1542,
      "불": 1543,
      "붉": 1544,
      "붐": 1545,
      "붓": 1546,
      "붕": 1547,
      "붙": 1548,
      "붜": 1549,
      "붤": 1550,
      "붸": 1551,
      "붹": 1552,
      "뷁": 1553,
      "뷃": 1554,
      "뷐": 1555,
      "뷔": 1556,
      "뷰": 1557,
      "뷸": 1558,
      "븅": 1559,
      "브": 1560,
      "븍": 1561,
      "븐": 1562,
      "블": 1563,
      "븟": 1564,
      "븡": 1565,
      "븨": 1566,
      "븬": 1567,
      "빂": 1568,
      "비": 1569,
      "빅": 1570,
      "빈": 1571,
      "빋": 1572,
      "빌": 1573,
      "빔": 1574,
      "빕": 1575,
      "빗": 1576,
      "빙": 1577,
      "빚": 1578,
      "빛": 1579,
      "빝": 1580,
      "빠": 1581,
      "빡": 1582,
      "빢": 1583,
      "빤": 1584,
      "빨": 1585,
      "빰": 1586,
      "빱": 1587,
      "빳": 1588,
      "빵": 1589,
      "빻": 1590,
      "빼": 1591,
      "빽": 1592,
      "뺏": 1593,
      "뺑": 1594,
      "뺒": 1595,
      "뺘": 1596,
      "뺠": 1597,
      "뺨": 1598,
      "뺴": 1599,
      "뺵": 1600,
      "뻈": 1601,
      "뻉": 1602,
      "뻐": 1603,
      "뻑": 1604,
      "뻔": 1605,
      "뻗": 1606,
      "뻘": 1607,
      "뻡": 1608,
      "뻣": 1609,
      "뻤": 1610,
      "뻥": 1611,
      "뻬": 1612,
      "뻭": 1613,
      "뻴": 1614,
      "뼈": 1615,
      "뼉": 1616,
      "뼘": 1617,
      "뼛": 1618,
      "뽀": 1619,
      "뽁": 1620,
      "뽄": 1621,
      "뽈": 1622,
      "뽐": 1623,
      "뽑": 1624,
      "뽕": 1625,
      "뽜": 1626,
      "뽠": 1627,
      "뽯": 1628,
      "뽱": 1629,
      "뾰": 1630,
      "뿅": 1631,
      "뿌": 1632,
      "뿍": 1633,
      "뿐": 1634,
      "뿔": 1635,
      "뿜": 1636,
      "뿟": 1637,
      "뿡": 1638,
      "뿨": 1639,
      "뿩": 1640,
      "뿰": 1641,
      "쀍": 1642,
      "쀠": 1643,
      "쀨": 1644,
      "쀼": 1645,
      "쁀": 1646,
      "쁘": 1647,
      "쁜": 1648,
      "쁠": 1649,
      "쁨": 1650,
      "쁩": 1651,
      "삐": 1652,
      "삑": 1653,
      "삘": 1654,
      "삤": 1655,
      "삥": 1656,
      "사": 1657,
      "삭": 1658,
      "산": 1659,
      "살": 1660,
      "삵": 1661,
      "삶": 1662,
      "삷": 1663,
      "삻": 1664,
      "삼": 1665,
      "삽": 1666,
      "삿": 1667,
      "상": 1668,
      "샅": 1669,
      "샆": 1670,
      "새": 1671,
      "색": 1672,
      "샊": 1673,
      "샌": 1674,
      "샐": 1675,
      "샘": 1676,
      "샙": 1677,
      "샛": 1678,
      "생": 1679,
      "샠": 1680,
      "샡": 1681,
      "샣": 1682,
      "샤": 1683,
      "샥": 1684,
      "샨": 1685,
      "샬": 1686,
      "샴": 1687,
      "샵": 1688,
      "샷": 1689,
      "샹": 1690,
      "샼": 1691,
      "샾": 1692,
      "섀": 1693,
      "섁": 1694,
      "서": 1695,
      "석": 1696,
      "섞": 1697,
      "선": 1698,
      "섣": 1699,
      "설": 1700,
      "섥": 1701,
      "섫": 1702,
      "섬": 1703,
      "섭": 1704,
      "섯": 1705,
      "성": 1706,
      "섲": 1707,
      "섳": 1708,
      "섵": 1709,
      "섶": 1710,
      "세": 1711,
      "섹": 1712,
      "섺": 1713,
      "섻": 1714,
      "센": 1715,
      "섿": 1716,
      "셀": 1717,
      "셈": 1718,
      "셉": 1719,
      "셋": 1720,
      "셍": 1721,
      "셑": 1722,
      "셔": 1723,
      "셕": 1724,
      "션": 1725,
      "셜": 1726,
      "셤": 1727,
      "셥": 1728,
      "셧": 1729,
      "셨": 1730,
      "셩": 1731,
      "셰": 1732,
      "셴": 1733,
      "셸": 1734,
      "솀": 1735,
      "소": 1736,
      "속": 1737,
      "솎": 1738,
      "손": 1739,
      "솓": 1740,
      "솔": 1741,
      "솜": 1742,
      "솝": 1743,
      "솟": 1744,
      "송": 1745,
      "솢": 1746,
      "솤": 1747,
      "솥": 1748,
      "솧": 1749,
      "솨": 1750,
      "솰": 1751,
      "쇄": 1752,
      "쇅": 1753,
      "쇠": 1754,
      "쇳": 1755,
      "쇼": 1756,
      "숀": 1757,
      "숄": 1758,
      "숍": 1759,
      "숏": 1760,
      "숑": 1761,
      "숖": 1762,
      "수": 1763,
      "숙": 1764,
      "순": 1765,
      "숟": 1766,
      "술": 1767,
      "숨": 1768,
      "숩": 1769,
      "숫": 1770,
      "숭": 1771,
      "숯": 1772,
      "숰": 1773,
      "숱": 1774,
      "숲": 1775,
      "숴": 1776,
      "숼": 1777,
      "쉅": 1778,
      "쉐": 1779,
      "쉑": 1780,
      "쉒": 1781,
      "쉔": 1782,
      "쉘": 1783,
      "쉡": 1784,
      "쉣": 1785,
      "쉥": 1786,
      "쉩": 1787,
      "쉬": 1788,
      "쉭": 1789,
      "쉰": 1790,
      "쉴": 1791,
      "쉼": 1792,
      "쉽": 1793,
      "쉿": 1794,
      "슁": 1795,
      "슈": 1796,
      "슉": 1797,
      "슌": 1798,
      "슐": 1799,
      "슘": 1800,
      "슛": 1801,
      "슝": 1802,
      "슠": 1803,
      "스": 1804,
      "슥": 1805,
      "슨": 1806,
      "슫": 1807,
      "슬": 1808,
      "슭": 1809,
      "슲": 1810,
      "슴": 1811,
      "습": 1812,
      "슷": 1813,
      "승": 1814,
      "슺": 1815,
      "슼": 1816,
      "슽": 1817,
      "슾": 1818,
      "싀": 1819,
      "싄": 1820,
      "싐": 1821,
      "싑": 1822,
      "싖": 1823,
      "시": 1824,
      "식": 1825,
      "신": 1826,
      "싡": 1827,
      "싢": 1828,
      "싣": 1829,
      "실": 1830,
      "싫": 1831,
      "심": 1832,
      "십": 1833,
      "싯": 1834,
      "싰": 1835,
      "싱": 1836,
      "싲": 1837,
      "싴": 1838,
      "싶": 1839,
      "싷": 1840,
      "싸": 1841,
      "싹": 1842,
      "싼": 1843,
      "쌀": 1844,
      "쌂": 1845,
      "쌈": 1846,
      "쌉": 1847,
      "쌍": 1848,
      "쌓": 1849,
      "쌔": 1850,
      "쌕": 1851,
      "쌘": 1852,
      "쌤": 1853,
      "쌩": 1854,
      "쌰": 1855,
      "썀": 1856,
      "썁": 1857,
      "썅": 1858,
      "썌": 1859,
      "썜": 1860,
      "썡": 1861,
      "써": 1862,
      "썩": 1863,
      "썪": 1864,
      "썬": 1865,
      "썰": 1866,
      "썱": 1867,
      "썸": 1868,
      "썹": 1869,
      "썻": 1870,
      "썽": 1871,
      "쎄": 1872,
      "쎅": 1873,
      "쎈": 1874,
      "쎌": 1875,
      "쎔": 1876,
      "쎗": 1877,
      "쎘": 1878,
      "쎠": 1879,
      "쎤": 1880,
      "쎴": 1881,
      "쎼": 1882,
      "쎾": 1883,
      "쏔": 1884,
      "쏘": 1885,
      "쏙": 1886,
      "쏜": 1887,
      "쏟": 1888,
      "쏠": 1889,
      "쏨": 1890,
      "쏩": 1891,
      "쏫": 1892,
      "쏭": 1893,
      "쏱": 1894,
      "쏴": 1895,
      "쐉": 1896,
      "쐐": 1897,
      "쐬": 1898,
      "쑈": 1899,
      "쑝": 1900,
      "쑤": 1901,
      "쑥": 1902,
      "쑨": 1903,
      "쑬": 1904,
      "쑹": 1905,
      "쒕": 1906,
      "쒜": 1907,
      "쒯": 1908,
      "쒰": 1909,
      "쒸": 1910,
      "쓉": 1911,
      "쓔": 1912,
      "쓕": 1913,
      "쓰": 1914,
      "쓱": 1915,
      "쓴": 1916,
      "쓸": 1917,
      "쓹": 1918,
      "씀": 1919,
      "씁": 1920,
      "씅": 1921,
      "씌": 1922,
      "씝": 1923,
      "씨": 1924,
      "씩": 1925,
      "씪": 1926,
      "씬": 1927,
      "씸": 1928,
      "씹": 1929,
      "씻": 1930,
      "씼": 1931,
      "씽": 1932,
      "앀": 1933,
      "앁": 1934,
      "아": 1935,
      "악": 1936,
      "안": 1937,
      "앉": 1938,
      "않": 1939,
      "앋": 1940,
      "알": 1941,
      "앍": 1942,
      "앎": 1943,
      "앓": 1944,
      "암": 1945,
      "압": 1946,
      "앖": 1947,
      "앗": 1948,
      "았": 1949,
      "앙": 1950,
      "앚": 1951,
      "앜": 1952,
      "앞": 1953,
      "앟": 1954,
      "애": 1955,
      "액": 1956,
      "앤": 1957,
      "앨": 1958,
      "앰": 1959,
      "앱": 1960,
      "앳": 1961,
      "앵": 1962,
      "앸": 1963,
      "야": 1964,
      "약": 1965,
      "얀": 1966,
      "얄": 1967,
      "얇": 1968,
      "얌": 1969,
      "얍": 1970,
      "얏": 1971,
      "얐": 1972,
      "양": 1973,
      "얕": 1974,
      "얗": 1975,
      "얘": 1976,
      "얙": 1977,
      "어": 1978,
      "억": 1979,
      "얶": 1980,
      "얷": 1981,
      "언": 1982,
      "얹": 1983,
      "얺": 1984,
      "얻": 1985,
      "얼": 1986,
      "얽": 1987,
      "엃": 1988,
      "엄": 1989,
      "업": 1990,
      "없": 1991,
      "엇": 1992,
      "었": 1993,
      "엉": 1994,
      "엊": 1995,
      "엋": 1996,
      "엌": 1997,
      "엎": 1998,
      "엏": 1999,
      "에": 2000,
      "엑": 2001,
      "엓": 2002,
      "엔": 2003,
      "엘": 2004,
      "엠": 2005,
      "엡": 2006,
      "엢": 2007,
      "엣": 2008,
      "엤": 2009,
      "엥": 2010,
      "엨": 2011,
      "엪": 2012,
      "여": 2013,
      "역": 2014,
      "엮": 2015,
      "연": 2016,
      "엳": 2017,
      "열": 2018,
      "엷": 2019,
      "염": 2020,
      "엽": 2021,
      "엾": 2022,
      "엿": 2023,
      "였": 2024,
      "영": 2025,
      "옂": 2026,
      "옄": 2027,
      "옅": 2028,
      "옆": 2029,
      "옇": 2030,
      "예": 2031,
      "옌": 2032,
      "옐": 2033,
      "옘": 2034,
      "옙": 2035,
      "옛": 2036,
      "옜": 2037,
      "오": 2038,
      "옥": 2039,
      "온": 2040,
      "올": 2041,
      "옭": 2042,
      "옮": 2043,
      "옯": 2044,
      "옰": 2045,
      "옳": 2046,
      "옴": 2047,
      "옵": 2048,
      "옶": 2049,
      "옷": 2050,
      "옹": 2051,
      "옼": 2052,
      "옿": 2053,
      "와": 2054,
      "왁": 2055,
      "완": 2056,
      "왅": 2057,
      "왈": 2058,
      "왑": 2059,
      "왓": 2060,
      "왔": 2061,
      "왕": 2062,
      "왘": 2063,
      "왛": 2064,
      "왜": 2065,
      "왝": 2066,
      "왠": 2067,
      "왤": 2068,
      "왦": 2069,
      "외": 2070,
      "왹": 2071,
      "왼": 2072,
      "욀": 2073,
      "욌": 2074,
      "요": 2075,
      "욕": 2076,
      "욘": 2077,
      "욜": 2078,
      "욤": 2079,
      "욥": 2080,
      "욧": 2081,
      "용": 2082,
      "욬": 2083,
      "욯": 2084,
      "우": 2085,
      "욱": 2086,
      "욲": 2087,
      "운": 2088,
      "욷": 2089,
      "울": 2090,
      "욹": 2091,
      "움": 2092,
      "웁": 2093,
      "웃": 2094,
      "웄": 2095,
      "웅": 2096,
      "웈": 2097,
      "워": 2098,
      "웍": 2099,
      "원": 2100,
      "월": 2101,
      "웜": 2102,
      "웟": 2103,
      "웠": 2104,
      "웡": 2105,
      "웤": 2106,
      "웨": 2107,
      "웩": 2108,
      "웬": 2109,
      "웰": 2110,
      "웸": 2111,
      "웹": 2112,
      "웽": 2113,
      "윀": 2114,
      "위": 2115,
      "윅": 2116,
      "윈": 2117,
      "윌": 2118,
      "윔": 2119,
      "윕": 2120,
      "윖": 2121,
      "윗": 2122,
      "윘": 2123,
      "윙": 2124,
      "유": 2125,
      "육": 2126,
      "윤": 2127,
      "율": 2128,
      "윰": 2129,
      "윱": 2130,
      "윳": 2131,
      "융": 2132,
      "으": 2133,
      "윽": 2134,
      "은": 2135,
      "읃": 2136,
      "을": 2137,
      "읅": 2138,
      "읆": 2139,
      "읇": 2140,
      "읊": 2141,
      "음": 2142,
      "읍": 2143,
      "읎": 2144,
      "읏": 2145,
      "응": 2146,
      "읔": 2147,
      "읖": 2148,
      "의": 2149,
      "읭": 2150,
      "읮": 2151,
      "이": 2152,
      "익": 2153,
      "읶": 2154,
      "인": 2155,
      "읹": 2156,
      "읺": 2157,
      "읻": 2158,
      "일": 2159,
      "읽": 2160,
      "읿": 2161,
      "잃": 2162,
      "임": 2163,
      "입": 2164,
      "잇": 2165,
      "있": 2166,
      "잉": 2167,
      "잊": 2168,
      "잌": 2169,
      "잎": 2170,
      "잏": 2171,
      "자": 2172,
      "작": 2173,
      "잔": 2174,
      "잖": 2175,
      "잗": 2176,
      "잘": 2177,
      "잛": 2178,
      "잠": 2179,
      "잡": 2180,
      "잣": 2181,
      "장": 2182,
      "잦": 2183,
      "잫": 2184,
      "재": 2185,
      "잭": 2186,
      "잰": 2187,
      "잴": 2188,
      "잼": 2189,
      "잽": 2190,
      "잿": 2191,
      "쟁": 2192,
      "쟄": 2193,
      "쟈": 2194,
      "쟉": 2195,
      "쟌": 2196,
      "쟎": 2197,
      "쟘": 2198,
      "쟙": 2199,
      "쟝": 2200,
      "쟞": 2201,
      "쟤": 2202,
      "저": 2203,
      "적": 2204,
      "전": 2205,
      "젅": 2206,
      "젆": 2207,
      "젇": 2208,
      "절": 2209,
      "젊": 2210,
      "젋": 2211,
      "점": 2212,
      "접": 2213,
      "젓": 2214,
      "젔": 2215,
      "정": 2216,
      "젖": 2217,
      "젛": 2218,
      "제": 2219,
      "젝": 2220,
      "젠": 2221,
      "젤": 2222,
      "젬": 2223,
      "젭": 2224,
      "젯": 2225,
      "져": 2226,
      "젹": 2227,
      "젼": 2228,
      "졀": 2229,
      "졈": 2230,
      "졉": 2231,
      "졌": 2232,
      "졍": 2233,
      "졎": 2234,
      "졏": 2235,
      "졐": 2236,
      "졑": 2237,
      "졓": 2238,
      "졔": 2239,
      "조": 2240,
      "족": 2241,
      "존": 2242,
      "졷": 2243,
      "졸": 2244,
      "좀": 2245,
      "좁": 2246,
      "좃": 2247,
      "종": 2248,
      "좆": 2249,
      "좇": 2250,
      "좉": 2251,
      "좊": 2252,
      "좋": 2253,
      "좌": 2254,
      "좍": 2255,
      "좐": 2256,
      "좔": 2257,
      "좝": 2258,
      "좠": 2259,
      "좡": 2260,
      "좢": 2261,
      "죄": 2262,
      "죗": 2263,
      "죙": 2264,
      "죠": 2265,
      "죤": 2266,
      "죨": 2267,
      "죳": 2268,
      "죴": 2269,
      "죵": 2270,
      "죶": 2271,
      "죷": 2272,
      "죻": 2273,
      "주": 2274,
      "죽": 2275,
      "준": 2276,
      "줄": 2277,
      "줌": 2278,
      "줍": 2279,
      "줏": 2280,
      "중": 2281,
      "줔": 2282,
      "줗": 2283,
      "줘": 2284,
      "줜": 2285,
      "줠": 2286,
      "줮": 2287,
      "줸": 2288,
      "쥇": 2289,
      "쥐": 2290,
      "쥑": 2291,
      "쥔": 2292,
      "쥘": 2293,
      "쥣": 2294,
      "쥤": 2295,
      "쥬": 2296,
      "쥭": 2297,
      "쥰": 2298,
      "쥴": 2299,
      "쥼": 2300,
      "즁": 2301,
      "즈": 2302,
      "즉": 2303,
      "즌": 2304,
      "즐": 2305,
      "즑": 2306,
      "즘": 2307,
      "즙": 2308,
      "즛": 2309,
      "증": 2310,
      "즞": 2311,
      "즤": 2312,
      "지": 2313,
      "직": 2314,
      "짂": 2315,
      "진": 2316,
      "짅": 2317,
      "짇": 2318,
      "질": 2319,
      "짊": 2320,
      "짋": 2321,
      "짐": 2322,
      "집": 2323,
      "짓": 2324,
      "징": 2325,
      "짖": 2326,
      "짘": 2327,
      "짙": 2328,
      "짚": 2329,
      "짜": 2330,
      "짝": 2331,
      "짞": 2332,
      "짠": 2333,
      "짢": 2334,
      "짤": 2335,
      "짦": 2336,
      "짧": 2337,
      "짫": 2338,
      "짬": 2339,
      "짭": 2340,
      "짱": 2341,
      "짲": 2342,
      "짴": 2343,
      "째": 2344,
      "쨈": 2345,
      "쨉": 2346,
      "쨋": 2347,
      "쨌": 2348,
      "쨍": 2349,
      "쨓": 2350,
      "쨔": 2351,
      "쨘": 2352,
      "쨩": 2353,
      "쨰": 2354,
      "쨱": 2355,
      "쩁": 2356,
      "쩃": 2357,
      "쩄": 2358,
      "쩌": 2359,
      "쩍": 2360,
      "쩐": 2361,
      "쩔": 2362,
      "쩜": 2363,
      "쩝": 2364,
      "쩡": 2365,
      "쩧": 2366,
      "쩨": 2367,
      "쪙": 2368,
      "쪠": 2369,
      "쪼": 2370,
      "쪽": 2371,
      "쪾": 2372,
      "쫀": 2373,
      "쫄": 2374,
      "쫌": 2375,
      "쫏": 2376,
      "쫑": 2377,
      "쫒": 2378,
      "쫓": 2379,
      "쫗": 2380,
      "쫘": 2381,
      "쫙": 2382,
      "쫭": 2383,
      "쬐": 2384,
      "쬬": 2385,
      "쭁": 2386,
      "쭈": 2387,
      "쭉": 2388,
      "쭊": 2389,
      "쭌": 2390,
      "쭐": 2391,
      "쭘": 2392,
      "쭙": 2393,
      "쭛": 2394,
      "쭝": 2395,
      "쮜": 2396,
      "쮯": 2397,
      "쮸": 2398,
      "쯔": 2399,
      "쯗": 2400,
      "쯤": 2401,
      "쯥": 2402,
      "쯧": 2403,
      "쯩": 2404,
      "쯪": 2405,
      "찌": 2406,
      "찍": 2407,
      "찎": 2408,
      "찐": 2409,
      "찔": 2410,
      "찜": 2411,
      "찝": 2412,
      "찟": 2413,
      "찡": 2414,
      "찢": 2415,
      "차": 2416,
      "착": 2417,
      "찬": 2418,
      "찮": 2419,
      "찯": 2420,
      "찰": 2421,
      "찱": 2422,
      "참": 2423,
      "찹": 2424,
      "찻": 2425,
      "창": 2426,
      "찾": 2427,
      "찿": 2428,
      "챃": 2429,
      "채": 2430,
      "책": 2431,
      "챈": 2432,
      "챌": 2433,
      "챔": 2434,
      "챕": 2435,
      "챗": 2436,
      "챙": 2437,
      "챠": 2438,
      "챡": 2439,
      "챤": 2440,
      "챦": 2441,
      "챨": 2442,
      "챰": 2443,
      "챵": 2444,
      "처": 2445,
      "척": 2446,
      "천": 2447,
      "철": 2448,
      "첨": 2449,
      "첩": 2450,
      "첫": 2451,
      "첬": 2452,
      "청": 2453,
      "첮": 2454,
      "체": 2455,
      "첵": 2456,
      "첸": 2457,
      "첼": 2458,
      "쳅": 2459,
      "쳇": 2460,
      "쳉": 2461,
      "쳐": 2462,
      "쳔": 2463,
      "쳥": 2464,
      "쳫": 2465,
      "쳬": 2466,
      "초": 2467,
      "촉": 2468,
      "촌": 2469,
      "촏": 2470,
      "촐": 2471,
      "촘": 2472,
      "촛": 2473,
      "총": 2474,
      "촟": 2475,
      "촣": 2476,
      "촤": 2477,
      "촥": 2478,
      "촬": 2479,
      "촹": 2480,
      "쵁": 2481,
      "최": 2482,
      "쵝": 2483,
      "쵴": 2484,
      "쵸": 2485,
      "쵼": 2486,
      "춋": 2487,
      "춌": 2488,
      "추": 2489,
      "축": 2490,
      "춘": 2491,
      "출": 2492,
      "춤": 2493,
      "춥": 2494,
      "춧": 2495,
      "충": 2496,
      "춫": 2497,
      "춬": 2498,
      "춰": 2499,
      "춴": 2500,
      "춸": 2501,
      "췌": 2502,
      "췟": 2503,
      "취": 2504,
      "췬": 2505,
      "츄": 2506,
      "츈": 2507,
      "츔": 2508,
      "츙": 2509,
      "츠": 2510,
      "측": 2511,
      "츤": 2512,
      "츨": 2513,
      "츰": 2514,
      "츳": 2515,
      "층": 2516,
      "츼": 2517,
      "츽": 2518,
      "칀": 2519,
      "치": 2520,
      "칙": 2521,
      "친": 2522,
      "칝": 2523,
      "칠": 2524,
      "침": 2525,
      "칩": 2526,
      "칫": 2527,
      "칭": 2528,
      "칰": 2529,
      "카": 2530,
      "칵": 2531,
      "칸": 2532,
      "칻": 2533,
      "칼": 2534,
      "캄": 2535,
      "캅": 2536,
      "캇": 2537,
      "캉": 2538,
      "캌": 2539,
      "캍": 2540,
      "캐": 2541,
      "캔": 2542,
      "캘": 2543,
      "캠": 2544,
      "캡": 2545,
      "캢": 2546,
      "캣": 2547,
      "캥": 2548,
      "캬": 2549,
      "캭": 2550,
      "캴": 2551,
      "컁": 2552,
      "컄": 2553,
      "커": 2554,
      "컥": 2555,
      "컨": 2556,
      "컫": 2557,
      "컬": 2558,
      "컴": 2559,
      "컵": 2560,
      "컷": 2561,
      "컹": 2562,
      "컼": 2563,
      "컾": 2564,
      "케": 2565,
      "켁": 2566,
      "켄": 2567,
      "켈": 2568,
      "켐": 2569,
      "켓": 2570,
      "켔": 2571,
      "켕": 2572,
      "켘": 2573,
      "켜": 2574,
      "켠": 2575,
      "켤": 2576,
      "켬": 2577,
      "코": 2578,
      "콕": 2579,
      "콘": 2580,
      "콜": 2581,
      "콤": 2582,
      "콥": 2583,
      "콧": 2584,
      "콩": 2585,
      "콬": 2586,
      "콮": 2587,
      "콯": 2588,
      "콰": 2589,
      "콱": 2590,
      "콴": 2591,
      "콸": 2592,
      "쾅": 2593,
      "쾌": 2594,
      "쾡": 2595,
      "쾨": 2596,
      "쿄": 2597,
      "쿈": 2598,
      "쿠": 2599,
      "쿡": 2600,
      "쿤": 2601,
      "쿨": 2602,
      "쿰": 2603,
      "쿳": 2604,
      "쿵": 2605,
      "쿸": 2606,
      "쿼": 2607,
      "퀀": 2608,
      "퀄": 2609,
      "퀘": 2610,
      "퀜": 2611,
      "퀭": 2612,
      "퀴": 2613,
      "퀵": 2614,
      "퀸": 2615,
      "퀼": 2616,
      "큐": 2617,
      "큘": 2618,
      "크": 2619,
      "큭": 2620,
      "큰": 2621,
      "클": 2622,
      "큼": 2623,
      "킁": 2624,
      "킄": 2625,
      "킈": 2626,
      "킌": 2627,
      "키": 2628,
      "킥": 2629,
      "킨": 2630,
      "킬": 2631,
      "킴": 2632,
      "킵": 2633,
      "킷": 2634,
      "킹": 2635,
      "킼": 2636,
      "타": 2637,
      "탁": 2638,
      "탄": 2639,
      "탆": 2640,
      "탈": 2641,
      "탉": 2642,
      "탐": 2643,
      "탑": 2644,
      "탓": 2645,
      "탕": 2646,
      "탗": 2647,
      "태": 2648,
      "택": 2649,
      "탠": 2650,
      "탤": 2651,
      "탬": 2652,
      "탭": 2653,
      "탯": 2654,
      "탱": 2655,
      "탸": 2656,
      "턀": 2657,
      "터": 2658,
      "턱": 2659,
      "턴": 2660,
      "털": 2661,
      "텀": 2662,
      "텁": 2663,
      "텃": 2664,
      "텅": 2665,
      "텈": 2666,
      "텉": 2667,
      "테": 2668,
      "텍": 2669,
      "텐": 2670,
      "텔": 2671,
      "템": 2672,
      "텝": 2673,
      "텟": 2674,
      "텡": 2675,
      "텨": 2676,
      "토": 2677,
      "톡": 2678,
      "톤": 2679,
      "톨": 2680,
      "톰": 2681,
      "톱": 2682,
      "통": 2683,
      "톼": 2684,
      "퇄": 2685,
      "퇘": 2686,
      "퇴": 2687,
      "툇": 2688,
      "툥": 2689,
      "투": 2690,
      "툭": 2691,
      "툰": 2692,
      "툴": 2693,
      "툼": 2694,
      "툿": 2695,
      "퉁": 2696,
      "퉤": 2697,
      "퉷": 2698,
      "퉽": 2699,
      "튀": 2700,
      "튄": 2701,
      "튕": 2702,
      "튜": 2703,
      "튠": 2704,
      "튤": 2705,
      "튬": 2706,
      "튭": 2707,
      "트": 2708,
      "특": 2709,
      "튼": 2710,
      "튿": 2711,
      "틀": 2712,
      "틈": 2713,
      "틋": 2714,
      "틍": 2715,
      "틐": 2716,
      "틑": 2717,
      "틔": 2718,
      "티": 2719,
      "틱": 2720,
      "틴": 2721,
      "틸": 2722,
      "팀": 2723,
      "팁": 2724,
      "팅": 2725,
      "파": 2726,
      "팍": 2727,
      "팎": 2728,
      "판": 2729,
      "팔": 2730,
      "팜": 2731,
      "팝": 2732,
      "팟": 2733,
      "팡": 2734,
      "팥": 2735,
      "패": 2736,
      "팩": 2737,
      "팬": 2738,
      "팰": 2739,
      "팸": 2740,
      "팻": 2741,
      "팽": 2742,
      "팾": 2743,
      "퍄": 2744,
      "퍠": 2745,
      "퍼": 2746,
      "퍽": 2747,
      "펀": 2748,
      "펄": 2749,
      "펌": 2750,
      "펑": 2751,
      "펔": 2752,
      "페": 2753,
      "펙": 2754,
      "펜": 2755,
      "펠": 2756,
      "펩": 2757,
      "펫": 2758,
      "펭": 2759,
      "펴": 2760,
      "편": 2761,
      "펼": 2762,
      "폄": 2763,
      "폅": 2764,
      "평": 2765,
      "폐": 2766,
      "포": 2767,
      "폭": 2768,
      "폰": 2769,
      "폴": 2770,
      "폼": 2771,
      "폽": 2772,
      "폿": 2773,
      "퐁": 2774,
      "퐈": 2775,
      "퐉": 2776,
      "퐌": 2777,
      "퐛": 2778,
      "퐝": 2779,
      "퐠": 2780,
      "푀": 2781,
      "표": 2782,
      "푱": 2783,
      "푸": 2784,
      "푹": 2785,
      "푼": 2786,
      "풀": 2787,
      "품": 2788,
      "풉": 2789,
      "풋": 2790,
      "풍": 2791,
      "풓": 2792,
      "풔": 2793,
      "풕": 2794,
      "풰": 2795,
      "퓌": 2796,
      "퓨": 2797,
      "퓬": 2798,
      "퓰": 2799,
      "퓽": 2800,
      "프": 2801,
      "픈": 2802,
      "플": 2803,
      "픔": 2804,
      "픕": 2805,
      "피": 2806,
      "픽": 2807,
      "핀": 2808,
      "필": 2809,
      "핍": 2810,
      "핏": 2811,
      "핑": 2812,
      "핓": 2813,
      "핕": 2814,
      "하": 2815,
      "학": 2816,
      "핛": 2817,
      "한": 2818,
      "핟": 2819,
      "할": 2820,
      "핡": 2821,
      "핣": 2822,
      "핥": 2823,
      "핦": 2824,
      "핧": 2825,
      "함": 2826,
      "합": 2827,
      "핫": 2828,
      "핬": 2829,
      "항": 2830,
      "핮": 2831,
      "핯": 2832,
      "핰": 2833,
      "핱": 2834,
      "핳": 2835,
      "해": 2836,
      "핵": 2837,
      "핶": 2838,
      "핸": 2839,
      "핼": 2840,
      "햄": 2841,
      "햅": 2842,
      "햇": 2843,
      "했": 2844,
      "행": 2845,
      "햏": 2846,
      "햐": 2847,
      "햔": 2848,
      "햣": 2849,
      "햤": 2850,
      "향": 2851,
      "햫": 2852,
      "헀": 2853,
      "허": 2854,
      "헉": 2855,
      "헌": 2856,
      "헏": 2857,
      "헐": 2858,
      "헑": 2859,
      "험": 2860,
      "헙": 2861,
      "헛": 2862,
      "헝": 2863,
      "헠": 2864,
      "헣": 2865,
      "헤": 2866,
      "헥": 2867,
      "헨": 2868,
      "헬": 2869,
      "헴": 2870,
      "헵": 2871,
      "헷": 2872,
      "헹": 2873,
      "헿": 2874,
      "혀": 2875,
      "혁": 2876,
      "현": 2877,
      "혈": 2878,
      "혐": 2879,
      "협": 2880,
      "혓": 2881,
      "형": 2882,
      "혖": 2883,
      "혜": 2884,
      "호": 2885,
      "혹": 2886,
      "혼": 2887,
      "홀": 2888,
      "홈": 2889,
      "홉": 2890,
      "홋": 2891,
      "홍": 2892,
      "홐": 2893,
      "홓": 2894,
      "화": 2895,
      "확": 2896,
      "환": 2897,
      "홙": 2898,
      "활": 2899,
      "홧": 2900,
      "홨": 2901,
      "황": 2902,
      "홪": 2903,
      "홫": 2904,
      "홬": 2905,
      "홯": 2906,
      "홱": 2907,
      "회": 2908,
      "획": 2909,
      "횐": 2910,
      "횔": 2911,
      "횟": 2912,
      "횡": 2913,
      "횤": 2914,
      "효": 2915,
      "횬": 2916,
      "횽": 2917,
      "훃": 2918,
      "후": 2919,
      "훅": 2920,
      "훈": 2921,
      "훋": 2922,
      "훌": 2923,
      "훑": 2924,
      "훓": 2925,
      "훔": 2926,
      "훕": 2927,
      "훗": 2928,
      "훙": 2929,
      "훜": 2930,
      "훟": 2931,
      "훠": 2932,
      "훡": 2933,
      "훤": 2934,
      "훨": 2935,
      "훵": 2936,
      "훸": 2937,
      "훻": 2938,
      "훼": 2939,
      "휏": 2940,
      "휑": 2941,
      "휘": 2942,
      "휙": 2943,
      "휠": 2944,
      "휩": 2945,
      "휴": 2946,
      "휸": 2947,
      "휼": 2948,
      "흉": 2949,
      "흌": 2950,
      "흏": 2951,
      "흐": 2952,
      "흑": 2953,
      "흔": 2954,
      "흘": 2955,
      "흙": 2956,
      "흝": 2957,
      "흠": 2958,
      "흡": 2959,
      "흣": 2960,
      "흥": 2961,
      "흦": 2962,
      "흨": 2963,
      "흩": 2964,
      "흫": 2965,
      "희": 2966,
      "흰": 2967,
      "흳": 2968,
      "히": 2969,
      "힉": 2970,
      "힌": 2971,
      "힐": 2972,
      "힘": 2973,
      "힙": 2974,
      "힛": 2975,
      "힝": 2976,
      "힞": 2977,
      "힣": 2978,
      "盧": 2979,
      "老": 2980,
      "綠": 2981,
      "不": 2982,
      "禮": 2983,
      "龍": 2984,
      "流": 2985,
      "紐": 2986,
      "律": 2987,
      "慄": 2988,
      "！": 2989,
      "＋": 2990,
      "，": 2991,
      "？": 2992,
      "＼": 2993,
      "＾": 2994,
      "｀": 2995,
      "ｘ": 2996,
      "～": 2997,
      "￣": 2998,
      "##러": 2999,
      "##우": 3000,
      "##리": 3001,
      "##어": 3002,
      "##누": 3003,
      "##두": 3004,
      "##일": 3005,
      "##아": 3006,
      "##하": 3007,
      "##훌": 3008,
      "##원": 3009,
      "##스": 3010,
      "##맨": 3011,
      "##선": 3012,
      "##무": 3013,
      "##ㅇ": 3014,
      "##ㅡ": 3015,
      "##향": 3016,
      "##점": 3017,
      "##품": 3018,
      "##망": 3019,
      "##현": 3020,
      "##너": 3021,
      "##저": 3022,
      "##류": 3023,
      "##인": 3024,
      "##생": 3025,
      "##뎅": 3026,
      "##끄": 3027,
      "##움": 3028,
      "##재": 3029,
      "##흥": 3030,
      "##배": 3031,
      "##쟈": 3032,
      "##베": 3033,
      "##장": 3034,
      "##판": 3035,
      "##니": 3036,
      "##샤": 3037,
      "##론": 3038,
      "##톤": 3039,
      "##기": 3040,
      "##파": 3041,
      "##출": 3042,
      "##이": 3043,
      "##블": 3044,
      "##린": 3045,
      "##국": 3046,
      "##식": 3047,
      "##슨": 3048,
      "##도": 3049,
      "##황": 3050,
      "##화": 3051,
      "##더": 3052,
      "##풀": 3053,
      "##데": 3054,
      "##즈": 3055,
      "##치": 3056,
      "##다": 3057,
      "##불": 3058,
      "##썅": 3059,
      "##꼽": 3060,
      "##키": 3061,
      "##걸": 3062,
      "##듬": 3063,
      "##피": 3064,
      "##엔": 3065,
      "##딩": 3066,
      "##투": 3067,
      "##섭": 3068,
      "##부": 3069,
      "##험": 3070,
      "##담": 3071,
      "##1": 3072,
      "##7": 3073,
      "##없": 3074,
      "##해": 3075,
      "##령": 3076,
      "##럴": 3077,
      "##밌": 3078,
      "##디": 3079,
      "##몽": 3080,
      "##녀": 3081,
      "##라": 3082,
      "##준": 3083,
      "##대": 3084,
      "##범": 3085,
      "##렬": 3086,
      "##느": 3087,
      "##로": 3088,
      "##카": 3089,
      "##서": 3090,
      "##크": 3091,
      "##논": 3092,
      "##진": 3093,
      "##글": 3094,
      "##능": 3095,
      "##곡": 3096,
      "##r": 3097,
      "##i": 3098,
      "##z": 3099,
      "##l": 3100,
      "##y": 3101,
      "##신": 3102,
      "##k": 3103,
      "##o": 3104,
      "##n": 3105,
      "##트": 3106,
      "##폴": 3107,
      "##탄": 3108,
      "##란": 3109,
      "##푸": 3110,
      "##틴": 3111,
      "##르": 3112,
      "##갸": 3113,
      "##레": 3114,
      "##븐": 3115,
      "##시": 3116,
      "##외": 3117,
      "##보": 3118,
      "##숑": 3119,
      "##히": 3120,
      "##고": 3121,
      "##릴": 3122,
      "##쇅": 3123,
      "##들": 3124,
      "##벽": 3125,
      "##의": 3126,
      "##수": 3127,
      "##계": 3128,
      "##미": 3129,
      "##ン": 3130,
      "##グ": 3131,
      "##ワ": 3132,
      "##ヨ": 3133,
      "##ル": 3134,
      "##シ": 3135,
      "##ム": 3136,
      "##ヒ": 3137,
      "##し": 3138,
      "##ま": 3139,
      "##す": 3140,
      "##엉": 3141,
      "##속": 3142,
      "##달": 3143,
      "##프": 3144,
      "##모": 3145,
      "##u": 3146,
      "##e": 3147,
      "##q": 3148,
      "##a": 3149,
      "##s": 3150,
      "##비": 3151,
      "##든": 3152,
      "##포": 3153,
      "##연": 3154,
      "##빠": 3155,
      "##뜨": 3156,
      "##ㅋ": 3157,
      "##쌀": 3158,
      "##나": 3159,
      "##ㄹ": 3160,
      "##살": 3161,
      "##오": 3162,
      "##뚱": 3163,
      "##거": 3164,
      "##료": 3165,
      "##램": 3166,
      "##면": 3167,
      "##땡": 3168,
      "##독": 3169,
      "##언": 3170,
      "##열": 3171,
      "##매": 3172,
      "##심": 3173,
      "##추": 3174,
      "##활": 3175,
      "##증": 3176,
      "##주": 3177,
      "##랑": 3178,
      "##렌": 3179,
      "##코": 3180,
      "##분": 3181,
      "##금": 3182,
      "##술": 3183,
      "##사": 3184,
      "##템": 3185,
      "##영": 3186,
      "##2": 3187,
      "##6": 3188,
      "##d": 3189,
      "##네": 3190,
      "##야": 3191,
      "##객": 3192,
      "##석": 3193,
      "##ㅌ": 3194,
      "##긔": 3195,
      "##련": 3196,
      "##음": 3197,
      "##지": 3198,
      "##성": 3199,
      "##빝": 3200,
      "##색": 3201,
      "##패": 3202,
      "##꽂": 3203,
      "##애": 3204,
      "##길": 3205,
      "##괴": 3206,
      "##감": 3207,
      "##자": 3208,
      "##쓰": 3209,
      "##통": 3210,
      "##늘": 3211,
      "##각": 3212,
      "##입": 3213,
      "##름": 3214,
      "##맥": 3215,
      "##려": 3216,
      "##놓": 3217,
      "##뽄": 3218,
      "##전": 3219,
      "##테": 3220,
      "##드": 3221,
      "##발": 3222,
      "##육": 3223,
      "##체": 3224,
      "##동": 3225,
      "##제": 3226,
      "##쯩": 3227,
      "##브": 3228,
      "##당": 3229,
      "##랜": 3230,
      "##상": 3231,
      "##륭": 3232,
      "##씨": 3233,
      "##j": 3234,
      "##f": 3235,
      "##m": 3236,
      "##작": 3237,
      "##져": 3238,
      "##타": 3239,
      "##g": 3240,
      "##박": 3241,
      "##왕": 3242,
      "##산": 3243,
      "##차": 3244,
      "##츄": 3245,
      "##따": 3246,
      "##위": 3247,
      "##개": 3248,
      "##물": 3249,
      "##운": 3250,
      "##록": 3251,
      "##즌": 3252,
      "##4": 3253,
      "##읔": 3254,
      "##행": 3255,
      "##단": 3256,
      "##권": 3257,
      "##머": 3258,
      "##요": 3259,
      "##촉": 3260,
      "##구": 3261,
      "##초": 3262,
      "##찬": 3263,
      "##마": 3264,
      "##ㅣ": 3265,
      "##꿔": 3266,
      "##가": 3267,
      "##됫": 3268,
      "##근": 3269,
      "##별": 3270,
      "##휴": 3271,
      "##낭": 3272,
      "##엽": 3273,
      "##격": 3274,
      "##정": 3275,
      "##승": 3276,
      "##내": 3277,
      "##세": 3278,
      "##콜": 3279,
      "##밋": 3280,
      "##옹": 3281,
      "##말": 3282,
      "##방": 3283,
      "##윤": 3284,
      "##덕": 3285,
      "##과": 3286,
      "##까": 3287,
      "##은": 3288,
      "##터": 3289,
      "##그": 3290,
      "##웨": 3291,
      "##에": 3292,
      "##밭": 3293,
      "##싱": 3294,
      "##퀸": 3295,
      "##퓨": 3296,
      "##티": 3297,
      "##희": 3298,
      "##욕": 3299,
      "##조": 3300,
      "##용": 3301,
      "##굿": 3302,
      "##잡": 3303,
      "##갓": 3304,
      "##닥": 3305,
      "##슬": 3306,
      "##림": 3307,
      "##텐": 3308,
      "##호": 3309,
      "##한": 3310,
      "##냐": 3311,
      "##t": 3312,
      "##w": 3313,
      "##송": 3314,
      "##덴": 3315,
      "##렁": 3316,
      "##허": 3317,
      "##십": 3318,
      "##홍": 3319,
      "##문": 3320,
      "##토": 3321,
      "##욘": 3322,
      "##소": 3323,
      "##울": 3324,
      "##임": 3325,
      "##율": 3326,
      "##た": 3327,
      "##い": 3328,
      "##팬": 3329,
      "##돌": 3330,
      "##유": 3331,
      "##실": 3332,
      "##력": 3333,
      "##처": 3334,
      "##옵": 3335,
      "##민": 3336,
      "##짐": 3337,
      "##역": 3338,
      "##적": 3339,
      "##널": 3340,
      "##노": 3341,
      "##잼": 3342,
      "##짜": 3343,
      "##극": 3344,
      "##슷": 3345,
      "##래": 3346,
      "##p": 3347,
      "##c": 3348,
      "##짱": 3349,
      "##h": 3350,
      "##예": 3351,
      "##읹": 3352,
      "##루": 3353,
      "##틀": 3354,
      "##남": 3355,
      "##족": 3356,
      "##럼": 3357,
      "##쟁": 3358,
      "##청": 3359,
      "##딴": 3360,
      "##렉": 3361,
      "##축": 3362,
      "##학": 3363,
      "##바": 3364,
      "##엘": 3365,
      "##먼": 3366,
      "##워": 3367,
      "##명": 3368,
      "##표": 3369,
      "##빈": 3370,
      "##께": 3371,
      "##째": 3372,
      "##충": 3373,
      "##ㄱ": 3374,
      "##ㅎ": 3375,
      "##싯": 3376,
      "##안": 3377,
      "##습": 3378,
      "##와": 3379,
      "##펀": 3380,
      "##만": 3381,
      "##럽": 3382,
      "##을": 3383,
      "##확": 3384,
      "##클": 3385,
      "##찔": 3386,
      "##b": 3387,
      "##버": 3388,
      "##늉": 3389,
      "##랄": 3390,
      "##죤": 3391,
      "##쁘": 3392,
      "##슴": 3393,
      "##돠": 3394,
      "##퍼": 3395,
      "##띵": 3396,
      "##편": 3397,
      "##뭄": 3398,
      "##복": 3399,
      "##여": 3400,
      "##굴": 3401,
      "##컨": 3402,
      "##태": 3403,
      "##경": 3404,
      "##필": 3405,
      "##잎": 3406,
      "##악": 3407,
      "##징": 3408,
      "##먹": 3409,
      "##맹": 3410,
      "##혁": 3411,
      "##넬": 3412,
      "##게": 3413,
      "##덤": 3414,
      "##섯": 3415,
      "##0": 3416,
      "##3": 3417,
      "##혼": 3418,
      "##관": 3419,
      "##알": 3420,
      "##폭": 3421,
      "##릿": 3422,
      "##닝": 3423,
      "##강": 3424,
      "##설": 3425,
      "##평": 3426,
      "##교": 3427,
      "##벌": 3428,
      "##5": 3429,
      "##케": 3430,
      "##천": 3431,
      "##액": 3432,
      "##완": 3433,
      "##규": 3434,
      "##픽": 3435,
      "##으": 3436,
      "##형": 3437,
      "##중": 3438,
      "##페": 3439,
      "##밴": 3440,
      "##룡": 3441,
      "##콩": 3442,
      "##캐": 3443,
      "##릭": 3444,
      "##플": 3445,
      "##질": 3446,
      "##션": 3447,
      "##압": 3448,
      "##끆": 3449,
      "##않": 3450,
      "##틸": 3451,
      "##렷": 3452,
      "##냠": 3453,
      "##찌": 3454,
      "##ㅁ": 3455,
      "##죽": 3456,
      "##던": 3457,
      "##콘": 3458,
      "##집": 3459,
      "##눈": 3460,
      "##륵": 3461,
      "##밍": 3462,
      "##쳐": 3463,
      "##쉬": 3464,
      "##톡": 3465,
      "##헌": 3466,
      "##억": 3467,
      "##엄": 3468,
      "##골": 3469,
      "##9": 3470,
      "##8": 3471,
      "##메": 3472,
      "##ㅅ": 3473,
      "##ㅏ": 3474,
      "##ㄴ": 3475,
      "##딧": 3476,
      "##빵": 3477,
      "##갈": 3478,
      "##룩": 3479,
      "##반": 3480,
      "##솜": 3481,
      "##종": 3482,
      "##ㅠ": 3483,
      "##ㅂ": 3484,
      "##잇": 3485,
      "##높": 3486,
      "##릅": 3487,
      "##ㅈ": 3488,
      "##딪": 3489,
      "##탕": 3490,
      "##업": 3491,
      "##쿠": 3492,
      "##젤": 3493,
      "##쩌": 3494,
      "##뚜": 3495,
      "##○": 3496,
      "##막": 3497,
      "##싸": 3498,
      "##ㅓ": 3499,
      "##쿨": 3500,
      "##헛": 3501,
      "##★": 3502,
      "##☆": 3503,
      "##팍": 3504,
      "##◀": 3505,
      "##쩔": 3506,
      "##런": 3507,
      "##츠": 3508,
      "##즘": 3509,
      "##약": 3510,
      "##견": 3511,
      "##띠": 3512,
      "##건": 3513,
      "##창": 3514,
      "##봉": 3515,
      "##힙": 3516,
      "##팝": 3517,
      "##털": 3518,
      "##롱": 3519,
      "##존": 3520,
      "##풍": 3521,
      "##멋": 3522,
      "##셔": 3523,
      "##답": 3524,
      "##효": 3525,
      "##닌": 3526,
      "##폼": 3527,
      "##쫙": 3528,
      "##량": 3529,
      "##급": 3530,
      "##염": 3531,
      "##x": 3532,
      "##홀": 3533,
      "##믄": 3534,
      "##큼": 3535,
      "##꼬": 3536,
      "##랩": 3537,
      "##틱": 3538,
      "##후": 3539,
      "##숫": 3540,
      "##훈": 3541,
      "##웁": 3542,
      "##뎍": 3543,
      "##숀": 3544,
      "##낱": 3545,
      "##샾": 3546,
      "##톨": 3547,
      "##젓": 3548,
      "##얼": 3549,
      "##균": 3550,
      "##솟": 3551,
      "##획": 3552,
      "##깊": 3553,
      "##병": 3554,
      "##숖": 3555,
      "##본": 3556,
      "##백": 3557,
      "##솔": 3558,
      "##삭": 3559,
      "##짓": 3560,
      "##앗": 3561,
      "##싹": 3562,
      "##멘": 3563,
      "##탈": 3564,
      "##끼": 3565,
      "##펠": 3566,
      "##슈": 3567,
      "##턴": 3568,
      "##년": 3569,
      "##셀": 3570,
      "##칠": 3571,
      "##맛": 3572,
      "##윽": 3573,
      "##익": 3574,
      "##옥": 3575,
      "##욱": 3576,
      "##랭": 3577,
      "##끔": 3578,
      "##념": 3579,
      "##침": 3580,
      "##늙": 3581,
      "##긋": 3582,
      "##좌": 3583,
      "##얘": 3584,
      "##결": 3585,
      "##책": 3586,
      "##줄": 3587,
      "##델": 3588,
      "##찐": 3589,
      "##친": 3590,
      "##공": 3591,
      "##취": 3592,
      "##탑": 3593,
      "##칩": 3594,
      "##착": 3595,
      "##써": 3596,
      "##깟": 3597,
      "##찻": 3598,
      "##똥": 3599,
      "##뎐": 3600,
      "##탁": 3601,
      "##님": 3602,
      "##는": 3603,
      "##v": 3604,
      "##립": 3605,
      "##놈": 3606,
      "##온": 3607,
      "##퇘": 3608,
      "##컥": 3609,
      "##욜": 3610,
      "##붕": 3611,
      "##번": 3612,
      "##쨰": 3613,
      "##쿵": 3614,
      "##럿": 3615,
      "##팅": 3616,
      "##퉤": 3617,
      "##응": 3618,
      "##댓": 3619,
      "##절": 3620,
      "##커": 3621,
      "##난": 3622,
      "##썸": 3623,
      "##칫": 3624,
      "##덩": 3625,
      "##앙": 3626,
      "##앀": 3627,
      "##닺": 3628,
      "##군": 3629,
      "##변": 3630,
      "##깔": 3631,
      "##풕": 3632,
      "##꼐": 3633,
      "##렇": 3634,
      "##뷰": 3635,
      "##환": 3636,
      "##넌": 3637,
      "##펜": 3638,
      "##회": 3639,
      "##넘": 3640,
      "##쉐": 3641,
      "##홯": 3642,
      "##빼": 3643,
      "##링": 3644,
      "##숙": 3645,
      "##항": 3646,
      "##몰": 3647,
      "##랬": 3648,
      "##궈": 3649,
      "##벨": 3650,
      "##빗": 3651,
      "##룸": 3652,
      "##칰": 3653,
      "##손": 3654,
      "##락": 3655,
      "##넣": 3656,
      "##쇼": 3657,
      "##맄": 3658,
      "##떄": 3659,
      "##줘": 3660,
      "##똘": 3661,
      "##킹": 3662,
      "##돼": 3663,
      "##랙": 3664,
      "##또": 3665,
      "##쇄": 3666,
      "##컷": 3667,
      "##뭇": 3668,
      "##꾼": 3669,
      "##법": 3670,
      "##짝": 3671,
      "##껴": 3672,
      "##틈": 3673,
      "##쌩": 3674,
      "##맞": 3675,
      "##꽃": 3676,
      "##ㅊ": 3677,
      "##죠": 3678,
      "##둥": 3679,
      "##핵": 3680,
      "##협": 3681,
      "##뭥": 3682,
      "##춘": 3683,
      "##함": 3684,
      "##쭈": 3685,
      "##밤": 3686,
      "##젼": 3687,
      "##찹": 3688,
      "##톱": 3689,
      "##섬": 3690,
      "##옴": 3691,
      "##믐": 3692,
      "##흠": 3693,
      "##즙": 3694,
      "##며": 3695,
      "##팔": 3696,
      "##얙": 3697,
      "##꼮": 3698,
      "##꼭": 3699,
      "##ㄷ": 3700,
      "##먀": 3701,
      "##댄": 3702,
      "##뚤": 3703,
      "##쉣": 3704,
      "##꼼": 3705,
      "##솀": 3706,
      "##날": 3707,
      "##혜": 3708,
      "##잠": 3709,
      "##떳": 3710,
      "##딱": 3711,
      "##혐": 3712,
      "##벗": 3713,
      "##펙": 3714,
      "##욬": 3715,
      "##돋": 3716,
      "##뢰": 3717,
      "##등": 3718,
      "##깐": 3719,
      "##괄": 3720,
      "##간": 3721,
      "##돈": 3722,
      "##깝": 3723,
      "##꼴": 3724,
      "##쯤": 3725,
      "##롭": 3726,
      "##꺽": 3727,
      "##괘": 3728,
      "##꺅": 3729,
      "##떻": 3730,
      "##作": 3731,
      "##월": 3732,
      "##양": 3733,
      "##츈": 3734,
      "##맜": 3735,
      "##곤": 3736,
      "##람": 3737,
      "##몬": 3738,
      "##젯": 3739,
      "##횽": 3740,
      "##칭": 3741,
      "##렿": 3742,
      "##땜": 3743,
      "##귀": 3744,
      "##혈": 3745,
      "##셋": 3746,
      "##멸": 3747,
      "##쪽": 3748,
      "##새": 3749,
      "##젹": 3750,
      "##햣": 3751,
      "##쥬": 3752,
      "##퍽": 3753,
      "##벅": 3754,
      "##꾸": 3755,
      "##첨": 3756,
      "##튼": 3757,
      "##광": 3758,
      "##텔": 3759,
      "##칼": 3760,
      "##켈": 3761,
      "##봄": 3762,
      "##뜩": 3763,
      "##핰": 3764,
      "##뽀": 3765,
      "##떼": 3766,
      "##때": 3767,
      "##봤": 3768,
      "##겅": 3769,
      "##킷": 3770,
      "##♥": 3771,
      "##꿈": 3772,
      "##됨": 3773,
      "##룰": 3774,
      "##갯": 3775,
      "##겁": 3776,
      "##쳥": 3777,
      "##걍": 3778,
      "##핀": 3779,
      "##철": 3780,
      "##멓": 3781,
      "##쨩": 3782,
      "##것": 3783,
      "##붙": 3784,
      "##뇬": 3785,
      "##합": 3786,
      "##겐": 3787,
      "##쩍": 3788,
      "##뷁": 3789,
      "##퇴": 3790,
      "##른": 3791,
      "##빛": 3792,
      "##닷": 3793,
      "##받": 3794,
      "##…": 3795,
      "##롬": 3796,
      "##직": 3797,
      "##렀": 3798,
      "##첩": 3799,
      "##녕": 3800,
      "##젅": 3801,
      "##뽕": 3802,
      "##읍": 3803,
      "##닐": 3804,
      "##딕": 3805,
      "##빅": 3806,
      "##척": 3807,
      "##뭏": 3808,
      "##義": 3809,
      "##퉷": 3810,
      "##깡": 3811,
      "##농": 3812,
      "##낸": 3813,
      "##끈": 3814,
      "##갰": 3815,
      "##벤": 3816,
      "##엠": 3817,
      "##댕": 3818,
      "##례": 3819,
      "##잌": 3820,
      "##깨": 3821,
      "##봇": 3822,
      "##깈": 3823,
      "##셈": 3824,
      "##겨": 3825,
      "##목": 3826,
      "##찰": 3827,
      "##펫": 3828,
      "##빡": 3829,
      "##볼": 3830,
      "##떠": 3831,
      "##땅": 3832,
      "##휘": 3833,
      "##겋": 3834,
      "##칸": 3835,
      "##할": 3836,
      "##쭉": 3837,
      "##됴": 3838,
      "##흐": 3839,
      "##씩": 3840,
      "##암": 3841,
      "##측": 3842,
      "##긴": 3843,
      "##웅": 3844,
      "##즐": 3845,
      "##品": 3846,
      "##춤": 3847,
      "##혀": 3848,
      "##멜": 3849,
      "##썩": 3850,
      "##순": 3851,
      "##쁜": 3852,
      "##캅": 3853,
      "##탱": 3854,
      "##빙": 3855,
      "##섹": 3856,
      "##끌": 3857,
      "##팡": 3858,
      "##햐": 3859,
      "##햫": 3860,
      "##밧": 3861,
      "##뀰": 3862,
      "##략": 3863,
      "##뭉": 3864,
      "##뜯": 3865,
      "##핏": 3866,
      "##채": 3867,
      "##챃": 3868,
      "##똔": 3869,
      "##납": 3870,
      "##댈": 3871,
      "##툰": 3872,
      "##묭": 3873,
      "##읏": 3874,
      "##륜": 3875,
      "##핳": 3876,
      "##첼": 3877,
      "##떨": 3878,
      "##콥": 3879,
      "##잔": 3880,
      "##퐁": 3881,
      "##컵": 3882,
      "##렘": 3883,
      "##쾌": 3884,
      "##렙": 3885,
      "##았": 3886,
      "##ㅜ": 3887,
      "##ㅉ": 3888,
      "##뵈": 3889,
      "##랍": 3890,
      "##쎌": 3891,
      "##폰": 3892,
      "##튜": 3893,
      "##횡": 3894,
      "##갑": 3895,
      "##묵": 3896,
      "##혹": 3897,
      "##탐": 3898,
      "##궁": 3899,
      "##콤": 3900,
      "##덜": 3901,
      "##젠": 3902,
      "##쟝": 3903,
      "##센": 3904,
      "##큐": 3905,
      "##뇽": 3906,
      "##랴": 3907,
      "##쟄": 3908,
      "##댖": 3909,
      "##욥": 3910,
      "##끗": 3911,
      "##껄": 3912,
      "##냘": 3913,
      "##픈": 3914,
      "##접": 3915,
      "##겈": 3916,
      "##윌": 3917,
      "##컹": 3918,
      "##힝": 3919,
      "##퀴": 3920,
      "##씸": 3921,
      "##걱": 3922,
      "##얀": 3923,
      "##뇌": 3924,
      "##촬": 3925,
      "##탆": 3926,
      "##死": 3927,
      "##총": 3928,
      "##떡": 3929,
      "##률": 3930,
      "##왓": 3931,
      "##벼": 3932,
      "##엨": 3933,
      "##킬": 3934,
      "##밓": 3935,
      "##찿": 3936,
      "##웃": 3937,
      "##켓": 3938,
      "##잉": 3939,
      "##덧": 3940,
      "##졸": 3941,
      "##뱅": 3942,
      "##넥": 3943,
      "##萬": 3944,
      "##므": 3945,
      "##뿌": 3946,
      "##먄": 3947,
      "##밥": 3948,
      "##엿": 3949,
      "##놀": 3950,
      "##왈": 3951,
      "##씽": 3952,
      "##뽁": 3953,
      "##펄": 3954,
      "##쉽": 3955,
      "##륙": 3956,
      "##룽": 3957,
      "##툴": 3958,
      "##ㅔ": 3959,
      "##먈": 3960,
      "##놉": 3961,
      "##슌": 3962,
      "##섀": 3963,
      "##롸": 3964,
      "##샷": 3965,
      "##컬": 3966,
      "##꿀": 3967,
      "##흔": 3968,
      "##촌": 3969,
      "##김": 3970,
      "##럭": 3971,
      "##팽": 3972,
      "##북": 3973,
      "##ㅘ": 3974,
      "##푼": 3975,
      "##괭": 3976,
      "##듀": 3977,
      "##흳": 3978,
      "##댐": 3979,
      "##쌍": 3980,
      "##올": 3981,
      "##벡": 3982,
      "##뻔": 3983,
      "##벵": 3984,
      "##뻬": 3985,
      "##껏": 3986,
      "##랏": 3987,
      "##쳇": 3988,
      "##쵝": 3989,
      "##를": 3990,
      "##윗": 3991,
      "##택": 3992,
      "##낚": 3993,
      "##챈": 3994,
      "##롤": 3995,
      "##검": 3996,
      "##샠": 3997,
      "##좋": 3998,
      "##ベ": 3999,
      "##셉": 4000,
      "##쿄": 4001,
      "##캔": 4002,
      "##캉": 4003,
      "##헤": 4004,
      "##득": 4005,
      "##앤": 4006,
      "##웰": 4007,
      "##곱": 4008,
      "##곰": 4009,
      "##흡": 4010,
      "##냉": 4011,
      "##햏": 4012,
      "##쭁": 4013,
      "##챤": 4014,
      "##論": 4015,
      "##쒸": 4016,
      "##숰": 4017,
      "##훅": 4018,
      "##쪼": 4019,
      "##뚫": 4020,
      "##겜": 4021,
      "##뚝": 4022,
      "##딘": 4023,
      "##퀄": 4024,
      "##武": 4025,
      "##♬": 4026,
      "##♪": 4027,
      "##쥐": 4028,
      "##쫑": 4029,
      "##、": 4030,
      "##곀": 4031,
      "##뎌": 4032,
      "##됻": 4033,
      "##닫": 4034,
      "##깃": 4035,
      "##뎀": 4036,
      "##쩜": 4037,
      "##싶": 4038,
      "##팀": 4039,
      "##믜": 4040,
      "##뤠": 4041,
      "##폐": 4042,
      "##찡": 4043,
      "##홉": 4044,
      "##킨": 4045,
      "##탠": 4046,
      "##썽": 4047,
      "##윙": 4048,
      "##먠": 4049,
      "##홬": 4050,
      "##닛": 4051,
      "##헹": 4052,
      "##갤": 4053,
      "##뿰": 4054,
      "##닉": 4055,
      "##え": 4056,
      "##픔": 4057,
      "##뇨": 4058,
      "##늑": 4059,
      "##녁": 4060,
      "##흘": 4061,
      "##쩡": 4062,
      "##숭": 4063,
      "##켄": 4064,
      "##왁": 4065,
      "##굳": 4066,
      "##있": 4067,
      "##넹": 4068,
      "##빌": 4069,
      "##찎": 4070,
      "##롯": 4071,
      "##갱": 4072,
      "##맷": 4073,
      "##윀": 4074,
      "##밀": 4075,
      "##되": 4076,
      "##귝": 4077,
      "##썁": 4078,
      "##늄": 4079,
      "##셸": 4080,
      "##빨": 4081,
      "##꿉": 4082,
      "##쓱": 4083,
      "##핑": 4084,
      "##겟": 4085,
      "##븬": 4086,
      "##겹": 4087,
      "##깜": 4088,
      "##찍": 4089,
      "##릉": 4090,
      "##峽": 4091,
      "##텝": 4092,
      "##핫": 4093,
      "##쓴": 4094,
      "##잘": 4095,
      "##못": 4096,
      "##겔": 4097,
      "##쌔": 4098,
      "##霆": 4099,
      "##鋒": 4100,
      "##こ": 4101,
      "##と": 4102,
      "##が": 4103,
      "##で": 4104,
      "##き": 4105,
      "##な": 4106,
      "##둠": 4107,
      "##톰": 4108,
      "##뮬": 4109,
      "##끙": 4110,
      "##뜻": 4111,
      "##뿡": 4112,
      "##텍": 4113,
      "##챠": 4114,
      "##앟": 4115,
      "##랫": 4116,
      "##쥔": 4117,
      "##뮤": 4118,
      "##쾅": 4119,
      "##륨": 4120,
      "##¿": 4121,
      "##퀘": 4122,
      "##ㅐ": 4123,
      "##특": 4124,
      "##뮈": 4125,
      "##얍": 4126,
      "##삼": 4127,
      "##탤": 4128,
      "##헴": 4129,
      "##쉘": 4130,
      "##멍": 4131,
      "##냥": 4132,
      "##젬": 4133,
      "##셜": 4134,
      "##헝": 4135,
      "##쏙": 4136,
      "##넷": 4137,
      "##줌": 4138,
      "##끕": 4139,
      "##ㅕ": 4140,
      "##핍": 4141,
      "##팩": 4142,
      "##♡": 4143,
      "##팰": 4144,
      "##넉": 4145,
      "##쫭": 4146,
      "##맬": 4147,
      "##쩐": 4148,
      "##헠": 4149,
      "##벙": 4150,
      "##쑬": 4151,
      "##딨": 4152,
      "##칵": 4153,
      "##ㅗ": 4154,
      "##샹": 4155,
      "##힐": 4156,
      "##줔": 4157,
      "##릇": 4158,
      "##쓔": 4159,
      "##곽": 4160,
      "##슭": 4161,
      "##짢": 4162,
      "##늬": 4163,
      "##냑": 4164,
      "##햅": 4165,
      "##펑": 4166,
      "##텀": 4167,
      "##앓": 4168,
      "##山": 4169,
      "##렛": 4170,
      "##↓": 4171,
      "##ダ": 4172,
      "##맺": 4173,
      "##쥭": 4174,
      "##옷": 4175,
      "##칙": 4176,
      "##뺴": 4177,
      "##웩": 4178,
      "##맘": 4179,
      "##콕": 4180,
      "##찾": 4181,
      "##렴": 4182,
      "##멩": 4183,
      "##봐": 4184,
      "##줠": 4185,
      "##둡": 4186,
      "##갉": 4187,
      "##꺙": 4188,
      "##꾱": 4189,
      "##낑": 4190,
      "##랽": 4191,
      "##룕": 4192,
      "##윈": 4193,
      "##뤼": 4194,
      "##샛": 4195,
      "##感": 4196,
      "##씀": 4197,
      "##킥": 4198,
      "##쨍": 4199,
      "##엥": 4200,
      "##낙": 4201,
      "##퀀": 4202,
      "##궐": 4203,
      "##룻": 4204,
      "##썬": 4205,
      "##몀": 4206,
      "##젖": 4207,
      "##앳": 4208,
      "##엪": 4209,
      "##쯔": 4210,
      "##쵸": 4211,
      "##ㅍ": 4212,
      "##庭": 4213,
      "##話": 4214,
      "##쇠": 4215,
      "##짖": 4216,
      "##껭": 4217,
      "##릐": 4218,
      "##웡": 4219,
      "##옇": 4220,
      "##룹": 4221,
      "##삐": 4222,
      "##쎠": 4223,
      "##참": 4224,
      "##쿡": 4225,
      "##핱": 4226,
      "##チ": 4227,
      "##ョ": 4228,
      "##ッ": 4229,
      "##パ": 4230,
      "##リ": 4231,
      "##の": 4232,
      "##エ": 4233,
      "##ロ": 4234,
      "##섞": 4235,
      "##곧": 4236,
      "##캄": 4237,
      "##꺼": 4238,
      "##얄": 4239,
      "##값": 4240,
      "##밸": 4241,
      "##폄": 4242,
      "##믈": 4243,
      "##틐": 4244,
      "##죄": 4245,
      "##샨": 4246,
      "##웠": 4247,
      "##딸": 4248,
      "##댇": 4249,
      "##씬": 4250,
      "##샊": 4251,
      "##헬": 4252,
      "##솤": 4253,
      "##긍": 4254,
      "##렐": 4255,
      "##훼": 4256,
      "##츰": 4257,
      "##퀼": 4258,
      "##돔": 4259,
      "##슘": 4260,
      "##앜": 4261,
      "##묘": 4262,
      "##女": 4263,
      "##뵤": 4264,
      "##곳": 4265,
      "##댜": 4266,
      "##둘": 4267,
      "##샵": 4268,
      "##핸": 4269,
      "##같": 4270,
      "##쓉": 4271,
      "##샬": 4272,
      "##낄": 4273,
      "##탯": 4274,
      "##넨": 4275,
      "##큘": 4276,
      "##믹": 4277,
      "##퉁": 4278,
      "##웤": 4279,
      "##뤄": 4280,
      "##웟": 4281,
      "##꺄": 4282,
      "##눊": 4283,
      "##쟞": 4284,
      "##갠": 4285,
      "##잭": 4286,
      "##팥": 4287,
      "##삽": 4288,
      "##챦": 4289,
      "##뻤": 4290,
      "##헿": 4291,
      "##앞": 4292,
      "##륰": 4293,
      "##쏭": 4294,
      "##錢": 4295,
      "##無": 4296,
      "##罪": 4297,
      "##뉴": 4298,
      "##善": 4299,
      "##者": 4300,
      "##望": 4301,
      "##잖": 4302,
      "##뎈": 4303,
      "##숩": 4304,
      "##뿐": 4305,
      "##セ": 4306,
      "##ク": 4307,
      "##ス": 4308,
      "##튭": 4309,
      "##벹": 4310,
      "##귯": 4311,
      "##쑤": 4312,
      "##캌": 4313,
      "##슾": 4314,
      "##끝": 4315,
      "##촘": 4316,
      "##츨": 4317,
      "##쿼": 4318,
      "##킵": 4319,
      "##륄": 4320,
      "##苦": 4321,
      "##엇": 4322,
      "##큰": 4323,
      "##淇": 4324,
      "##웄": 4325,
      "##줏": 4326,
      "##쿤": 4327,
      "##쩨": 4328,
      "##욧": 4329,
      "##랗": 4330,
      "##子": 4331,
      "##융": 4332,
      "##밖": 4333,
      "##맠": 4334,
      "##층": 4335,
      "##텈": 4336,
      "##뻑": 4337,
      "##쉒": 4338,
      "##뉘": 4339,
      "##갔": 4340,
      "##컴": 4341,
      "##콧": 4342,
      "##！": 4343,
      "##흑": 4344,
      "##겸": 4345,
      "##맴": 4346,
      "##붓": 4347,
      "##앨": 4348,
      "##빰": 4349,
      "##뷔": 4350,
      "##햇": 4351,
      "##캇": 4352,
      "##꿍": 4353,
      "##껀": 4354,
      "##흌": 4355,
      "##펭": 4356,
      "##숨": 4357,
      "##짴": 4358,
      "##뎁": 4359,
      "##턱": 4360,
      "##꽝": 4361,
      "##슥": 4362,
      "##훤": 4363,
      "##햄": 4364,
      "##멀": 4365,
      "##ㄲ": 4366,
      "##뻘": 4367,
      "##쌘": 4368,
      "##헐": 4369,
      "##팻": 4370,
      "##웽": 4371,
      "##뼈": 4372,
      "##훗": 4373,
      "##뜬": 4374,
      "##듯": 4375,
      "##꽈": 4376,
      "##떵": 4377,
      "##샴": 4378,
      "##릣": 4379,
      "##엑": 4380,
      "##핡": 4381,
      "##덷": 4382,
      "##웍": 4383,
      "##휸": 4384,
      "##に": 4385,
      "##렵": 4386,
      "##듦": 4387,
      "##둑": 4388,
      "##뿔": 4389,
      "##쒜": 4390,
      "##펴": 4391,
      "##졍": 4392,
      "##딫": 4393,
      "##룬": 4394,
      "##싲": 4395,
      "##눅": 4396,
      "##섿": 4397,
      "##홧": 4398,
      "##릎": 4399,
      "##묻": 4400,
      "##맡": 4401,
      "##둬": 4402,
      "##탸": 4403,
      "##렄": 4404,
      "##똑": 4405,
      "##·": 4406,
      "##밉": 4407,
      "##쨱": 4408,
      "##끽": 4409,
      "##낌": 4410,
      "##넙": 4411,
      "##→": 4412,
      "##슐": 4413,
      "##●": 4414,
      "##慧": 4415,
      "##ᆞ": 4416,
      "##궤": 4417,
      "##白": 4418,
      "##뒈": 4419,
      "##벸": 4420,
      "##엡": 4421,
      "##듵": 4422,
      "##켕": 4423,
      "##훓": 4424,
      "##～": 4425,
      "##껍": 4426,
      "##삘": 4427,
      "##봣": 4428,
      "##렸": 4429,
      "##좁": 4430,
      "##딜": 4431,
      "##ㅚ": 4432,
      "##삤": 4433,
      "##뤰": 4434,
      "##ㅆ": 4435,
      "##道": 4436,
      "##많": 4437,
      "##쨋": 4438,
      "##눕": 4439,
      "##쟎": 4440,
      "##샐": 4441,
      "##둔": 4442,
      "##ㆍ": 4443,
      "##꿋": 4444,
      "##롷": 4445,
      "##⊙": 4446,
      "##최": 4447,
      "##줮": 4448,
      "##핛": 4449,
      "##쫒": 4450,
      "##삶": 4451,
      "##갹": 4452,
      "##샌": 4453,
      "##굵": 4454,
      "##샙": 4455,
      "##얗": 4456,
      "##랖": 4457,
      "##퐈": 4458,
      "##놔": 4459,
      "##殖": 4460,
      "##器": 4461,
      "##곸": 4462,
      "##쓸": 4463,
      "##팸": 4464,
      "##텅": 4465,
      "##곻": 4466,
      "##짭": 4467,
      "##멕": 4468,
      "##셰": 4469,
      "##썹": 4470,
      "##펌": 4471,
      "##小": 4472,
      "##棒": 4473,
      "##大": 4474,
      "##셥": 4475,
      "##즉": 4476,
      "##쨔": 4477,
      "##놑": 4478,
      "##밟": 4479,
      "##닼": 4480,
      "##풋": 4481,
      "##뭨": 4482,
      "##휏": 4483,
      "##ㅢ": 4484,
      "##葉": 4485,
      "##뭘": 4486,
      "##샘": 4487,
      "##딷": 4488,
      "##홨": 4489,
      "##옼": 4490,
      "##쟌": 4491,
      "##뗑": 4492,
      "##몇": 4493,
      "##퇄": 4494,
      "##色": 4495,
      "##臭": 4496,
      "##늗": 4497,
      "##었": 4498,
      "##쉅": 4499,
      "##힛": 4500,
      "##쌈": 4501,
      "##렝": 4502,
      "##귘": 4503,
      "##韓": 4504,
      "##派": 4505,
      "##켐": 4506,
      "##쫀": 4507,
      "##켜": 4508,
      "##툭": 4509,
      "##튀": 4510,
      "##땍": 4511,
      "##굼": 4512,
      "##싖": 4513,
      "##遠": 4514,
      "##猶": 4515,
      "##不": 4516,
      "##及": 4517,
      "##ㄻ": 4518,
      "##뤽": 4519,
      "##좀": 4520,
      "##넝": 4521,
      "##뼉": 4522,
      "##ㅛ": 4523,
      "##옌": 4524,
      "##훡": 4525,
      "##웹": 4526,
      "##떘": 4527,
      "##찮": 4528,
      "##멈": 4529,
      "##둗": 4530,
      "##も": 4531,
      "##か": 4532,
      "##っ": 4533,
      "##깍": 4534,
      "##쫓": 4535,
      "##뢈": 4536,
      "##맙": 4537,
      "##흉": 4538,
      "##핮": 4539,
      "##깥": 4540,
      "##엣": 4541,
      "##演": 4542,
      "##셤": 4543,
      "##常": 4544,
      "##好": 4545,
      "##看": 4546,
      "##숟": 4547,
      "##짚": 4548,
      "##첬": 4549,
      "##깽": 4550,
      "##켬": 4551,
      "##끾": 4552,
      "##캣": 4553,
      "##쫄": 4554,
      "##뵹": 4555,
      "##숲": 4556,
      "##큭": 4557,
      "##祖": 4558,
      "##딤": 4559,
      "##쩃": 4560,
      "##쏘": 4561,
      "##∀": 4562,
      "##≤": 4563,
      "##뿜": 4564,
      "##왜": 4565,
      "##껑": 4566,
      "##꿘": 4567,
      "##녹": 4568,
      "##뽑": 4569,
      "##숏": 4570,
      "##뎃": 4571,
      "##뜰": 4572,
      "##빢": 4573,
      "##귿": 4574,
      "##윅": 4575,
      "##憎": 4576,
      "##딛": 4577,
      "##앰": 4578,
      "##だ": 4579,
      "##よ": 4580,
      "##눌": 4581,
      "##늰": 4582,
      "##떙": 4583,
      "##믺": 4584,
      "##頭": 4585,
      "##蛇": 4586,
      "##尾": 4587,
      "##벳": 4588,
      "##믿": 4589,
      "##촐": 4590,
      "##늦": 4591,
      "##씌": 4592,
      "##緣": 4593,
      "##낰": 4594,
      "##볶": 4595,
      "##캠": 4596,
      "##쪙": 4597,
      "##ㅃ": 4598,
      "##갘": 4599,
      "##う": 4600,
      "##ら": 4601,
      "##탭": 4602,
      "##힌": 4603,
      "##귬": 4604,
      "##낫": 4605,
      "##뜸": 4606,
      "##쟘": 4607,
      "##컼": 4608,
      "##뭐": 4609,
      "##넛": 4610,
      "##톼": 4611,
      "##人": 4612,
      "##엌": 4613,
      "##쉿": 4614,
      "##뽈": 4615,
      "##앵": 4616,
      "##流": 4617,
      "##心": 4618,
      "##쎄": 4619,
      "##ん": 4620,
      "##멤": 4621,
      "##굽": 4622,
      "##흣": 4623,
      "##앉": 4624,
      "##맣": 4625,
      "##킄": 4626,
      "##덮": 4627,
      "##멧": 4628,
      "##쥴": 4629,
      "##앚": 4630,
      "##츔": 4631,
      "##쉡": 4632,
      "##봘": 4633,
      "##땀": 4634,
      "##곃": 4635,
      "##했": 4636,
      "##첫": 4637,
      "##뮨": 4638,
      "##돗": 4639,
      "##킴": 4640,
      "##췌": 4641,
      "##뺑": 4642,
      "##폿": 4643,
      "##끅": 4644,
      "##뻐": 4645,
      "##カ": 4646,
      "##ピ": 4647,
      "##밬": 4648,
      "##핦": 4649,
      "##뀨": 4650,
      "##좍": 4651,
      "##첸": 4652,
      "##왑": 4653,
      "##볕": 4654,
      "##귄": 4655,
      "##슉": 4656,
      "##뛰": 4657,
      "##덥": 4658,
      "##빤": 4659,
      "##듣": 4660,
      "##냄": 4661,
      "##꽁": 4662,
      "##븅": 4663,
      "##잣": 4664,
      "##헨": 4665,
      "##쎼": 4666,
      "##힘": 4667,
      "##밎": 4668,
      "##찜": 4669,
      "##홈": 4670,
      "##옄": 4671,
      "##닿": 4672,
      "##줍": 4673,
      "##썰": 4674,
      "##욤": 4675,
      "##슛": 4676,
      "##밫": 4677,
      "##뜷": 4678,
      "##챔": 4679,
      "##텁": 4680,
      "##쌕": 4681,
      "##졉": 4682,
      "##律": 4683,
      "##랐": 4684,
      "##헷": 4685,
      "##뗵": 4686,
      "##밈": 4687,
      "##긛": 4688,
      "##뒤": 4689,
      "##곅": 4690,
      "##웬": 4691,
      "##킌": 4692,
      "##틍": 4693,
      "##닭": 4694,
      "##師": 4695,
      "##は": 4696,
      "##셩": 4697,
      "##꽉": 4698,
      "##쯧": 4699,
      "##ㄺ": 4700,
      "##自": 4701,
      "##慰": 4702,
      "##늠": 4703,
      "##쭘": 4704,
      "##욌": 4705,
      "##몫": 4706,
      "##둣": 4707,
      "##쥰": 4708,
      "##싼": 4709,
      "##윕": 4710,
      "##춧": 4711,
      "##꾹": 4712,
      "##ㄸ": 4713,
      "##혖": 4714,
      "##귤": 4715,
      "##뭔": 4716,
      "##츤": 4717,
      "##띄": 4718,
      "##몸": 4719,
      "##옿": 4720,
      "##껬": 4721,
      "##봊": 4722,
      "##솢": 4723,
      "##뀌": 4724,
      "##퓰": 4725,
      "##껒": 4726,
      "##짬": 4727,
      "##콬": 4728,
      "##냅": 4729,
      "##쓹": 4730,
      "##핼": 4731,
      "##늣": 4732,
      "##냔": 4733,
      "##붐": 4734,
      "##뭣": 4735,
      "##졀": 4736,
      "##죨": 4737,
      "##핧": 4738,
      "##긱": 4739,
      "##뫀": 4740,
      "##쁨": 4741,
      "##ⅱ": 4742,
      "##ⅲ": 4743,
      "##흙": 4744,
      "##캬": 4745,
      "##췬": 4746,
      "##섺": 4747,
      "##눙": 4748,
      "##겝": 4749,
      "##싰": 4750,
      "##엎": 4751,
      "##욷": 4752,
      "##겡": 4753,
      "##숴": 4754,
      "##닮": 4755,
      "##맆": 4756,
      "##뮌": 4757,
      "##멐": 4758,
      "##짘": 4759,
      "##팟": 4760,
      "##잏": 4761,
      "##뚯": 4762,
      "##傑": 4763,
      "##侖": 4764,
      "##땋": 4765,
      "##듭": 4766,
      "##홐": 4767,
      "##볍": 4768,
      "##맀": 4769,
      "##힣": 4770,
      "##넸": 4771,
      "##룔": 4772,
      "##。": 4773,
      "##젝": 4774,
      "##씹": 4775,
      "##뿨": 4776,
      "##わ": 4777,
      "##셴": 4778,
      "##쫘": 4779,
      "##푀": 4780,
      "##ㄳ": 4781,
      "##イ": 4782,
      "##テ": 4783,
      "##졎": 4784,
      "##걑": 4785,
      "##ㅀ": 4786,
      "##챡": 4787,
      "##훨": 4788,
      "##張": 4789,
      "##쿰": 4790,
      "##얹": 4791,
      "##옂": 4792,
      "##갖": 4793,
      "##툿": 4794,
      "##띨": 4795,
      "##짇": 4796,
      "##씁": 4797,
      "##읮": 4798,
      "##녓": 4799,
      "##댸": 4800,
      "##훙": 4801,
      "##줗": 4802,
      "##뱉": 4803,
      "##릏": 4804,
      "##쑈": 4805,
      "##家": 4806,
      "##ㅑ": 4807,
      "##끓": 4808,
      "##헉": 4809,
      "##깁": 4810,
      "##♨": 4811,
      "##짠": 4812,
      "##엃": 4813,
      "##뽜": 4814,
      "##넖": 4815,
      "##ㅒ": 4816,
      "##랠": 4817,
      "##て": 4818,
      "##좃": 4819,
      "##냇": 4820,
      "##뎜": 4821,
      "##롁": 4822,
      "##겼": 4823,
      "##젋": 4824,
      "##럤": 4825,
      "##셍": 4826,
      "##캡": 4827,
      "##팁": 4828,
      "##첵": 4829,
      "##뱃": 4830,
      "##된": 4831,
      "##◑": 4832,
      "##샣": 4833,
      "##쭙": 4834,
      "##뱀": 4835,
      "##立": 4836,
      "##슝": 4837,
      "##앍": 4838,
      "##곘": 4839,
      "##ㄶ": 4840,
      "##냌": 4841,
      "##林": 4842,
      "##븟": 4843,
      "##됭": 4844,
      "##쏠": 4845,
      "##댬": 4846,
      "##꾜": 4847,
      "##좆": 4848,
      "##쑨": 4849,
      "##言": 4850,
      "##쾨": 4851,
      "##岡": 4852,
      "##蒼": 4853,
      "##佑": 4854,
      "##뎡": 4855,
      "##덛": 4856,
      "##手": 4857,
      "##콰": 4858,
      "##뻣": 4859,
      "##뤌": 4860,
      "##ゃ": 4861,
      "##텡": 4862,
      "##넴": 4863,
      "##맑": 4864,
      "##쏫": 4865,
      "##뱌": 4866,
      "##쀨": 4867,
      "##火": 4868,
      "##괜": 4869,
      "##럔": 4870,
      "##꾿": 4871,
      "##섁": 4872,
      "##本": 4873,
      "##映": 4874,
      "##녜": 4875,
      "##꼿": 4876,
      "##퐛": 4877,
      "##ⓞ": 4878,
      "##ⓛ": 4879,
      "##넜": 4880,
      "##믓": 4881,
      "##냬": 4882,
      "##붅": 4883,
      "##몃": 4884,
      "##멱": 4885,
      "##有": 4886,
      "##쬐": 4887,
      "##下": 4888,
      "##퍠": 4889,
      "##삥": 4890,
      "##봗": 4891,
      "##숍": 4892,
      "##랔": 4893,
      "##잦": 4894,
      "##벝": 4895,
      "##惡": 4896,
      "##덱": 4897,
      "##봏": 4898,
      "##짲": 4899,
      "##륺": 4900,
      "##샼": 4901,
      "##겠": 4902,
      "##婦": 4903,
      "##街": 4904,
      "##듸": 4905,
      "##좔": 4906,
      "##¨": 4907,
      "##紅": 4908,
      "##塵": 4909,
      "##즁": 4910,
      "##윘": 4911,
      "##깞": 4912,
      "##▷": 4913,
      "##◁": 4914,
      "##▽": 4915,
      "##△": 4916,
      "##■": 4917,
      "##□": 4918,
      "##롄": 4919,
      "##났": 4920,
      "##깄": 4921,
      "##휼": 4922,
      "##딬": 4923,
      "##걀": 4924,
      "##性": 4925,
      "##生": 4926,
      "##ㅄ": 4927,
      "##튿": 4928,
      "##랒": 4929,
      "##딍": 4930,
      "##꿎": 4931,
      "##る": 4932,
      "##り": 4933,
      "##엏": 4934,
      "##헑": 4935,
      "##앋": 4936,
      "##홋": 4937,
      "##툼": 4938,
      "##湖": 4939,
      "##잰": 4940,
      "##뷸": 4941,
      "##짤": 4942,
      "##푹": 4943,
      "##깉": 4944,
      "##핟": 4945,
      "##땁": 4946,
      "##力": 4947,
      "##튠": 4948,
      "##깅": 4949,
      "##좡": 4950,
      "##덟": 4951,
      "##水": 4952,
      "##떽": 4953,
      "##틋": 4954,
      "##켁": 4955,
      "##얏": 4956,
      "##썻": 4957,
      "##핯": 4958,
      "##꺾": 4959,
      "##놬": 4960,
      "##엋": 4961,
      "##쉴": 4962,
      "##濡": 4963,
      "##쒕": 4964,
      "##씪": 4965,
      "##異": 4966,
      "##찝": 4967,
      "##뺏": 4968,
      "##핥": 4969,
      "##킼": 4970,
      "##흫": 4971,
      "##훟": 4972,
      "##솝": 4973,
      "##캴": 4974,
      "##춰": 4975,
      "##죙": 4976,
      "##횤": 4977,
      "##썪": 4978,
      "##젛": 4979,
      "##줜": 4980,
      "##낯": 4981,
      "##옰": 4982,
      "##뗴": 4983,
      "##궄": 4984,
      "##쭐": 4985,
      "##얐": 4986,
      "##퐉": 4987,
      "##랃": 4988,
      "##봅": 4989,
      "##졐": 4990,
      "##잫": 4991,
      "##갗": 4992,
      "##굣": 4993,
      "##읻": 4994,
      "##∇": 4995,
      "##뫙": 4996,
      "##졷": 4997,
      "##탉": 4998,
      "##옛": 4999,
      "##的": 5000,
      "##꽄": 5001,
      "##닦": 5002,
      "##木": 5003,
      "##慶": 5004,
      "##一": 5005,
      "##쎤": 5006,
      "##릋": 5007,
      "##뽐": 5008,
      "##붆": 5009,
      "##젇": 5010,
      "##뱔": 5011,
      "##♩": 5012,
      "##☞": 5013,
      "##☜": 5014,
      "##ㅖ": 5015,
      "##뢍": 5016,
      "##낔": 5017,
      "##깤": 5018,
      "##홙": 5019,
      "##샥": 5020,
      "##名": 5021,
      "##뫃": 5022,
      "##킈": 5023,
      "##텨": 5024,
      "##휙": 5025,
      "##콮": 5026,
      "##몾": 5027,
      "##要": 5028,
      "##紙": 5029,
      "##봑": 5030,
      "##쏨": 5031,
      "##슫": 5032,
      "##컁": 5033,
      "##맂": 5034,
      "##륒": 5035,
      "##놕": 5036,
      "##ㅞ": 5037,
      "##氣": 5038,
      "##쮸": 5039,
      "##け": 5040,
      "##낮": 5041,
      "##画": 5042,
      "##꺠": 5043,
      "##害": 5044,
      "##益": 5045,
      "##였": 5046,
      "##튕": 5047,
      "##뫄": 5048,
      "##ひ": 5049,
      "##ぽ": 5050,
      "##ろ": 5051,
      "##붸": 5052,
      "##쉰": 5053,
      "##갛": 5054,
      "##삿": 5055,
      "##좝": 5056,
      "##畵": 5057,
      "##高": 5058,
      "##쬬": 5059,
      "##킁": 5060,
      "##궜": 5061,
      "##컾": 5062,
      "##典": 5063,
      "##뻥": 5064,
      "##땸": 5065,
      "##앸": 5066,
      "##÷": 5067,
      "##맖": 5068,
      "##렠": 5069,
      "##엾": 5070,
      "##찟": 5071,
      "##뿍": 5072,
      "##졔": 5073,
      "##녘": 5074,
      "##待": 5075,
      "##밐": 5076,
      "##릳": 5077,
      "##↑": 5078,
      "##촤": 5079,
      "##쑥": 5080,
      "##定": 5081,
      "##離": 5082,
      "##間": 5083,
      "##衛": 5084,
      "##챙": 5085,
      "##끠": 5086,
      "##헣": 5087,
      "##뢔": 5088,
      "##\\": 5089,
      "##덨": 5090,
      "##쥣": 5091,
      "##읅": 5092,
      "##됩": 5093,
      "##넓": 5094,
      "##왘": 5095,
      "##‥": 5096,
      "##궂": 5097,
      "##쎔": 5098,
      "##慄": 5099,
      "##쒯": 5100,
      "##末": 5101,
      "##싑": 5102,
      "##졓": 5103,
      "##탬": 5104,
      "##れ": 5105,
      "##つ": 5106,
      "##욯": 5107,
      "##꽤": 5108,
      "##롹": 5109,
      "##쳬": 5110,
      "##텉": 5111,
      "##슼": 5112,
      "##닻": 5113,
      "##팜": 5114,
      "##춋": 5115,
      "##훃": 5116,
      "##떤": 5117,
      "##츳": 5118,
      "##젆": 5119,
      "##칀": 5120,
      "##腸": 5121,
      "##⌒": 5122,
      "##味": 5123,
      "##땃": 5124,
      "##ね": 5125,
      "##뵛": 5126,
      "##쀼": 5127,
      "##횬": 5128,
      "##럈": 5129,
      "##홓": 5130,
      "##싄": 5131,
      "##읃": 5132,
      "##峰": 5133,
      "##졈": 5134,
      "##部": 5135,
      "##귓": 5136,
      "##닠": 5137,
      "##녔": 5138,
      "##춌": 5139,
      "##뇾": 5140,
      "##쪠": 5141,
      "##윰": 5142,
      "##닟": 5143,
      "##탗": 5144,
      "##솨": 5145,
      "##記": 5146,
      "##史": 5147,
      "##윳": 5148,
      "##늡": 5149,
      "##댁": 5150,
      "##뿟": 5151,
      "##쁩": 5152,
      "##컫": 5153,
      "##뇰": 5154,
      "##ミ": 5155,
      "##男": 5156,
      "##쳫": 5157,
      "##型": 5158,
      "##빱": 5159,
      "##낍": 5160,
      "##귱": 5161,
      "##乃": 5162,
      "##튬": 5163,
      "##왝": 5164,
      "##쳔": 5165,
      "##눔": 5166,
      "##뜍": 5167,
      "##듴": 5168,
      "##숱": 5169,
      "##렜": 5170,
      "##빔": 5171,
      "##볔": 5172,
      "##낀": 5173,
      "##헵": 5174,
      "##밑": 5175,
      "##＾": 5176,
      "##싫": 5177,
      "##컄": 5178,
      "##븡": 5179,
      "##냊": 5180,
      "##셧": 5181,
      "##쌉": 5182,
      "##빳": 5183,
      "##샅": 5184,
      "##쩝": 5185,
      "##ⁿ": 5186,
      "##싴": 5187,
      "##셕": 5188,
      "##田": 5189,
      "##彩": 5190,
      "##也": 5191,
      "##香": 5192,
      "##몹": 5193,
      "##讐": 5194,
      "##情": 5195,
      "##륫": 5196,
      "##쥼": 5197,
      "##낏": 5198,
      "##빽": 5199,
      "##밷": 5200,
      "##빋": 5201,
      "##法": 5202,
      "##켠": 5203,
      "##똠": 5204,
      "##뽯": 5205,
      "##갇": 5206,
      "##읶": 5207,
      "##얶": 5208,
      "##앖": 5209,
      "##ノ": 5210,
      "##ビ": 5211,
      "##車": 5212,
      "##日": 5213,
      "##쉥": 5214,
      "##꽥": 5215,
      "##퓽": 5216,
      "##面": 5217,
      "##歌": 5218,
      "##曲": 5219,
      "##都": 5220,
      "##멬": 5221,
      "##ㆀ": 5222,
      "##母": 5223,
      "##쩧": 5224,
      "##홪": 5225,
      "##꾀": 5226,
      "##쌤": 5227,
      "##밨": 5228,
      "##쨌": 5229,
      "##쉭": 5230,
      "##뤡": 5231,
      "##훔": 5232,
      "##닊": 5233,
      "##윔": 5234,
      "##잊": 5235,
      "##？": 5236,
      "##꼅": 5237,
      "##ト": 5238,
      "##춸": 5239,
      "##셨": 5240,
      "##쮜": 5241,
      "##を": 5242,
      "##흨": 5243,
      "##콸": 5244,
      "##뢀": 5245,
      "##飛": 5246,
      "##刀": 5247,
      "##쾡": 5248,
      "##툥": 5249,
      "##굉": 5250,
      "이다": 5251,
      "영화": 5252,
      "보다": 5253,
      "하다": 5254,
      "##니다": 5255,
      "##하다": 5256,
      "있다": 5257,
      "없다": 5258,
      "##ㅋㅋ": 5259,
      "어서": 5260,
      "##리다": 5261,
      "좋다": 5262,
      "너무": 5263,
      "재미": 5264,
      "ᆫ다": 5265,
      "는데": 5266,
      "주다": 5267,
      "어요": 5268,
      "되다": 5269,
      "정말": 5270,
      "으로": 5271,
      "##들다": 5272,
      "네요": 5273,
      "재밌": 5274,
      "재밌다": 5275,
      "같다": 5276,
      "연기": 5277,
      "진짜": 5278,
      "지만": 5279,
      "에서": 5280,
      "##오다": 5281,
      "않다": 5282,
      "만들다": 5283,
      "아니다": 5284,
      "##르다": 5285,
      "##지다": 5286,
      "나오다": 5287,
      "ᆸ니다": 5288,
      "최고": 5289,
      "##이다": 5290,
      "평점": 5291,
      "이거": 5292,
      "생각": 5293,
      "##나다": 5294,
      "이런": 5295,
      "##렇다": 5296,
      "나다": 5297,
      "습니다": 5298,
      "##토리": 5299,
      "스토리": 5300,
      "드라": 5301,
      "가다": 5302,
      "##깝다": 5303,
      "드라마": 5304,
      "##기다": 5305,
      "지다": 5306,
      "어도": 5307,
      "싶다": 5308,
      "사람": 5309,
      "배우": 5310,
      "감동": 5311,
      "##없다": 5312,
      "까지": 5313,
      "어야": 5314,
      "ㅋㅋㅋ": 5315,
      "##있다": 5316,
      "아깝다": 5317,
      "ᆫ데": 5318,
      "ᆫ가": 5319,
      "지루": 5320,
      "내용": 5321,
      "ㅋㅋ": 5322,
      "감독": 5323,
      "그냥": 5324,
      "10": 5325,
      "시간": 5326,
      "알다": 5327,
      "재미있다": 5328,
      "라고": 5329,
      "말다": 5330,
      "##치다": 5331,
      "ᆫ지": 5332,
      "##레기": 5333,
      "쓰레기": 5334,
      "사랑": 5335,
      "재미없다": 5336,
      "다시": 5337,
      "모르다": 5338,
      "으면": 5339,
      "이것": 5340,
      "면서": 5341,
      "보이다": 5342,
      "작품": 5343,
      "##ㅋㅋㅋㅋ": 5344,
      "ㅠㅠ": 5345,
      "그렇다": 5346,
      "하나": 5347,
      "##프다": 5348,
      "이렇다": 5349,
      "정도": 5350,
      "##지막": 5351,
      "액션": 5352,
      "마지막": 5353,
      "기대": 5354,
      "완전": 5355,
      "##끼다": 5356,
      "다가": 5357,
      "어라": 5358,
      "##가다": 5359,
      "이야": 5360,
      "다는": 5361,
      "라는": 5362,
      "##쁘다": 5363,
      "많다": 5364,
      "다고": 5365,
      "스럽": 5366,
      "처음": 5367,
      "느끼다": 5368,
      "장면": 5369,
      "들다": 5370,
      "에게": 5371,
      "지금": 5372,
      "##인공": 5373,
      "쓰다": 5374,
      "한국": 5375,
      "최악": 5376,
      "그리": 5377,
      "오다": 5378,
      "이야기": 5379,
      "별로": 5380,
      "느낌": 5381,
      "연출": 5382,
      "이해": 5383,
      "이상": 5384,
      "여자": 5385,
      "우리": 5386,
      "세요": 5387,
      "ㅎㅎ": 5388,
      "부터": 5389,
      "명작": 5390,
      "아이": 5391,
      "역시": 5392,
      "남다": 5393,
      "는지": 5394,
      "그리고": 5395,
      "많이": 5396,
      "기억": 5397,
      "좋아": 5398,
      "주인공": 5399,
      "##찮다": 5400,
      "ㅡㅡ": 5401,
      "좋아하다": 5402,
      "받다": 5403,
      "웃기다": 5404,
      "그래": 5405,
      "ᆯ까": 5406,
      "괜찮다": 5407,
      "버리다": 5408,
      "때문": 5409,
      "대하다": 5410,
      "이나": 5411,
      "아름": 5412,
      "공포": 5413,
      "##럽다": 5414,
      "마음": 5415,
      "현실": 5416,
      "##답다": 5417,
      "아름답다": 5418,
      "oo": 5419,
      "무슨": 5420,
      "내내": 5421,
      "인생": 5422,
      "내다": 5423,
      "유치": 5424,
      "죽다": 5425,
      "남자": 5426,
      "결말": 5427,
      "##쉽다": 5428,
      "일본": 5429,
      "아쉽다": 5430,
      "아무": 5431,
      "##어지다": 5432,
      "은데": 5433,
      "짜증": 5434,
      "전개": 5435,
      "##섭다": 5436,
      "무섭다": 5437,
      "소재": 5438,
      "어리다": 5439,
      "살다": 5440,
      "없이": 5441,
      "반전": 5442,
      "필요": 5443,
      "##대로": 5444,
      "놓다": 5445,
      "맞다": 5446,
      "수준": 5447,
      "이제": 5448,
      "##내다": 5449,
      "몰입": 5450,
      "을까": 5451,
      "눈물": 5452,
      "스릴": 5453,
      "음악": 5454,
      "가슴": 5455,
      "낮다": 5456,
      "##우다": 5457,
      "20": 5458,
      "인간": 5459,
      "매력": 5460,
      "슬프다": 5461,
      "가장": 5462,
      "멋지다": 5463,
      "치다": 5464,
      "애니": 5465,
      "높다": 5466,
      "못하다": 5467,
      "는다": 5468,
      "끝나다": 5469,
      "영상": 5470,
      "원작": 5471,
      "그런": 5472,
      "위하다": 5473,
      "극장": 5474,
      "##히다": 5475,
      "다니": 5476,
      "다른": 5477,
      "##미디": 5478,
      "솔직": 5479,
      "추천": 5480,
      "더라": 5481,
      "코미디": 5482,
      "울다": 5483,
      "어떻": 5484,
      "아직": 5485,
      "찍다": 5486,
      "모든": 5487,
      "실망": 5488,
      "자체": 5489,
      "누구": 5490,
      "억지": 5491,
      "어떻다": 5492,
      "처럼": 5493,
      "크다": 5494,
      "캐릭": 5495,
      "먹다": 5496,
      "##리즈": 5497,
      "개봉": 5498,
      "캐릭터": 5499,
      "빠지다": 5500,
      "모두": 5501,
      "솔직히": 5502,
      "다면": 5503,
      "아주": 5504,
      "##라다": 5505,
      "가족": 5506,
      "ㅋㅋㅋㅋ": 5507,
      "##추다": 5508,
      "여운": 5509,
      "엄청": 5510,
      "시키": 5511,
      "모습": 5512,
      "전혀": 5513,
      "낫다": 5514,
      "연기력": 5515,
      "이쁘다": 5516,
      "시리즈": 5517,
      "근데": 5518,
      "계속": 5519,
      "##엽다": 5520,
      "ㅜㅜ": 5521,
      "미치다": 5522,
      "공감": 5523,
      "긴장": 5524,
      "귀엽다": 5525,
      "표현": 5526,
      "재밋": 5527,
      "##ㅋㅋㅋㅋㅋㅋㅋㅋ": 5528,
      "##어나다": 5529,
      "어디": 5530,
      "웃다": 5531,
      "대사": 5532,
      "대단": 5533,
      "부분": 5534,
      "힘들다": 5535,
      "##스터": 5536,
      "밖에": 5537,
      "이랑": 5538,
      "제목": 5539,
      "려고": 5540,
      "그래도": 5541,
      "기분": 5542,
      "라도": 5543,
      "진심": 5544,
      "##ㅠㅠ": 5545,
      "ᆫ다는": 5546,
      "타임": 5547,
      "중간": 5548,
      "작가": 5549,
      "##러다": 5550,
      "다르다": 5551,
      "어이": 5552,
      "흥미": 5553,
      "##메이": 5554,
      "스릴러": 5555,
      "찾다": 5556,
      "잔잔": 5557,
      "##지만": 5558,
      "##수록": 5559,
      "친구": 5560,
      "조금": 5561,
      "요즘": 5562,
      "잇다": 5563,
      "한테": 5564,
      "막장": 5565,
      "##스트": 5566,
      "여주": 5567,
      "죽이다": 5568,
      "가지다": 5569,
      "알바": 5570,
      "이유": 5571,
      "긴장감": 5572,
      "제작": 5573,
      "구나": 5574,
      "떨어지다": 5575,
      "정신": 5576,
      "노래": 5577,
      "점수": 5578,
      "##겁다": 5579,
      "개인": 5580,
      "부족": 5581,
      "었었": 5582,
      "라면": 5583,
      "##보다": 5584,
      "믿다": 5585,
      "만큼": 5586,
      "시작": 5587,
      "에요": 5588,
      "특히": 5589,
      "시대": 5590,
      "오랜": 5591,
      "나라": 5592,
      "제대로": 5593,
      "의미": 5594,
      "나름": 5595,
      "##라리": 5596,
      "빼다": 5597,
      "예쁘다": 5598,
      "같이": 5599,
      "만화": 5600,
      "니까": 5601,
      "당시": 5602,
      "대박": 5603,
      "세상": 5604,
      "깊다": 5605,
      "차라리": 5606,
      "스타": 5607,
      "미국": 5608,
      "싫다": 5609,
      "던데": 5610,
      "오랜만": 5611,
      "출연": 5612,
      "##리오": 5613,
      "으나": 5614,
      "따뜻": 5615,
      "ᆫ다고": 5616,
      "감정": 5617,
      "하지만": 5618,
      "그것": 5619,
      "어설": 5620,
      "절대": 5621,
      "어설프다": 5622,
      "듣다": 5623,
      "훌륭": 5624,
      "어쩌": 5625,
      "##00": 5626,
      "로맨": 5627,
      "웃음": 5628,
      "마다": 5629,
      "전쟁": 5630,
      "cg": 5631,
      "답답": 5632,
      "너무나": 5633,
      "강추": 5634,
      "자다": 5635,
      "년대": 5636,
      "장난": 5637,
      "##롭다": 5638,
      "도대": 5639,
      "##리스": 5640,
      "시청": 5641,
      "##oo": 5642,
      "도대체": 5643,
      "무엇": 5644,
      "제일": 5645,
      "사다": 5646,
      "##시다": 5647,
      "소리": 5648,
      "얼마": 5649,
      "그저": 5650,
      "자신": 5651,
      "관객": 5652,
      "설정": 5653,
      "신선": 5654,
      "어야지": 5655,
      "행복": 5656,
      "언제": 5657,
      "초반": 5658,
      "##st": 5659,
      "사실": 5660,
      "tv": 5661,
      "허접": 5662,
      "어쩌다": 5663,
      "배경": 5664,
      "엔딩": 5665,
      "다큐": 5666,
      "시나": 5667,
      "나쁘다": 5668,
      "수작": 5669,
      "문제": 5670,
      "시나리오": 5671,
      "더럽다": 5672,
      "지나다": 5673,
      "아프다": 5674,
      "##스팅": 5675,
      "어색": 5676,
      "오늘": 5677,
      "소름": 5678,
      "##겹다": 5679,
      "분위": 5680,
      "라니": 5681,
      "나가다": 5682,
      "추억": 5683,
      "ooo": 5684,
      "분위기": 5685,
      "시절": 5686,
      "프로": 5687,
      "캐스팅": 5688,
      "역사": 5689,
      "킬링": 5690,
      "##거리": 5691,
      "결국": 5692,
      "뻔하다": 5693,
      "인상": 5694,
      "더니": 5695,
      "엄마": 5696,
      "끄다": 5697,
      "구성": 5698,
      "ᆯ수록": 5699,
      "넘다": 5700,
      "졸작": 5701,
      "함께": 5702,
      "안타": 5703,
      "제발": 5704,
      "영화관": 5705,
      "완벽": 5706,
      "여기": 5707,
      "주연": 5708,
      "그만": 5709,
      "남기다": 5710,
      "##아가다": 5711,
      "##메이션": 5712,
      "안타깝다": 5713,
      "ᆫ다면": 5714,
      "멋있다": 5715,
      "어떤": 5716,
      "잡다": 5717,
      "아무리": 5718,
      "포스터": 5719,
      "후회": 5720,
      "잊다": 5721,
      "예술": 5722,
      "코믹": 5723,
      "생각나다": 5724,
      "더빙": 5725,
      "애니메이션": 5726,
      "유쾌": 5727,
      "진부": 5728,
      "어이없다": 5729,
      "얼마나": 5730,
      "얘기": 5731,
      "오래": 5732,
      "진정": 5733,
      "으니": 5734,
      "망하다": 5735,
      "방송": 5736,
      "##디오": 5737,
      "개연": 5738,
      "##렵다": 5739,
      "주제": 5740,
      "길다": 5741,
      "나요": 5742,
      "생기다": 5743,
      "살리다": 5744,
      "이리": 5745,
      "이름": 5746,
      "평가": 5747,
      "##소리": 5748,
      "동안": 5749,
      "충격": 5750,
      "나이": 5751,
      "어울": 5752,
      "ㅉㅉ": 5753,
      "머리": 5754,
      "어울리다": 5755,
      "드리다": 5756,
      "옛날": 5757,
      "##배우": 5758,
      "만나다": 5759,
      "쩔다": 5760,
      "여러": 5761,
      "얼굴": 5762,
      "궁금": 5763,
      "후반": 5764,
      "불쌍": 5765,
      "##려고": 5766,
      "낭비": 5767,
      "라서": 5768,
      "아니": 5769,
      "어느": 5770,
      "이후": 5771,
      "그나": 5772,
      "잔인": 5773,
      "들어": 5774,
      "읽다": 5775,
      "충분": 5776,
      "장르": 5777,
      "중국": 5778,
      "집중": 5779,
      "매우": 5780,
      "새롭다": 5781,
      "즐겁다": 5782,
      "순수": 5783,
      "상황": 5784,
      "어렵다": 5785,
      "인물": 5786,
      "다음": 5787,
      "티비": 5788,
      "그래서": 5789,
      "기다": 5790,
      "비디오": 5791,
      "세계": 5792,
      "터지다": 5793,
      "ost": 5794,
      "짜리": 5795,
      "비슷": 5796,
      "ㅎㅎㅎ": 5797,
      "여주인공": 5798,
      "##루다": 5799,
      "시즌": 5800,
      "자기": 5801,
      "대체": 5802,
      "상상": 5803,
      "##버지": 5804,
      "##이버": 5805,
      "##당히": 5806,
      "19": 5807,
      "존나": 5808,
      "걸작": 5809,
      "낚이다": 5810,
      "감사": 5811,
      "사회": 5812,
      "엉성": 5813,
      "예전": 5814,
      "구만": 5815,
      "약간": 5816,
      "그나마": 5817,
      "참다": 5818,
      "길래": 5819,
      "그러": 5820,
      "로맨스": 5821,
      "돌리다": 5822,
      "ᆯ지": 5823,
      "심하다": 5824,
      "실화": 5825,
      "그리다": 5826,
      "##꾸다": 5827,
      "소설": 5828,
      "그대로": 5829,
      "##없이": 5830,
      "훨씬": 5831,
      "ㅋㅋㅋㅋㅋ": 5832,
      "끌다": 5833,
      "영상미": 5834,
      "##아보다": 5835,
      "전체": 5836,
      "그러다": 5837,
      "##키다": 5838,
      "만점": 5839,
      "비교": 5840,
      "30": 5841,
      "##나라": 5842,
      "초딩": 5843,
      "##레이": 5844,
      "바라다": 5845,
      "##타지": 5846,
      "기에": 5847,
      "비하다": 5848,
      "네이버": 5849,
      "굉장": 5850,
      "단순": 5851,
      "감성": 5852,
      "아들": 5853,
      "혼자": 5854,
      "바로": 5855,
      "이미": 5856,
      "따르다": 5857,
      "##주다": 5858,
      "이하": 5859,
      "ㄷㄷ": 5860,
      "여배우": 5861,
      "100": 5862,
      "넘치다": 5863,
      "떠나다": 5864,
      "평론": 5865,
      "가치": 5866,
      "순간": 5867,
      "올리다": 5868,
      "##자기": 5869,
      "간만": 5870,
      "으면서": 5871,
      "등장": 5872,
      "망치다": 5873,
      "##먹다": 5874,
      "그거": 5875,
      "거리다": 5876,
      "화려": 5877,
      "빨리": 5878,
      "다운": 5879,
      "간만에": 5880,
      "당신": 5881,
      "성룡": 5882,
      "는가": 5883,
      "##ood": 5884,
      "가능": 5885,
      "두다": 5886,
      "ᆫ가요": 5887,
      "마이": 5888,
      "삼류": 5889,
      "목소리": 5890,
      "사이": 5891,
      "케이": 5892,
      "멜로": 5893,
      "존재": 5894,
      "개그": 5895,
      "자연": 5896,
      "판타지": 5897,
      "기다리다": 5898,
      "대다": 5899,
      "돋다": 5900,
      "교훈": 5901,
      "##니까": 5902,
      "놀라다": 5903,
      "##라이": 5904,
      "ᆯ려고": 5905,
      "쉽다": 5906,
      "엄청나다": 5907,
      "허무": 5908,
      "뜨다": 5909,
      "하고": 5910,
      "##등학": 5911,
      "이러다": 5912,
      "당하다": 5913,
      "평론가": 5914,
      "good": 5915,
      "별점": 5916,
      "잘못": 5917,
      "질질": 5918,
      "몰입도": 5919,
      "전부": 5920,
      "독특": 5921,
      "잖아": 5922,
      "각본": 5923,
      "스타일": 5924,
      "어른": 5925,
      "90": 5926,
      "관람": 5927,
      "살인": 5928,
      "상영": 5929,
      "##연히": 5930,
      "가볍": 5931,
      "거의": 5932,
      "상당히": 5933,
      "##er": 5934,
      "가볍다": 5935,
      "아버지": 5936,
      "넣다": 5937,
      "똑같": 5938,
      "에로": 5939,
      "##머니": 5940,
      "려는": 5941,
      "실제": 5942,
      "줄거리": 5943,
      "이번": 5944,
      "대로": 5945,
      "맞추다": 5946,
      "군요": 5947,
      "저런": 5948,
      "201": 5949,
      "sf": 5950,
      "부르다": 5951,
      "좀비": 5952,
      "예상": 5953,
      "ㅋㅋㅋㅋㅋㅋㅋㅋㅋㅋㅋ": 5954,
      "굉장히": 5955,
      "성우": 5956,
      "200": 5957,
      "##이팅": 5958,
      "복수": 5959,
      "바꾸다": 5960,
      "##보이다": 5961,
      "갑자기": 5962,
      "의도": 5963,
      "화면": 5964,
      "ㅋㅋㅋㅋㅋㅋㅋ": 5965,
      "타다": 5966,
      "그러나": 5967,
      "지나": 5968,
      "보내다": 5969,
      "요소": 5970,
      "##♥♥": 5971,
      "##끄럽다": 5972,
      "중요": 5973,
      "그녀": 5974,
      "달다": 5975,
      "아빠": 5976,
      "##랍다": 5977,
      "놀랍다": 5978,
      "확실": 5979,
      "갖다": 5980,
      "년도": 5981,
      "더욱": 5982,
      "항상": 5983,
      "노잼": 5984,
      "가지": 5985,
      "거나": 5986,
      "선택": 5987,
      "만족": 5988,
      "조차": 5989,
      "굳다": 5990,
      "지루하다": 5991,
      "프랑": 5992,
      "예고": 5993,
      "흥행": 5994,
      "관계": 5995,
      "불편": 5996,
      "댓글": 5997,
      "탄탄": 5998,
      "거기": 5999,
      "일단": 6000,
      "진행": 6001,
      "평범": 6002,
      "대단하다": 6003,
      "예요": 6004,
      "##주의": 6005,
      "크리스": 6006,
      "통하다": 6007,
      "잃다": 6008,
      "던가": 6009,
      "즐기다": 6010,
      "흐르다": 6011,
      "완성": 6012,
      "범죄": 6013,
      "는구": 6014,
      "##라지다": 6015,
      "##마디": 6016,
      "점점": 6017,
      "편집": 6018,
      "들어가다": 6019,
      "프랑스": 6020,
      "역대": 6021,
      "한마디": 6022,
      "ㅠㅠㅠ": 6023,
      "리얼": 6024,
      "한심": 6025,
      "충분히": 6026,
      "걸리다": 6027,
      "네여": 6028,
      "80": 6029,
      "물론": 6030,
      "사건": 6031,
      "##저히": 6032,
      "야하다": 6033,
      "##군요": 6034,
      "로서": 6035,
      "그림": 6036,
      "원래": 6037,
      "카메": 6038,
      "학교": 6039,
      "배우다": 6040,
      "귀신": 6041,
      "까다": 6042,
      "돋보이다": 6043,
      "짧다": 6044,
      "우리나라": 6045,
      "##ㅠㅠㅠㅠ": 6046,
      "자꾸": 6047,
      "감상": 6048,
      "##립다": 6049,
      "똑같다": 6050,
      "식상": 6051,
      "엉망": 6052,
      "전형": 6053,
      "알리다": 6054,
      "게임": 6055,
      "결혼": 6056,
      "화이팅": 6057,
      "따위": 6058,
      "심리": 6059,
      "뛰어나다": 6060,
      "미안": 6061,
      "속다": 6062,
      "도록": 6063,
      "코메": 6064,
      "지겹다": 6065,
      "별루": 6066,
      "이란": 6067,
      "홍콩": 6068,
      "어린": 6069,
      "영웅": 6070,
      "훈훈": 6071,
      "코메디": 6072,
      "자극": 6073,
      "으며": 6074,
      "바보": 6075,
      "헐리": 6076,
      "##리티": 6077,
      "그닥": 6078,
      "##우드": 6079,
      "구요": 6080,
      "황당": 6081,
      "대한": 6082,
      "그래픽": 6083,
      "싸우다": 6084,
      "또한": 6085,
      "으시": 6086,
      "풀다": 6087,
      "##무리": 6088,
      "표정": 6089,
      "천재": 6090,
      "취향": 6091,
      "연출력": 6092,
      "불륜": 6093,
      "노력": 6094,
      "##세지": 6095,
      "진지": 6096,
      "연기자": 6097,
      "후반부": 6098,
      "짓다": 6099,
      "##노잼": 6100,
      "12": 6101,
      "##민국": 6102,
      "예고편": 6103,
      "과거": 6104,
      "앗다": 6105,
      "치고": 6106,
      "괜히": 6107,
      "그때": 6108,
      "먹먹": 6109,
      "설명": 6110,
      "여전": 6111,
      "##라가다": 6112,
      "경찰": 6113,
      "다루다": 6114,
      "담다": 6115,
      "새끼": 6116,
      "질리다": 6117,
      "능력": 6118,
      "참신": 6119,
      "독립": 6120,
      "동화": 6121,
      "진실": 6122,
      "대한민국": 6123,
      "그립다": 6124,
      "대작": 6125,
      "라이": 6126,
      "멍청": 6127,
      "역겹다": 6128,
      "도저히": 6129,
      "소중": 6130,
      "다만": 6131,
      "바람": 6132,
      "예산": 6133,
      "조연": 6134,
      "효과": 6135,
      "##다가": 6136,
      "고자": 6137,
      "마무리": 6138,
      "멀다": 6139,
      "전달": 6140,
      "짜다": 6141,
      "th": 6142,
      "오히": 6143,
      "죽음": 6144,
      "오히려": 6145,
      "관심": 6146,
      "어여": 6147,
      "저렇다": 6148,
      "##저씨": 6149,
      "로맨틱": 6150,
      "유머": 6151,
      "전문": 6152,
      "여성": 6153,
      "는구나": 6154,
      "분명": 6155,
      "아저씨": 6156,
      "특유": 6157,
      "때리다": 6158,
      "전설": 6159,
      "촬영": 6160,
      "소녀": 6161,
      "희망": 6162,
      "우연히": 6163,
      "저질": 6164,
      "최근": 6165,
      "억지로": 6166,
      "ᆸ니까": 6167,
      "노출": 6168,
      "잊히다": 6169,
      "무비": 6170,
      "신기": 6171,
      "전기": 6172,
      "갈수록": 6173,
      "은지": 6174,
      "중반": 6175,
      "비추다": 6176,
      "내리다": 6177,
      "환상": 6178,
      "유명": 6179,
      "적당": 6180,
      "무어": 6181,
      "약하다": 6182,
      "미화": 6183,
      "15": 6184,
      "부모": 6185,
      "오빠": 6186,
      "메세지": 6187,
      "전편": 6188,
      "흘리다": 6189,
      "##bs": 6190,
      "다행": 6191,
      "##서다": 6192,
      "##in": 6193,
      "ᆸ시다": 6194,
      "영원": 6195,
      "우울": 6196,
      "##닫다": 6197,
      "행동": 6198,
      "강하다": 6199,
      "돌아가다": 6200,
      "현재": 6201,
      "완성도": 6202,
      "먼저": 6203,
      "아마": 6204,
      "##오르다": 6205,
      "서로": 6206,
      "성장": 6207,
      "끼치다": 6208,
      "##그램": 6209,
      "묘사": 6210,
      "청춘": 6211,
      "프로그램": 6212,
      "구하다": 6213,
      "##렇게": 6214,
      "거리": 6215,
      "레이": 6216,
      "리메이": 6217,
      "무조": 6218,
      "설레": 6219,
      "인정": 6220,
      "##아오다": 6221,
      "실패": 6222,
      "일어나다": 6223,
      "ㅇㅇ": 6224,
      "무조건": 6225,
      "다니다": 6226,
      "마저": 6227,
      "리메이크": 6228,
      "끼다": 6229,
      "전작": 6230,
      "초등학": 6231,
      "##파이": 6232,
      "##진진": 6233,
      "가득": 6234,
      "흥미진진": 6235,
      "사라지다": 6236,
      "허술": 6237,
      "짱짱": 6238,
      "차이": 6239,
      "해피": 6240,
      "##하나": 6241,
      "랄까": 6242,
      "자유": 6243,
      "졸리다": 6244,
      "철학": 6245,
      "스케": 6246,
      "역할": 6247,
      "하하": 6248,
      "그런데": 6249,
      "나중": 6250,
      "졸다": 6251,
      "##생기다": 6252,
      "문화": 6253,
      "빠르다": 6254,
      "왠지": 6255,
      "카메라": 6256,
      "성공": 6257,
      "속편": 6258,
      "미래": 6259,
      "채널": 6260,
      "러브": 6261,
      "##터리": 6262,
      "아무것": 6263,
      "제작비": 6264,
      "과정": 6265,
      "병맛": 6266,
      "가끔": 6267,
      "마치": 6268,
      "선생": 6269,
      "착하다": 6270,
      "깊이": 6271,
      "흔하다": 6272,
      "깨닫다": 6273,
      "ᆯ라": 6274,
      "성인": 6275,
      "적다": 6276,
      "##너무": 6277,
      "더군요": 6278,
      "범인": 6279,
      "어찌": 6280,
      "나머": 6281,
      "드럽다": 6282,
      "박수": 6283,
      "정치": 6284,
      "##뀌다": 6285,
      "지나치다": 6286,
      "나머지": 6287,
      "ㅅㅂ": 6288,
      "스다": 6289,
      "찾아보다": 6290,
      "하나하나": 6291,
      "거지": 6292,
      "사극": 6293,
      "외국": 6294,
      "케이블": 6295,
      "어린이": 6296,
      "살아가다": 6297,
      "싸이": 6298,
      "미소": 6299,
      "태어나다": 6300,
      "##다르다": 6301,
      "너무너무": 6302,
      "군대": 6303,
      "바뀌다": 6304,
      "서다": 6305,
      "호러": 6306,
      "젊다": 6307,
      "차다": 6308,
      "하루": 6309,
      "##구요": 6310,
      "산만": 6311,
      "이연": 6312,
      "스케일": 6313,
      "날리다": 6314,
      "위대": 6315,
      "##시지": 6316,
      "심심": 6317,
      "아오": 6318,
      "생애": 6319,
      "연애": 6320,
      "싸다": 6321,
      "상상력": 6322,
      "모자": 6323,
      "사기": 6324,
      "평생": 6325,
      "폭력": 6326,
      "피해": 6327,
      "##디어": 6328,
      "고생": 6329,
      "제작진": 6330,
      "다소": 6331,
      "##리아": 6332,
      "##ㅜㅜ": 6333,
      "늙다": 6334,
      "묻다": 6335,
      "##ㄷㄷ": 6336,
      "확실히": 6337,
      "메시지": 6338,
      "쏘다": 6339,
      "이렇게": 6340,
      "종교": 6341,
      "끝내다": 6342,
      "대충": 6343,
      "시원": 6344,
      "일상": 6345,
      "광고": 6346,
      "굳이": 6347,
      "리뷰": 6348,
      "##영화": 6349,
      "감탄": 6350,
      "고민": 6351,
      "놀다": 6352,
      "닿다": 6353,
      "스트": 6354,
      "##레스": 6355,
      "괴물": 6356,
      "동생": 6357,
      "울리다": 6358,
      "전기세": 6359,
      "달리다": 6360,
      "작다": 6361,
      "미스": 6362,
      "시사": 6363,
      "빨다": 6364,
      "의외": 6365,
      "##vd": 6366,
      "dvd": 6367,
      "깨다": 6368,
      "동물": 6369,
      "마디": 6370,
      "언니": 6371,
      "포장": 6372,
      "##or": 6373,
      "##래다": 6374,
      "결론": 6375,
      "고맙": 6376,
      "막히다": 6377,
      "아침": 6378,
      "인기": 6379,
      "뜬금": 6380,
      "불가": 6381,
      "블랙": 6382,
      "손발": 6383,
      "얻다": 6384,
      "유일": 6385,
      "자막": 6386,
      "지키다": 6387,
      "던지다": 6388,
      "뮤지": 6389,
      "의리": 6390,
      "한계": 6391,
      "고맙다": 6392,
      "연예": 6393,
      "틀다": 6394,
      "11": 6395,
      "무협": 6396,
      "조폭": 6397,
      "졸라": 6398,
      "커플": 6399,
      "넘어": 6400,
      "발견": 6401,
      "오락": 6402,
      "과연": 6403,
      "인하다": 6404,
      "대부": 6405,
      "슈퍼": 6406,
      "##심히": 6407,
      "여전히": 6408,
      "싸이코": 6409,
      "글쎄": 6410,
      "살짝": 6411,
      "여행": 6412,
      "홍보": 6413,
      "##재밋": 6414,
      "##성애": 6415,
      "기본": 6416,
      "이따": 6417,
      "흐름": 6418,
      "떠오르다": 6419,
      "국민": 6420,
      "니깐": 6421,
      "벗다": 6422,
      "빌리다": 6423,
      "상처": 6424,
      "오글": 6425,
      "현대": 6426,
      "##어내다": 6427,
      "##거리다": 6428,
      "40": 6429,
      "##그라": 6430,
      "끼리": 6431,
      "용서": 6432,
      "을지": 6433,
      "정서": 6434,
      "특별": 6435,
      "ㅠㅠㅠㅠ": 6436,
      "섹시": 6437,
      "시청자": 6438,
      "결과": 6439,
      "몸매": 6440,
      "변하다": 6441,
      "스포": 6442,
      "시도": 6443,
      "개판": 6444,
      "덕분": 6445,
      "무지": 6446,
      "섹스": 6447,
      "뮤지컬": 6448,
      "분노": 6449,
      "시선": 6450,
      "챙기다": 6451,
      "늘다": 6452,
      "에휴": 6453,
      "자식": 6454,
      "##러지다": 6455,
      "그럭": 6456,
      "나타": 6457,
      "반성": 6458,
      "표절": 6459,
      "##니아": 6460,
      "겁나": 6461,
      "아쉬": 6462,
      "자는": 6463,
      "퀄리티": 6464,
      "##저럭": 6465,
      "무시": 6466,
      "열심히": 6467,
      "우정": 6468,
      "이기다": 6469,
      "##소년": 6470,
      "정말로": 6471,
      "그럭저럭": 6472,
      "거짓": 6473,
      "무겁다": 6474,
      "코드": 6475,
      "힐링": 6476,
      "깔끔": 6477,
      "남편": 6478,
      "눈빛": 6479,
      "포기": 6480,
      "##물다": 6481,
      "고전": 6482,
      "듯이": 6483,
      "소장": 6484,
      "하이": 6485,
      "흘러": 6486,
      "##라스": 6487,
      "더라도": 6488,
      "the": 6489,
      "공부": 6490,
      "오버": 6491,
      "후속": 6492,
      "남녀": 6493,
      "방식": 6494,
      "비극": 6495,
      "##ㅎㅎ": 6496,
      "아련": 6497,
      "전하다": 6498,
      "조절": 6499,
      "테러": 6500,
      "혹시": 6501,
      "##돌다": 6502,
      "다큐멘": 6503,
      "이어지다": 6504,
      "게이": 6505,
      "던지": 6506,
      "데리다": 6507,
      "##시아": 6508,
      "시키다": 6509,
      "아쉬움": 6510,
      "압권": 6511,
      "전투": 6512,
      "지구": 6513,
      "난해": 6514,
      "북한": 6515,
      "그다": 6516,
      "어제": 6517,
      "어둡": 6518,
      "에이": 6519,
      "통쾌": 6520,
      "어둡다": 6521,
      "으로서": 6522,
      "따다": 6523,
      "막판": 6524,
      "오그라": 6525,
      "원하다": 6526,
      "의심": 6527,
      "펑펑": 6528,
      "##ou": 6529,
      "##래기": 6530,
      "##와르": 6531,
      "다이": 6532,
      "슬픔": 6533,
      "##즈니": 6534,
      "##엔딩": 6535,
      "그지": 6536,
      "느라": 6537,
      "담기다": 6538,
      "데이": 6539,
      "불쾌": 6540,
      "희생": 6541,
      "##잡다": 6542,
      "##an": 6543,
      "ᆯ까요": 6544,
      "메이": 6545,
      "색다르다": 6546,
      "18": 6547,
      "냐고": 6548,
      "욕하다": 6549,
      "이연걸": 6550,
      "감명": 6551,
      "뛰어": 6552,
      "생활": 6553,
      "세기": 6554,
      "신경": 6555,
      "심각": 6556,
      "악당": 6557,
      "인터": 6558,
      "적절": 6559,
      "##주얼": 6560,
      "##ㅋㅋㅋㅋㅋㅋㅋㅋㅋㅋㅋㅋㅋㅋㅋㅋ": 6561,
      "설레다": 6562,
      "70": 6563,
      "기술": 6564,
      "되게": 6565,
      "부끄럽다": 6566,
      "여서": 6567,
      "재난": 6568,
      "채우다": 6569,
      "형편": 6570,
      "쉬다": 6571,
      "싸움": 6572,
      "씁쓸": 6573,
      "##구려": 6574,
      "게다가": 6575,
      "니콜": 6576,
      "벌써": 6577,
      "실력": 6578,
      "악역": 6579,
      "암튼": 6580,
      "우주": 6581,
      "조잡": 6582,
      "청소년": 6583,
      "##집다": 6584,
      "다큐멘터리": 6585,
      "느리다": 6586,
      "새벽": 6587,
      "연결": 6588,
      "입장": 6589,
      "투자": 6590,
      "##어로": 6591,
      "기억나다": 6592,
      "디즈니": 6593,
      "스티": 6594,
      "열정": 6595,
      "더라구요": 6596,
      "누나": 6597,
      "로써": 6598,
      "스크": 6599,
      "일부": 6600,
      "장애": 6601,
      "연예인": 6602,
      "50": 6603,
      "발전": 6604,
      "불구": 6605,
      "쓸데": 6606,
      "##마스": 6607,
      "볼거리": 6608,
      "의문": 6609,
      "그다지": 6610,
      "느와르": 6611,
      "러닝": 6612,
      "반복": 6613,
      "비주얼": 6614,
      "빛나다": 6615,
      "오랫": 6616,
      "왜케": 6617,
      "그럼": 6618,
      "닮다": 6619,
      "아줌": 6620,
      "올해": 6621,
      "이루다": 6622,
      "00": 6623,
      "무리": 6624,
      "시각": 6625,
      "외계": 6626,
      "♥♥♥": 6627,
      "놓치다": 6628,
      "떼다": 6629,
      "싸구려": 6630,
      "중학": 6631,
      "지르다": 6632,
      "##너스": 6633,
      "한국인": 6634,
      "출연진": 6635,
      "언제나": 6636,
      "대표": 6637,
      "지우다": 6638,
      "이제야": 6639,
      "전문가": 6640,
      "아줌마": 6641,
      "강렬": 6642,
      "소소": 6643,
      "풋풋": 6644,
      "김기": 6645,
      "끝내": 6646,
      "베스트": 6647,
      "일반": 6648,
      "자리": 6649,
      "##중간": 6650,
      "##갑다": 6651,
      "들어오다": 6652,
      "오그라들다": 6653,
      "방금": 6654,
      "어머니": 6655,
      "연속": 6656,
      "히어로": 6657,
      "##사랑": 6658,
      "헐리우드": 6659,
      "시사회": 6660,
      "당하": 6661,
      "##아내다": 6662,
      "##이크": 6663,
      "들이다": 6664,
      "미드": 6665,
      "자고": 6666,
      "해석": 6667,
      "##이터": 6668,
      "##소드": 6669,
      "검색": 6670,
      "특수": 6671,
      "##인트": 6672,
      "늦다": 6673,
      "맨날": 6674,
      "입다": 6675,
      "해피엔딩": 6676,
      "낳다": 6677,
      "드러": 6678,
      "로그": 6679,
      "아기": 6680,
      "주변": 6681,
      "##놓다": 6682,
      "ㅋㅋㅋㅋㅋㅋ": 6683,
      "과장": 6684,
      "벌다": 6685,
      "설마": 6686,
      "섬세": 6687,
      "에피": 6688,
      "외모": 6689,
      "존경": 6690,
      "지요": 6691,
      "##차다": 6692,
      "구리다": 6693,
      "본인": 6694,
      "죄다": 6695,
      "타이": 6696,
      "필름": 6697,
      "##스로": 6698,
      "13": 6699,
      "고통": 6700,
      "라인": 6701,
      "뭉클": 6702,
      "방법": 6703,
      "시트": 6704,
      "쓰래기": 6705,
      "어휴": 6706,
      "학년": 6707,
      "아이돌": 6708,
      "흘러가다": 6709,
      "가깝다": 6710,
      "관하다": 6711,
      "단지": 6712,
      "상업": 6713,
      "시걸": 6714,
      "시시": 6715,
      "##불다": 6716,
      "##ad": 6717,
      "이미지": 6718,
      "겨울": 6719,
      "반하다": 6720,
      "싫어": 6721,
      "애기": 6722,
      "인도": 6723,
      "##이스": 6724,
      "##구니": 6725,
      "로그인": 6726,
      "싫어하다": 6727,
      "갈등": 6728,
      "아역": 6729,
      "짝퉁": 6730,
      "최소": 6731,
      "학생": 6732,
      "##on": 6733,
      "##나오다": 6734,
      "탄탄하다": 6735,
      "형편없다": 6736,
      "시트콤": 6737,
      "경험": 6738,
      "제로": 6739,
      "짠하다": 6740,
      "해리": 6741,
      "허세": 6742,
      "등장인": 6743,
      "먹먹하다": 6744,
      "극치": 6745,
      "단연": 6746,
      "비판": 6747,
      "심장": 6748,
      "최강": 6749,
      "재미나다": 6750,
      "실제로": 6751,
      "등장인물": 6752,
      "국가": 6753,
      "밋밋": 6754,
      "전반": 6755,
      "쵝오": 6756,
      "##라보다": 6757,
      "##동안": 6758,
      "딱히": 6759,
      "때우다": 6760,
      "로봇": 6761,
      "양심": 6762,
      "영어": 6763,
      "주말": 6764,
      "##독교": 6765,
      "김기덕": 6766,
      "국내": 6767,
      "돌아오다": 6768,
      "려면": 6769,
      "명품": 6770,
      "스스로": 6771,
      "유발": 6772,
      "캐리": 6773,
      "코난": 6774,
      "다가오다": 6775,
      "에피소드": 6776,
      "고등학": 6777,
      "교육": 6778,
      "복잡": 6779,
      "세월": 6780,
      "찝찝": 6781,
      "팔다": 6782,
      "형사": 6783,
      "##들이다": 6784,
      "##ar": 6785,
      "##at": 6786,
      "##자단": 6787,
      "##려오다": 6788,
      "##드다": 6789,
      "##가락": 6790,
      "피해자": 6791,
      "다양": 6792,
      "민망": 6793,
      "아류": 6794,
      "진리": 6795,
      "견자단": 6796,
      "대화": 6797,
      "아픔": 6798,
      "으려": 6799,
      "이끌": 6800,
      "조합": 6801,
      "be": 6802,
      "더불다": 6803,
      "열다": 6804,
      "이기": 6805,
      "조선": 6806,
      "##양이": 6807,
      "대학": 6808,
      "뽑다": 6809,
      "자살": 6810,
      "더라면": 6811,
      "개념": 6812,
      "기독교": 6813,
      "로버": 6814,
      "만드다": 6815,
      "비다": 6816,
      "생생": 6817,
      "숨기다": 6818,
      "어우": 6819,
      "오바": 6820,
      "은근": 6821,
      "이용": 6822,
      "조작": 6823,
      "##가지": 6824,
      "##ㅋㅋㅋ": 6825,
      "199": 6826,
      "개성": 6827,
      "깜짝": 6828,
      "맡다": 6829,
      "어처": 6830,
      "##이션": 6831,
      "으니까": 6832,
      "마이클": 6833,
      "외계인": 6834,
      "사진": 6835,
      "영국": 6836,
      "제이": 6837,
      "조용": 6838,
      "치밀": 6839,
      "편견": 6840,
      "##르노": 6841,
      "돌다": 6842,
      "명성": 6843,
      "무척": 6844,
      "부럽다": 6845,
      "와우": 6846,
      "한참": 6847,
      "헐리웃": 6848,
      "어처구니": 6849,
      "기자": 6850,
      "바라보다": 6851,
      "할머니": 6852,
      "##요일": 6853,
      "##슬리다": 6854,
      "으로써": 6855,
      "모자라다": 6856,
      "007": 6857,
      "가수": 6858,
      "거슬리다": 6859,
      "대중": 6860,
      "인내": 6861,
      "직접": 6862,
      "풍경": 6863,
      "##타인": 6864,
      "상관": 6865,
      "스파이": 6866,
      "신파": 6867,
      "##말로": 6868,
      "의외로": 6869,
      "걸다": 6870,
      "고양이": 6871,
      "따라가다": 6872,
      "미모": 6873,
      "올라가다": 6874,
      "우와": 6875,
      "책임": 6876,
      "##로우": 6877,
      "##뜨리다": 6878,
      "개뿔": 6879,
      "레알": 6880,
      "영혼": 6881,
      "움직": 6882,
      "응원": 6883,
      "특이": 6884,
      "뜬금없다": 6885,
      "뛰다": 6886,
      "마리": 6887,
      "명화": 6888,
      "##쓰다": 6889,
      "마이너스": 6890,
      "초등학생": 6891,
      "ᆯ게": 6892,
      "꼽다": 6893,
      "따지다": 6894,
      "오르다": 6895,
      "정상": 6896,
      "후하다": 6897,
      "##ie": 6898,
      "##리스마": 6899,
      "##ov": 6900,
      "♥♥": 6901,
      "도전": 6902,
      "변화": 6903,
      "##스럽다": 6904,
      "##라도": 6905,
      "##운드": 6906,
      "##ing": 6907,
      "하하하": 6908,
      "이끌다": 6909,
      "ᆯ께": 6910,
      "정의": 6911,
      "카리스마": 6912,
      "포르노": 6913,
      "한번": 6914,
      "##으다": 6915,
      "대부분": 6916,
      "붙이다": 6917,
      "악마": 6918,
      "##ll": 6919,
      "스크린": 6920,
      "는군": 6921,
      "달달": 6922,
      "따로": 6923,
      "어다": 6924,
      "용기": 6925,
      "최대": 6926,
      "프다": 6927,
      "##으로": 6928,
      "극장판": 6929,
      "넘기다": 6930,
      "사고": 6931,
      "센스": 6932,
      "자면": 6933,
      "주성": 6934,
      "##전드": 6935,
      "완전히": 6936,
      "주성치": 6937,
      "21": 6938,
      "고르다": 6939,
      "기준": 6940,
      "박진": 6941,
      "보고": 6942,
      "성격": 6943,
      "아내": 6944,
      "의식": 6945,
      "접하다": 6946,
      "14": 6947,
      "가정": 6948,
      "대본": 6949,
      "레전드": 6950,
      "블록": 6951,
      "아동": 6952,
      "여름": 6953,
      "풀어내다": 6954,
      "##루스": 6955,
      "ㅉㅉㅉ": 6956,
      "강력": 6957,
      "잠깐": 6958,
      "겨우": 6959,
      "관점": 6960,
      "동시": 6961,
      "비밀": 6962,
      "사상": 6963,
      "이민": 6964,
      "조화": 6965,
      "포인트": 6966,
      "##두다": 6967,
      "##아이": 6968,
      "정신병": 6969,
      "크리스마스": 6970,
      "드물다": 6971,
      "등등": 6972,
      "변태": 6973,
      "어지": 6974,
      "운명": 6975,
      "이입": 6976,
      "##트맨": 6977,
      "##테일": 6978,
      "스트레스": 6979,
      "기회": 6980,
      "낚시": 6981,
      "야동": 6982,
      "욕망": 6983,
      "의하다": 6984,
      "이정": 6985,
      "잠들다": 6986,
      "참으로": 6987,
      "ᆯ래": 6988,
      "방영": 6989,
      "벗어나다": 6990,
      "부부": 6991,
      "잘생기다": 6992,
      "정체": 6993,
      "형제": 6994,
      "##지원": 6995,
      "끝내주다": 6996,
      "사수": 6997,
      "야구": 6998,
      "유지": 6999,
      "자주": 7000,
      "젠장": 7001,
      "짜임": 7002,
      "ᆯ려": 7003,
      "고서": 7004,
      "과하다": 7005,
      "김수": 7006,
      "내면": 7007,
      "모으다": 7008,
      "수고": 7009,
      "여태": 7010,
      "예능": 7011,
      "하늘": 7012,
      "##가리": 7013,
      "ㅠㅜ": 7014,
      "멈추다": 7015,
      "믿기다": 7016,
      "색감": 7017,
      "서부": 7018,
      "아예": 7019,
      "흉내": 7020,
      "##리언": 7021,
      "나타나다": 7022,
      "감각": 7023,
      "김민": 7024,
      "당연": 7025,
      "선물": 7026,
      "썩다": 7027,
      "이만": 7028,
      "패러": 7029,
      "결정": 7030,
      "돌아보다": 7031,
      "몰다": 7032,
      "못생기다": 7033,
      "무술": 7034,
      "보통": 7035,
      "부리다": 7036,
      "빵점": 7037,
      "어쩜": 7038,
      "웬만": 7039,
      "이소": 7040,
      "일품": 7041,
      "해결": 7042,
      "확인": 7043,
      "흑인": 7044,
      "재밋다": 7045,
      "감히": 7046,
      "건지다": 7047,
      "냄새": 7048,
      "매니아": 7049,
      "신비": 7050,
      "아래": 7051,
      "진하다": 7052,
      "피다": 7053,
      "호감": 7054,
      "##아먹다": 7055,
      "갖추다": 7056,
      "기발": 7057,
      "디테일": 7058,
      "몇몇": 7059,
      "모양": 7060,
      "차별": 7061,
      "##om": 7062,
      "2014": 7063,
      "공짜": 7064,
      "동성애": 7065,
      "바다": 7066,
      "배역": 7067,
      "상태": 7068,
      "설득": 7069,
      "숨다": 7070,
      "인디": 7071,
      "탄생": 7072,
      "##버그": 7073,
      "근래": 7074,
      "낮추다": 7075,
      "세련": 7076,
      "시점": 7077,
      "신고": 7078,
      "심지": 7079,
      "클레": 7080,
      "키우다": 7081,
      "풍자": 7082,
      "##아버지": 7083,
      "##성기": 7084,
      "영원히": 7085,
      "거짓말": 7086,
      "과학": 7087,
      "빈약": 7088,
      "소년": 7089,
      "안다": 7090,
      "중독": 7091,
      "편하다": 7092,
      "##장면": 7093,
      "##0000": 7094,
      "달달하다": 7095,
      "감흥": 7096,
      "개막": 7097,
      "관련": 7098,
      "단어": 7099,
      "미스터": 7100,
      "반대": 7101,
      "보세": 7102,
      "승리": 7103,
      "심오": 7104,
      "오로": 7105,
      "최초": 7106,
      "공포물": 7107,
      "훌륭하다": 7108,
      "초등학교": 7109,
      "넘어가다": 7110,
      "패러디": 7111,
      "런닝": 7112,
      "매일": 7113,
      "아아": 7114,
      "제시": 7115,
      "차리다": 7116,
      "화끈": 7117,
      "##이트": 7118,
      "##려가다": 7119,
      "중간중간": 7120,
      "꼬마": 7121,
      "왜곡": 7122,
      "케릭": 7123,
      "##대다": 7124,
      "ㄷㄷㄷ": 7125,
      "움직이다": 7126,
      "기법": 7127,
      "둘째": 7128,
      "베드": 7129,
      "연인": 7130,
      "요리": 7131,
      "크레": 7132,
      "할리": 7133,
      "##임스": 7134,
      "##버리다": 7135,
      "##맞다": 7136,
      "ᆯ라고": 7137,
      "다섯": 7138,
      "단편": 7139,
      "도망": 7140,
      "목적": 7141,
      "봐주다": 7142,
      "브루스": 7143,
      "비행": 7144,
      "스페": 7145,
      "전율": 7146,
      "조니": 7147,
      "##누다": 7148,
      "##ㅇㅇ": 7149,
      "##넘다": 7150,
      "여러분": 7151,
      "지나가다": 7152,
      "오랫만": 7153,
      "ebs": 7154,
      "깎다": 7155,
      "작위": 7156,
      "정보": 7157,
      "캐다": 7158,
      "##러스": 7159,
      "##스타": 7160,
      "망작": 7161,
      "모험": 7162,
      "바래다": 7163,
      "부탁": 7164,
      "사투": 7165,
      "오브": 7166,
      "추리": 7167,
      "충실": 7168,
      "틀리다": 7169,
      "##같이": 7170,
      "는다고": 7171,
      "뛰어넘다": 7172,
      "감안": 7173,
      "계시다": 7174,
      "애쓰다": 7175,
      "잔뜩": 7176,
      "##우성": 7177,
      "##으키다": 7178,
      "라이언": 7179,
      "심지어": 7180,
      "to": 7181,
      "상실": 7182,
      "제임스": 7183,
      "찌질": 7184,
      "탈출": 7185,
      "no": 7186,
      "밝히다": 7187,
      "빵빵": 7188,
      "앉다": 7189,
      "잔혹": 7190,
      "최민": 7191,
      "폐지": 7192,
      "향하다": 7193,
      "##서야": 7194,
      "##bb": 7195,
      "따뜻하다": 7196,
      "크레딧": 7197,
      "you": 7198,
      "결코": 7199,
      "사운드": 7200,
      "상대": 7201,
      "손가락": 7202,
      "울컥": 7203,
      "##en": 7204,
      "##es": 7205,
      "##bc": 7206,
      "60": 7207,
      "거부": 7208,
      "살아": 7209,
      "생명": 7210,
      "선동": 7211,
      "스텝": 7212,
      "집착": 7213,
      "할아버지": 7214,
      "##버스터": 7215,
      "##팩트": 7216,
      "짜임새": 7217,
      "느니": 7218,
      "시기": 7219,
      "연극": 7220,
      "유아": 7221,
      "저것": 7222,
      "##연기": 7223,
      "가리다": 7224,
      "겪다": 7225,
      "꿈꾸다": 7226,
      "라기": 7227,
      "목숨": 7228,
      "바이": 7229,
      "부실": 7230,
      "시끄럽다": 7231,
      "예수": 7232,
      "욕심": 7233,
      "우려": 7234,
      "키스": 7235,
      "##포터": 7236,
      "##ㅠㅠㅠㅠㅠㅠㅠㅠ": 7237,
      "거북": 7238,
      "무료": 7239,
      "열연": 7240,
      "제외": 7241,
      "파괴": 7242,
      "한숨": 7243,
      "##ut": 7244,
      "##지르다": 7245,
      "##토록": 7246,
      "하나같이": 7247,
      "깍다": 7248,
      "난리": 7249,
      "담배": 7250,
      "드림": 7251,
      "모이다": 7252,
      "무한": 7253,
      "종영": 7254,
      "파워": 7255,
      "화장": 7256,
      "##어리": 7257,
      "##99": 7258,
      "을까요": 7259,
      "신선하다": 7260,
      "22": 7261,
      "끔찍": 7262,
      "파다": 7263,
      "##덕화": 7264,
      "아무런": 7265,
      "이제서야": 7266,
      "그만큼": 7267,
      "ㅎㅎㅎㅎ": 7268,
      "후속작": 7269,
      "대신": 7270,
      "들리다": 7271,
      "따라": 7272,
      "묘하다": 7273,
      "업다": 7274,
      "장국": 7275,
      "정작": 7276,
      "헤어지다": 7277,
      "아이디어": 7278,
      "스티븐": 7279,
      "공간": 7280,
      "다크": 7281,
      "동네": 7282,
      "만남": 7283,
      "버전": 7284,
      "빌다": 7285,
      "수입": 7286,
      "참고": 7287,
      "혹은": 7288,
      "힘내다": 7289,
      "##멘타인": 7290,
      "##000": 7291,
      "상영관": 7292,
      "흥미진진하다": 7293,
      "블록버스터": 7294,
      "44": 7295,
      "나누다": 7296,
      "재능": 7297,
      "제니": 7298,
      "첫사랑": 7299,
      "터미": 7300,
      "편안": 7301,
      "##리카": 7302,
      "##거지": 7303,
      "##웨이": 7304,
      "비슷하다": 7305,
      "개막장": 7306,
      "건만": 7307,
      "수많": 7308,
      "인형": 7309,
      "조카": 7310,
      "짜집다": 7311,
      "##디다": 7312,
      "##상수": 7313,
      "답답하다": 7314,
      "장국영": 7315,
      "수많다": 7316,
      "꾸다": 7317,
      "당연히": 7318,
      "독일": 7319,
      "음식": 7320,
      "자동": 7321,
      "정확": 7322,
      "지경": 7323,
      "화나다": 7324,
      "##로드": 7325,
      "클레멘타인": 7326,
      "가르": 7327,
      "걱정": 7328,
      "대놓": 7329,
      "심형": 7330,
      "이때": 7331,
      "적당히": 7332,
      "케빈": 7333,
      "패스": 7334,
      "핵노잼": 7335,
      "##싸다": 7336,
      "ㅋㅋㅋㅋㅋㅋㅋㅋ": 7337,
      "##파이어": 7338,
      "로버트": 7339,
      "대놓고": 7340,
      "거든": 7341,
      "끌리다": 7342,
      "따름": 7343,
      "러시아": 7344,
      "으려고": 7345,
      "임팩트": 7346,
      "자랑": 7347,
      "자세": 7348,
      "##통령": 7349,
      "##티브": 7350,
      "일본인": 7351,
      "궁금하다": 7352,
      "ᆯ게요": 7353,
      "터미네": 7354,
      "대통령": 7355,
      "려다": 7356,
      "만약": 7357,
      "여친": 7358,
      "요새": 7359,
      "위로": 7360,
      "의사": 7361,
      "이성": 7362,
      "일깨": 7363,
      "추격": 7364,
      "플롯": 7365,
      "##어도": 7366,
      "##퓨터": 7367,
      "터미네이터": 7368,
      "일깨우다": 7369,
      "끼우다": 7370,
      "실수": 7371,
      "우뢰": 7372,
      "이병": 7373,
      "사투리": 7374,
      "심형래": 7375,
      "공주": 7376,
      "교과": 7377,
      "늑대": 7378,
      "따듯": 7379,
      "떨다": 7380,
      "마냥": 7381,
      "묻히다": 7382,
      "바탕": 7383,
      "배신": 7384,
      "삭제": 7385,
      "우연": 7386,
      "자본": 7387,
      "적어도": 7388,
      "절정": 7389,
      "컴퓨터": 7390,
      "폭풍": 7391,
      "프리": 7392,
      "##라고": 7393,
      "##티즌": 7394,
      "##ver": 7395,
      "영화제": 7396,
      "현실감": 7397,
      "제이슨": 7398,
      "교과서": 7399,
      "닥치다": 7400,
      "뱀파이어": 7401,
      "여인": 7402,
      "익숙": 7403,
      "잠시": 7404,
      "중심": 7405,
      "축구": 7406,
      "하품": 7407,
      "환경": 7408,
      "##무지": 7409,
      "##바이": 7410,
      "##둥이": 7411,
      "##레이션": 7412,
      "이소룡": 7413,
      "설득력": 7414,
      "동양": 7415,
      "발상": 7416,
      "배트맨": 7417,
      "신세": 7418,
      "착각": 7419,
      "찬란": 7420,
      "참나": 7421,
      "##다니다": 7422,
      "##야말로": 7423,
      "일부러": 7424,
      "중학교": 7425,
      "ᆯ로": 7426,
      "그야말로": 7427,
      "도시": 7428,
      "상어": 7429,
      "실험": 7430,
      "영향": 7431,
      "위험": 7432,
      "이전": 7433,
      "주의": 7434,
      "지치다": 7435,
      "폭발": 7436,
      "프레": 7437,
      "호기": 7438,
      "##re": 7439,
      "##워하다": 7440,
      "단순히": 7441,
      "인터넷": 7442,
      "mbc": 7443,
      "of": 7444,
      "내일": 7445,
      "따분": 7446,
      "로코": 7447,
      "명장면": 7448,
      "반갑다": 7449,
      "앞뒤": 7450,
      "애매": 7451,
      "유덕화": 7452,
      "으리": 7453,
      "판단": 7454,
      "호구": 7455,
      "##아지다": 7456,
      "##it": 7457,
      "해리포터": 7458,
      "논리": 7459,
      "는군요": 7460,
      "담아내다": 7461,
      "대결": 7462,
      "도움": 7463,
      "뜨겁다": 7464,
      "밝다": 7465,
      "애국": 7466,
      "오리": 7467,
      "오프": 7468,
      "의지": 7469,
      "컨셉": 7470,
      "살인마": 7471,
      "건강": 7472,
      "계기": 7473,
      "김치": 7474,
      "김혜": 7475,
      "꼬다": 7476,
      "나무": 7477,
      "돼지": 7478,
      "망가": 7479,
      "무너": 7480,
      "무대": 7481,
      "배급": 7482,
      "베끼다": 7483,
      "서울": 7484,
      "아우": 7485,
      "외롭다": 7486,
      "클래": 7487,
      "##치노": 7488,
      "##피스": 7489,
      "##od": 7490,
      "드러나다": 7491,
      "인내심": 7492,
      "제니퍼": 7493,
      "드래": 7494,
      "디워": 7495,
      "부자": 7496,
      "사무": 7497,
      "세대": 7498,
      "손색": 7499,
      "언젠": 7500,
      "이루": 7501,
      "추다": 7502,
      "##우스": 7503,
      "##미다": 7504,
      "메이드": 7505,
      "고등학교": 7506,
      "언젠가": 7507,
      "걷다": 7508,
      "난잡": 7509,
      "다리": 7510,
      "달리": 7511,
      "동심": 7512,
      "조아": 7513,
      "준비": 7514,
      "평균": 7515,
      "##스키": 7516,
      "나이트": 7517,
      "어우러지다": 7518,
      "25": 7519,
      "군인": 7520,
      "긴박": 7521,
      "네티즌": 7522,
      "단체": 7523,
      "당황": 7524,
      "로빈": 7525,
      "분량": 7526,
      "붙다": 7527,
      "선정": 7528,
      "애초": 7529,
      "올드": 7530,
      "위원": 7531,
      "주윤": 7532,
      "패다": 7533,
      "##부터": 7534,
      "##드라": 7535,
      "##루즈": 7536,
      "##강호": 7537,
      "스포츠": 7538,
      "혹시나": 7539,
      "쓸데없이": 7540,
      "주윤발": 7541,
      "kbs": 7542,
      "거장": 7543,
      "달콤": 7544,
      "떨어": 7545,
      "리즈": 7546,
      "미녀": 7547,
      "반드": 7548,
      "발음": 7549,
      "부담": 7550,
      "아끼다": 7551,
      "유럽": 7552,
      "은가": 7553,
      "##is": 7554,
      "##들리다": 7555,
      "##중훈": 7556,
      "##창정": 7557,
      "##갱이": 7558,
      "##oooo": 7559,
      "리얼리티": 7560,
      "박진감": 7561,
      "반드시": 7562,
      "남성": 7563,
      "노답": 7564,
      "등록": 7565,
      "루즈": 7566,
      "말투": 7567,
      "박중훈": 7568,
      "베이": 7569,
      "서양": 7570,
      "세여": 7571,
      "양아": 7572,
      "와이": 7573,
      "처절": 7574,
      "천국": 7575,
      "피아": 7576,
      "혐오": 7577,
      "홍상수": 7578,
      "희대": 7579,
      "##대사": 7580,
      "##zz": 7581,
      "##나이": 7582,
      "아무튼": 7583,
      "2000": 7584,
      "사이코": 7585,
      "소소하다": 7586,
      "호기심": 7587,
      "갈리다": 7588,
      "든지": 7589,
      "아나": 7590,
      "엑스": 7591,
      "임창정": 7592,
      "저거": 7593,
      "저급": 7594,
      "진수": 7595,
      "하정": 7596,
      "허허": 7597,
      "##영상": 7598,
      "##드리": 7599,
      "##세포": 7600,
      "장난치다": 7601,
      "장애인": 7602,
      "16": 7603,
      "bad": 7604,
      "데뷔": 7605,
      "도무지": 7606,
      "명배우": 7607,
      "민폐": 7608,
      "분장": 7609,
      "빨갱이": 7610,
      "수면": 7611,
      "어거지": 7612,
      "인류": 7613,
      "잡히다": 7614,
      "저러다": 7615,
      "정부": 7616,
      "트다": 7617,
      "파치노": 7618,
      "하지원": 7619,
      "는데요": 7620,
      "스타뎀": 7621,
      "우뢰매": 7622,
      "양아치": 7623,
      "하정우": 7624,
      "각색": 7625,
      "구조": 7626,
      "극복": 7627,
      "동영상": 7628,
      "마약": 7629,
      "무게": 7630,
      "뭥미": 7631,
      "아놀": 7632,
      "압도": 7633,
      "이준": 7634,
      "##올리다": 7635,
      "자동차": 7636,
      "ㅎㄷㄷ": 7637,
      "게스트": 7638,
      "나레이션": 7639,
      "높이다": 7640,
      "부정": 7641,
      "블루": 7642,
      "비중": 7643,
      "이토록": 7644,
      "차원": 7645,
      "취하다": 7646,
      "파이": 7647,
      "포스": 7648,
      "하여": 7649,
      "잖아요": 7650,
      "드래곤": 7651,
      "아놀드": 7652,
      "극단": 7653,
      "기존": 7654,
      "늘어지다": 7655,
      "막다": 7656,
      "사용": 7657,
      "세다": 7658,
      "유행": 7659,
      "출신": 7660,
      "토하다": 7661,
      "평화": 7662,
      "##애니": 7663,
      "##유리": 7664,
      "##받다": 7665,
      "진짜로": 7666,
      "개그맨": 7667,
      "정신병자": 7668,
      "re": 7669,
      "고뇌": 7670,
      "기적": 7671,
      "김희": 7672,
      "도둑": 7673,
      "드디어": 7674,
      "바닥": 7675,
      "베리": 7676,
      "실감": 7677,
      "원조": 7678,
      "찌다": 7679,
      "##오글": 7680,
      "##랜드": 7681,
      "ㅋㅋㅋㅋㅋㅋㅋㅋㅋ": 7682,
      "쓸데없다": 7683,
      "최소한": 7684,
      "강간": 7685,
      "기타": 7686,
      "는대": 7687,
      "단점": 7688,
      "무난": 7689,
      "소피": 7690,
      "일으키다": 7691,
      "전화": 7692,
      "테이": 7693,
      "하도": 7694,
      "##그럽다": 7695,
      "##맹이": 7696,
      "범죄자": 7697,
      "할리우드": 7698,
      "이병헌": 7699,
      "고인": 7700,
      "김정": 7701,
      "몽환": 7702,
      "무식": 7703,
      "반지": 7704,
      "섞다": 7705,
      "알아보다": 7706,
      "에라": 7707,
      "인종": 7708,
      "졸업": 7709,
      "##만다": 7710,
      "##되다": 7711,
      "우려먹다": 7712,
      "17": 7713,
      "oc": 7714,
      "거품": 7715,
      "격투": 7716,
      "김지": 7717,
      "꺼지다": 7718,
      "나루": 7719,
      "낭만": 7720,
      "넘넘": 7721,
      "반담": 7722,
      "소화": 7723,
      "월드": 7724,
      "이수": 7725,
      "존스": 7726,
      "죄송": 7727,
      "탁월": 7728,
      "흑백": 7729,
      "흡입": 7730,
      "##보이": 7731,
      "##as": 7732,
      "는다는": 7733,
      "만화책": 7734,
      "베드신": 7735,
      "경우": 7736,
      "괴다": 7737,
      "깡패": 7738,
      "담담": 7739,
      "담백": 7740,
      "류승": 7741,
      "명대사": 7742,
      "버티": 7743,
      "부인": 7744,
      "선수": 7745,
      "애절": 7746,
      "장진": 7747,
      "저리": 7748,
      "절망": 7749,
      "정우성": 7750,
      "짜릿": 7751,
      "평소": 7752,
      "풀리다": 7753,
      "##라노": 7754,
      "어쩌면": 7755,
      "ㅋㅋㅋㅋㅋㅋㅋㅋㅋㅋㅋㅋㅋㅋㅋ": 7756,
      "오프닝": 7757,
      "공연": 7758,
      "공룡": 7759,
      "과대": 7760,
      "권력": 7761,
      "놀래다": 7762,
      "말씀": 7763,
      "부작": 7764,
      "송강호": 7765,
      "스피": 7766,
      "습니까": 7767,
      "의상": 7768,
      "이서": 7769,
      "쟁이": 7770,
      "줄리": 7771,
      "쥐다": 7772,
      "치유": 7773,
      "튀다": 7774,
      "향수": 7775,
      "은근히": 7776,
      "ocn": 7777,
      "개콘": 7778,
      "기획": 7779,
      "남아": 7780,
      "도데": 7781,
      "두근": 7782,
      "명복": 7783,
      "발랄": 7784,
      "소개": 7785,
      "순위": 7786,
      "신나다": 7787,
      "쏟다": 7788,
      "연습": 7789,
      "영구": 7790,
      "이여": 7791,
      "장점": 7792,
      "중년": 7793,
      "첩보": 7794,
      "파리": 7795,
      "##ow": 7796,
      "##수다": 7797,
      "##ck": 7798,
      "무너지다": 7799,
      "배급사": 7800,
      "이루어지다": 7801,
      "mov": 7802,
      "거대": 7803,
      "겉멋": 7804,
      "고어": 7805,
      "깨알": 7806,
      "라스트": 7807,
      "매기다": 7808,
      "시종": 7809,
      "아리다": 7810,
      "역량": 7811,
      "정당": 7812,
      "##al": 7813,
      "넘어서다": 7814,
      "제시카": 7815,
      "화장실": 7816,
      "망가지다": 7817,
      "도데체": 7818,
      "글자": 7819,
      "김태": 7820,
      "끊기다": 7821,
      "늘리다": 7822,
      "달라지다": 7823,
      "매미": 7824,
      "민족": 7825,
      "불안": 7826,
      "상당": 7827,
      "아담": 7828,
      "오우": 7829,
      "우선": 7830,
      "이동": 7831,
      "자르다": 7832,
      "지리": 7833,
      "키드": 7834,
      "황정": 7835,
      "회사": 7836,
      "##어스": 7837,
      "##레인": 7838,
      "##동원": 7839,
      "##승우": 7840,
      "##숭이": 7841,
      "2012": 7842,
      "오글오글": 7843,
      "버티다": 7844,
      "♡♡": 7845,
      "ㅜㅠ": 7846,
      "고문": 7847,
      "공중": 7848,
      "끊다": 7849,
      "놀이": 7850,
      "누르다": 7851,
      "말아먹다": 7852,
      "밀려오다": 7853,
      "반영": 7854,
      "부활": 7855,
      "애정": 7856,
      "엘리": 7857,
      "여신": 7858,
      "일베": 7859,
      "직업": 7860,
      "클라": 7861,
      "파격": 7862,
      "피하다": 7863,
      "혁명": 7864,
      "##어나오다": 7865,
      "##어버리다": 7866,
      "##nd": 7867,
      "##머리": 7868,
      "한국판": 7869,
      "cgv": 7870,
      "##레이드": 7871,
      "비행기": 7872,
      "가히": 7873,
      "각자": 7874,
      "마르": 7875,
      "매끄럽다": 7876,
      "박히다": 7877,
      "방해": 7878,
      "엑소": 7879,
      "절대로": 7880,
      "향연": 7881,
      "##아들이다": 7882,
      "##마자": 7883,
      "##팔이": 7884,
      "아이언": 7885,
      "198": 7886,
      "똑같이": 7887,
      "best": 7888,
      "나루토": 7889,
      "wh": 7890,
      "그럴": 7891,
      "데스": 7892,
      "도중": 7893,
      "뒤죽": 7894,
      "디카": 7895,
      "려나": 7896,
      "만세": 7897,
      "뮤직": 7898,
      "민주": 7899,
      "브래": 7900,
      "소통": 7901,
      "심사": 7902,
      "엽기": 7903,
      "운동": 7904,
      "위트": 7905,
      "자마자": 7906,
      "절제": 7907,
      "지식": 7908,
      "하아": 7909,
      "##브리": 7910,
      "##은이": 7911,
      "하나님": 7912,
      "초반부": 7913,
      "##ery": 7914,
      "설레이다": 7915,
      "어지럽다": 7916,
      "공유": 7917,
      "교회": 7918,
      "구역": 7919,
      "녀석": 7920,
      "떠올리다": 7921,
      "매번": 7922,
      "부산": 7923,
      "비하": 7924,
      "상식": 7925,
      "신하": 7926,
      "신인": 7927,
      "신화": 7928,
      "옳다": 7929,
      "외치다": 7930,
      "재수": 7931,
      "절로": 7932,
      "정리": 7933,
      "찬양": 7934,
      "처리": 7935,
      "친절": 7936,
      "킬러": 7937,
      "피터": 7938,
      "형식": 7939,
      "##란티": 7940,
      "##테리": 7941,
      "##박죽": 7942,
      "뜬금없이": 7943,
      "하이틴": 7944,
      "뒤죽박죽": 7945,
      "it": 7946,
      "개똥": 7947,
      "다세포": 7948,
      "딸리다": 7949,
      "마법": 7950,
      "메다": 7951,
      "모욕": 7952,
      "배꼽": 7953,
      "에다": 7954,
      "연관": 7955,
      "예측": 7956,
      "윌리": 7957,
      "##시스": 7958,
      "##프리오": 7959,
      "##지현": 7960,
      "##지마": 7961,
      "##버스": 7962,
      "미스터리": 7963,
      "movie": 7964,
      "신하균": 7965,
      "is": 7966,
      "고독": 7967,
      "기사": 7968,
      "너희": 7969,
      "노인": 7970,
      "더군": 7971,
      "마녀": 7972,
      "명불": 7973,
      "받아들이다": 7974,
      "발연기": 7975,
      "백인": 7976,
      "본질": 7977,
      "뿌리다": 7978,
      "선사": 7979,
      "애틋": 7980,
      "저지르다": 7981,
      "전성기": 7982,
      "천사": 7983,
      "키아": 7984,
      "##나가다": 7985,
      "##ㅜㅜㅜㅜ": 7986,
      "스파이더": 7987,
      "흡입력": 7988,
      "명불허": 7989,
      "ㅈㄴ": 7990,
      "객관": 7991,
      "구분": 7992,
      "녹다": 7993,
      "대상": 7994,
      "바치다": 7995,
      "변신": 7996,
      "뻔뻔": 7997,
      "성의": 7998,
      "스필": 7999,
      "안기다": 8000,
      "암울": 8001,
      "음향": 8002,
      "장동": 8003,
      "정사": 8004,
      "지옥": 8005,
      "짬뽕": 8006,
      "천만": 8007,
      "칭찬": 8008,
      "특집": 8009,
      "##일러": 8010,
      "##데이": 8011,
      "##찬다": 8012,
      "##워즈": 8013,
      "##떨어지다": 8014,
      "지루함": 8015,
      "더라고": 8016,
      "제작자": 8017,
      "ᆯ께요": 8018,
      "##란티노": 8019,
      "명불허전": 8020,
      "very": 8021,
      "강동원": 8022,
      "고증": 8023,
      "광기": 8024,
      "믿음": 8025,
      "바르다": 8026,
      "비록": 8027,
      "아바": 8028,
      "어리": 8029,
      "어정": 8030,
      "억울": 8031,
      "에드": 8032,
      "원주": 8033,
      "즐거": 8034,
      "추가": 8035,
      "##누라": 8036,
      "##일관": 8037,
      "##부지": 8038,
      "##추어": 8039,
      "영화사": 8040,
      "나타내다": 8041,
      "어정쩡": 8042,
      "꼬이다": 8043,
      "난무": 8044,
      "라지만": 8045,
      "로망": 8046,
      "무기": 8047,
      "반응": 8048,
      "본능": 8049,
      "불과": 8050,
      "수록": 8051,
      "왕조": 8052,
      "우디": 8053,
      "워낙": 8054,
      "이별": 8055,
      "재방": 8056,
      "제왕": 8057,
      "지내다": 8058,
      "징그럽다": 8059,
      "쯧쯧": 8060,
      "총체": 8061,
      "콜린": 8062,
      "호흡": 8063,
      "##스크": 8064,
      "##라기": 8065,
      "##로움": 8066,
      "##ic": 8067,
      "##le": 8068,
      "##ay": 8069,
      "미국식": 8070,
      "외국인": 8071,
      "일반인": 8072,
      "피아노": 8073,
      "간지": 8074,
      "괜찬다": 8075,
      "국어": 8076,
      "권상": 8077,
      "끌어": 8078,
      "느냐": 8079,
      "든가": 8080,
      "또라이": 8081,
      "먹칠": 8082,
      "미학": 8083,
      "브라": 8084,
      "소지": 8085,
      "애잔": 8086,
      "에다가": 8087,
      "원숭이": 8088,
      "재앙": 8089,
      "창피": 8090,
      "타란티노": 8091,
      "호불": 8092,
      "홀로": 8093,
      "화질": 8094,
      "##아지": 8095,
      "##대기": 8096,
      "##ig": 8097,
      "##려움": 8098,
      "##랜스": 8099,
      "##예진": 8100,
      "##닿다": 8101,
      "아마추어": 8102,
      "데이빗": 8103,
      "시종일관": 8104,
      "디카프리오": 8105,
      "스파이더맨": 8106,
      "스필버그": 8107,
      "권상우": 8108,
      "가까": 8109,
      "고요": 8110,
      "관리": 8111,
      "기괴": 8112,
      "남친": 8113,
      "덩어리": 8114,
      "돕다": 8115,
      "머릿": 8116,
      "베일": 8117,
      "섞이다": 8118,
      "성형": 8119,
      "시험": 8120,
      "아카": 8121,
      "이승": 8122,
      "인권": 8123,
      "지상": 8124,
      "##인드": 8125,
      "##이지": 8126,
      "##더기": 8127,
      "##들러": 8128,
      "##정화": 8129,
      "##평가": 8130,
      "액션물": 8131,
      "ㅜㅜㅜ": 8132,
      "스타워즈": 8133,
      "출연자": 8134,
      "니콜라스": 8135,
      "거부감": 8136,
      "키아누": 8137,
      "호불호": 8138,
      "그대": 8139,
      "긋다": 8140,
      "닥터": 8141,
      "댄스": 8142,
      "되돌": 8143,
      "맛있다": 8144,
      "버스": 8145,
      "사과": 8146,
      "상징": 8147,
      "소유": 8148,
      "쓸쓸": 8149,
      "여고": 8150,
      "와닿다": 8151,
      "이종": 8152,
      "인식": 8153,
      "장소": 8154,
      "짱구": 8155,
      "찬사": 8156,
      "초월": 8157,
      "최후": 8158,
      "##동생": 8159,
      "##세우다": 8160,
      "##워드": 8161,
      "##갈리다": 8162,
      "오로지": 8163,
      "떨어뜨리다": 8164,
      "sh": 8165,
      "견디다": 8166,
      "리암": 8167,
      "미션": 8168,
      "박다": 8169,
      "벌어지다": 8170,
      "시장": 8171,
      "조건": 8172,
      "트랜스": 8173,
      "피트": 8174,
      "##하하": 8175,
      "##티비": 8176,
      "##쳐지다": 8177,
      "##늦다": 8178,
      "ᆫ다니": 8179,
      "다시금": 8180,
      "ㅋㅋㅋㅋㅋㅋㅋㅋㅋㅋㅋㅋㅋㅋㅋㅋㅋㅋㅋ": 8181,
      "슈퍼맨": 8182,
      "풋풋하다": 8183,
      "가까이": 8184,
      "bb": 8185,
      "com": 8186,
      "뉴스": 8187,
      "능가": 8188,
      "당장": 8189,
      "도다": 8190,
      "마찬": 8191,
      "모니": 8192,
      "병원": 8193,
      "비쥬": 8194,
      "승부": 8195,
      "쏘우": 8196,
      "앞서다": 8197,
      "연상": 8198,
      "유리": 8199,
      "이탈": 8200,
      "조정": 8201,
      "짜이다": 8202,
      "차승": 8203,
      "커버": 8204,
      "코스": 8205,
      "태국": 8206,
      "페이크": 8207,
      "한석": 8208,
      "황금": 8209,
      "흥하다": 8210,
      "##하드": 8211,
      "##듬다": 8212,
      "##로로": 8213,
      "##트리다": 8214,
      "##펙트": 8215,
      "오리지": 8216,
      "마찬가지": 8217,
      "비쥬얼": 8218,
      "ᆯ걸": 8219,
      "가짜": 8220,
      "강아지": 8221,
      "뒤늦다": 8222,
      "떨리다": 8223,
      "띄다": 8224,
      "마누라": 8225,
      "본격": 8226,
      "불법": 8227,
      "실사": 8228,
      "안쓰": 8229,
      "어수": 8230,
      "엄정화": 8231,
      "이러": 8232,
      "전도": 8233,
      "한편": 8234,
      "활용": 8235,
      "##아리": 8236,
      "##니스": 8237,
      "##10": 8238,
      "##tt": 8239,
      "허술하다": 8240,
      "가르치다": 8241,
      "클래식": 8242,
      "아바타": 8243,
      "차승원": 8244,
      "한석규": 8245,
      "께서": 8246,
      "눈치": 8247,
      "다녀": 8248,
      "두렵다": 8249,
      "먹이다": 8250,
      "섬뜩": 8251,
      "시체": 8252,
      "신부": 8253,
      "싱겁다": 8254,
      "알아": 8255,
      "여기다": 8256,
      "올레": 8257,
      "위주": 8258,
      "작정": 8259,
      "정점": 8260,
      "청년": 8261,
      "치료": 8262,
      "패션": 8263,
      "##저리": 8264,
      "##이라": 8265,
      "##진창": 8266,
      "##프레": 8267,
      "##주일": 8268,
      "##감독": 8269,
      "##광구": 8270,
      "엉망진창": 8271,
      "미스테리": 8272,
      "수면제": 8273,
      "남아돌다": 8274,
      "안쓰럽다": 8275,
      "깜놀": 8276,
      "노무": 8277,
      "디자": 8278,
      "레옹": 8279,
      "로드": 8280,
      "매주": 8281,
      "묻어나다": 8282,
      "별거": 8283,
      "새삼": 8284,
      "연주": 8285,
      "올라": 8286,
      "으러": 8287,
      "제국": 8288,
      "지하": 8289,
      "지극": 8290,
      "크루즈": 8291,
      "핸드": 8292,
      "향기": 8293,
      "혼란": 8294,
      "회상": 8295,
      "후지다": 8296,
      "흥분": 8297,
      "##더스": 8298,
      "##드리다": 8299,
      "ㅋㅋㅋㅋㅋㅋㅋㅋㅋㅋ": 8300,
      "다이하드": 8301,
      "드러내다": 8302,
      "김수현": 8303,
      "김희선": 8304,
      "브래드": 8305,
      "즐거움": 8306,
      "7광구": 8307,
      "pd": 8308,
      "가져": 8309,
      "고딩": 8310,
      "괴롭다": 8311,
      "구경": 8312,
      "납득": 8313,
      "덥다": 8314,
      "드니": 8315,
      "마블": 8316,
      "목사": 8317,
      "어떠": 8318,
      "없애": 8319,
      "오해": 8320,
      "오직": 8321,
      "왕자": 8322,
      "자라다": 8323,
      "재치": 8324,
      "재탕": 8325,
      "조기": 8326,
      "진진": 8327,
      "차갑다": 8328,
      "클리": 8329,
      "포함": 8330,
      "##승전": 8331,
      "##그리": 8332,
      "##효주": 8333,
      "2015": 8334,
      "고등학생": 8335,
      "어수선": 8336,
      "다녀오다": 8337,
      "없애다": 8338,
      "av": 8339,
      "게끔": 8340,
      "깔다": 8341,
      "농담": 8342,
      "모독": 8343,
      "문득": 8344,
      "보석": 8345,
      "브로": 8346,
      "세트": 8347,
      "스톤": 8348,
      "아메": 8349,
      "언어": 8350,
      "역작": 8351,
      "온갖": 8352,
      "외면": 8353,
      "이은": 8354,
      "인연": 8355,
      "조지": 8356,
      "주먹": 8357,
      "주온": 8358,
      "참여": 8359,
      "투성": 8360,
      "펼치다": 8361,
      "한효주": 8362,
      "허구": 8363,
      "##아다니다": 8364,
      "##시대": 8365,
      "##보내다": 8366,
      "##모로": 8367,
      "##am": 8368,
      "유치원": 8369,
      "세계관": 8370,
      "클라라": 8371,
      "vs": 8372,
      "거듭": 8373,
      "고수": 8374,
      "관대": 8375,
      "구석": 8376,
      "기록": 8377,
      "낚다": 8378,
      "된장": 8379,
      "미달": 8380,
      "미술": 8381,
      "박찬": 8382,
      "방향": 8383,
      "번역": 8384,
      "부수다": 8385,
      "아만다": 8386,
      "어차": 8387,
      "엮다": 8388,
      "주위": 8389,
      "지대": 8390,
      "질문": 8391,
      "토니": 8392,
      "팍팍": 8393,
      "포켓": 8394,
      "픽사": 8395,
      "하드": 8396,
      "환자": 8397,
      "##스틱": 8398,
      "##ed": 8399,
      "##매이션": 8400,
      "##동자": 8401,
      "##릭스": 8402,
      "다니엘": 8403,
      "아아아": 8404,
      "머릿속": 8405,
      "ᆫ대": 8406,
      "가만": 8407,
      "고스": 8408,
      "극혐": 8409,
      "나비": 8410,
      "논하다": 8411,
      "대전": 8412,
      "도라": 8413,
      "때로": 8414,
      "마시다": 8415,
      "말리다": 8416,
      "소품": 8417,
      "수사": 8418,
      "어째": 8419,
      "어쨌": 8420,
      "엉뚱": 8421,
      "여지": 8422,
      "일주일": 8423,
      "저주": 8424,
      "정화": 8425,
      "차분": 8426,
      "최선": 8427,
      "클로": 8428,
      "택시": 8429,
      "피곤": 8430,
      "학살": 8431,
      "한지": 8432,
      "##스텔": 8433,
      "##id": 8434,
      "##빠지다": 8435,
      "##ct": 8436,
      "##랗다": 8437,
      "여러모로": 8438,
      "아기자기": 8439,
      "김혜수": 8440,
      "어차피": 8441,
      "어쨌든": 8442,
      "99": 8443,
      "각각": 8444,
      "강요": 8445,
      "검사": 8446,
      "과도": 8447,
      "국산": 8448,
      "낯설": 8449,
      "동감": 8450,
      "레오": 8451,
      "맴돌다": 8452,
      "멘탈": 8453,
      "반감": 8454,
      "보이": 8455,
      "색채": 8456,
      "서정": 8457,
      "시민": 8458,
      "시골": 8459,
      "안녕": 8460,
      "언론": 8461,
      "열라": 8462,
      "옮기다": 8463,
      "왕가": 8464,
      "장군": 8465,
      "직장": 8466,
      "짙다": 8467,
      "##준호": 8468,
      "##비다": 8469,
      "##오브": 8470,
      "##은경": 8471,
      "##라이즈": 8472,
      "##ㅎㅎㅎㅎ": 8473,
      "타이틀": 8474,
      "최민수": 8475,
      "mc": 8476,
      "고작": 8477,
      "냉정": 8478,
      "대역": 8479,
      "람보": 8480,
      "러셀": 8481,
      "모방": 8482,
      "벅차다": 8483,
      "빠져": 8484,
      "사장": 8485,
      "상큼": 8486,
      "색깔": 8487,
      "서사": 8488,
      "설경": 8489,
      "올리": 8490,
      "울림": 8491,
      "유혹": 8492,
      "음모": 8493,
      "이웃": 8494,
      "저희": 8495,
      "절반": 8496,
      "주원": 8497,
      "줄이다": 8498,
      "차태": 8499,
      "커피": 8500,
      "컬트": 8501,
      "트라": 8502,
      "해외": 8503,
      "환장": 8504,
      "##저분": 8505,
      "##il": 8506,
      "##★★": 8507,
      "##렐라": 8508,
      "지극히": 8509,
      "투성이": 8510,
      "박찬욱": 8511,
      "낯설다": 8512,
      "28": 8513,
      "in": 8514,
      "고소": 8515,
      "고질": 8516,
      "공허": 8517,
      "괴수": 8518,
      "군더": 8519,
      "나열": 8520,
      "마을": 8521,
      "멀리": 8522,
      "속도": 8523,
      "손꼽": 8524,
      "손예진": 8525,
      "스펙": 8526,
      "여유": 8527,
      "우습": 8528,
      "이순": 8529,
      "적나라": 8530,
      "전라도": 8531,
      "지독": 8532,
      "피식": 8533,
      "픽션": 8534,
      "합치다": 8535,
      "허다": 8536,
      "##동근": 8537,
      "던데요": 8538,
      "신기하다": 8539,
      "##ㅋㅋㅋㅋㅋㅋㅋㅋㅋㅋㅋㅋㅋㅋㅋㅋㅋㅋㅋㅋㅋㅋㅋㅋㅋㅋㅋㅋㅋㅋㅋㅋ": 8540,
      "스페인": 8541,
      "데뷔작": 8542,
      "설경구": 8543,
      "차태현": 8544,
      "우습다": 8545,
      "24": 8546,
      "lov": 8547,
      "xx": 8548,
      "ᆯ세": 8549,
      "가식": 8550,
      "감수": 8551,
      "겁나다": 8552,
      "납치": 8553,
      "누님": 8554,
      "더러": 8555,
      "라구": 8556,
      "로마": 8557,
      "마마": 8558,
      "수십": 8559,
      "아프": 8560,
      "엠마": 8561,
      "열광": 8562,
      "열리다": 8563,
      "욕먹다": 8564,
      "우롱": 8565,
      "위안": 8566,
      "이외": 8567,
      "자격": 8568,
      "젊은이": 8569,
      "조명": 8570,
      "조르다": 8571,
      "찾아오다": 8572,
      "취급": 8573,
      "홧팅": 8574,
      "힙합": 8575,
      "##아나": 8576,
      "##저것": 8577,
      "##시오": 8578,
      "##비치": 8579,
      "##포머": 8580,
      "##타쿠": 8581,
      "##바로": 8582,
      "##간히": 8583,
      "사랑해": 8584,
      "이것저것": 8585,
      "재밋어": 8586,
      "2013": 8587,
      "크리스찬": 8588,
      "레이첼": 8589,
      "사무라이": 8590,
      "황정민": 8591,
      "포켓몬": 8592,
      "군더더기": 8593,
      "so": 8594,
      "개발": 8595,
      "경기": 8596,
      "구라": 8597,
      "귀찮다": 8598,
      "극본": 8599,
      "금지": 8600,
      "김선": 8601,
      "김구": 8602,
      "깨끗": 8603,
      "눈요": 8604,
      "닫다": 8605,
      "묵직": 8606,
      "물다": 8607,
      "미니": 8608,
      "박신": 8609,
      "생존": 8610,
      "오페": 8611,
      "외로움": 8612,
      "유승": 8613,
      "유익": 8614,
      "이요": 8615,
      "이태": 8616,
      "잃어버리다": 8617,
      "전지현": 8618,
      "접다": 8619,
      "주인": 8620,
      "주관": 8621,
      "증명": 8622,
      "집어": 8623,
      "찾아가다": 8624,
      "추악": 8625,
      "커녕": 8626,
      "피디": 8627,
      "한동안": 8628,
      "##로그": 8629,
      "##뜨다": 8630,
      "##에몽": 8631,
      "시간대": 8632,
      "oooo": 8633,
      "카메론": 8634,
      "이따위": 8635,
      "오랫동안": 8636,
      "살아나다": 8637,
      "엑스맨": 8638,
      "마르소": 8639,
      "그럴싸": 8640,
      "간단": 8641,
      "고리": 8642,
      "고치다": 8643,
      "공식": 8644,
      "그린": 8645,
      "내놓다": 8646,
      "눕다": 8647,
      "마구": 8648,
      "막상": 8649,
      "멀쩡": 8650,
      "무서": 8651,
      "미야": 8652,
      "밀라": 8653,
      "방황": 8654,
      "버무": 8655,
      "별반": 8656,
      "본성": 8657,
      "비참": 8658,
      "사나이": 8659,
      "스콧": 8660,
      "심다": 8661,
      "애인": 8662,
      "원피스": 8663,
      "의견": 8664,
      "재주": 8665,
      "정석": 8666,
      "조심": 8667,
      "지켜": 8668,
      "짜내다": 8669,
      "출현": 8670,
      "쿵푸": 8671,
      "클라스": 8672,
      "학창": 8673,
      "한정": 8674,
      "흑흑": 8675,
      "흔들다": 8676,
      "흔들리다": 8677,
      "##크스": 8678,
      "##수정": 8679,
      "##미스": 8680,
      "##플린": 8681,
      "##★☆": 8682,
      "아이고": 8683,
      "공포감": 8684,
      "다운로드": 8685,
      "케이지": 8686,
      "이정재": 8687,
      "이탈리아": 8688,
      "올라오다": 8689,
      "드니로": 8690,
      "김구라": 8691,
      "오페라": 8692,
      "지켜보다": 8693,
      "ㄱㄱ": 8694,
      "가을": 8695,
      "가관": 8696,
      "고향": 8697,
      "기쁘다": 8698,
      "꺼내다": 8699,
      "난국": 8700,
      "놀래": 8701,
      "니슨": 8702,
      "답니다": 8703,
      "레인": 8704,
      "로멘": 8705,
      "마스터": 8706,
      "멤버": 8707,
      "모순": 8708,
      "밀다": 8709,
      "배다": 8710,
      "배려": 8711,
      "번째": 8712,
      "복선": 8713,
      "비싸다": 8714,
      "새록": 8715,
      "서스": 8716,
      "수정": 8717,
      "쓰이다": 8718,
      "완죤": 8719,
      "우승": 8720,
      "유령": 8721,
      "으세": 8722,
      "이지": 8723,
      "일찍": 8724,
      "장혁": 8725,
      "재현": 8726,
      "적극": 8727,
      "졸리": 8728,
      "증말": 8729,
      "집단": 8730,
      "쪽팔": 8731,
      "춤추다": 8732,
      "케미": 8733,
      "타인": 8734,
      "팝콘": 8735,
      "후기": 8736,
      "##리스트": 8737,
      "##저냥": 8738,
      "##렌스": 8739,
      "##려주다": 8740,
      "##남다": 8741,
      "##바리": 8742,
      "그냥저냥": 8743,
      "다는데": 8744,
      "애니매이션": 8745,
      "살인자": 8746,
      "아오이": 8747,
      "살아남다": 8748,
      "아이언맨": 8749,
      "윌리엄": 8750,
      "왕조현": 8751,
      "트랜스포머": 8752,
      "왕가위": 8753,
      "놀래키다": 8754,
      "쪽팔리다": 8755,
      "me": 8756,
      "가난": 8757,
      "감옥": 8758,
      "감추다": 8759,
      "경제": 8760,
      "고급": 8761,
      "기업": 8762,
      "길이": 8763,
      "내려가다": 8764,
      "데드": 8765,
      "드만": 8766,
      "마케": 8767,
      "박해": 8768,
      "부여": 8769,
      "삼다": 8770,
      "성찰": 8771,
      "성유리": 8772,
      "여튼": 8773,
      "오인": 8774,
      "완젼": 8775,
      "이혼": 8776,
      "작전": 8777,
      "잠자": 8778,
      "잭슨": 8779,
      "정하다": 8780,
      "졸잼": 8781,
      "주지": 8782,
      "지배": 8783,
      "채플린": 8784,
      "할배": 8785,
      "흠잡다": 8786,
      "히스": 8787,
      "##니버스": 8788,
      "##데미": 8789,
      "##im": 8790,
      "##란히": 8791,
      "##사이": 8792,
      "##사미": 8793,
      "##구리": 8794,
      "##새록": 8795,
      "##갛다": 8796,
      "아이유": 8797,
      "197": 8798,
      "관람객": 8799,
      "분명히": 8800,
      "중반부": 8801,
      "오로라": 8802,
      "소지섭": 8803,
      "도라에몽": 8804,
      "love": 8805,
      "새록새록": 8806,
      "st": 8807,
      "개소리": 8808,
      "김윤": 8809,
      "따스": 8810,
      "떠들다": 8811,
      "로보": 8812,
      "마틴": 8813,
      "밀리다": 8814,
      "변호": 8815,
      "불만": 8816,
      "빨갛다": 8817,
      "신데": 8818,
      "심정": 8819,
      "에바": 8820,
      "일일": 8821,
      "정준": 8822,
      "젖다": 8823,
      "증거": 8824,
      "지브리": 8825,
      "지저분": 8826,
      "출발": 8827,
      "친일": 8828,
      "콘서": 8829,
      "틀림": 8830,
      "플레이": 8831,
      "흐지": 8832,
      "##우치다": 8833,
      "##스틴": 8834,
      "##저나": 8835,
      "##역사": 8836,
      "ㅋㅋㅋㅋㅋㅋㅋㅋㅋㅋㅋㅋ": 8837,
      "도망가다": 8838,
      "최민식": 8839,
      "스피드": 8840,
      "장동건": 8841,
      "아카데미": 8842,
      "##★☆★☆": 8843,
      "300": 8844,
      "간직": 8845,
      "급하다": 8846,
      "꾸미다": 8847,
      "나마": 8848,
      "덜덜": 8849,
      "드립": 8850,
      "또는": 8851,
      "록키": 8852,
      "박사": 8853,
      "불러": 8854,
      "성숙": 8855,
      "소수": 8856,
      "으라고": 8857,
      "작년": 8858,
      "잘나다": 8859,
      "조승우": 8860,
      "종합": 8861,
      "지지": 8862,
      "통수": 8863,
      "푸다": 8864,
      "한글": 8865,
      "한예": 8866,
      "허탈": 8867,
      "흑역사": 8868,
      "##리즘": 8869,
      "##카이": 8870,
      "##들리": 8871,
      "##비스": 8872,
      "##dd": 8873,
      "##정신": 8874,
      "한국어": 8875,
      "예술가": 8876,
      "는구만": 8877,
      "에드워드": 8878,
      "이은주": 8879,
      "신데렐라": 8880,
      "콘서트": 8881,
      "흐지부지": 8882,
      "sm": 8883,
      "sbs": 8884,
      "강호": 8885,
      "개노잼": 8886,
      "경의": 8887,
      "경악": 8888,
      "노리다": 8889,
      "단역": 8890,
      "데미": 8891,
      "두고": 8892,
      "라며": 8893,
      "맑다": 8894,
      "무간": 8895,
      "법정": 8896,
      "부대": 8897,
      "뿌다": 8898,
      "사망": 8899,
      "양반": 8900,
      "오지": 8901,
      "윌리스": 8902,
      "자아": 8903,
      "절묘": 8904,
      "지존": 8905,
      "지니다": 8906,
      "집다": 8907,
      "집안": 8908,
      "추구": 8909,
      "침묵": 8910,
      "카피": 8911,
      "파트": 8912,
      "파악": 8913,
      "행위": 8914,
      "##러티브": 8915,
      "##두고": 8916,
      "##비아": 8917,
      "##구다": 8918,
      "##실히": 8919,
      "1000": 8920,
      "는다면": 8921,
      "그나저나": 8922,
      "ㅋㅋㅋㅋㅋㅋㅋㅋㅋㅋㅋㅋㅋ": 8923,
      "123": 8924,
      "마케팅": 8925,
      "두고두고": 8926,
      "35": 8927,
      "강제": 8928,
      "과잉": 8929,
      "끝판": 8930,
      "노골": 8931,
      "도와": 8932,
      "레드": 8933,
      "리브": 8934,
      "먹히다": 8935,
      "명확": 8936,
      "모성애": 8937,
      "몰락": 8938,
      "문학": 8939,
      "박스": 8940,
      "볼일": 8941,
      "불다": 8942,
      "브리": 8943,
      "샤론": 8944,
      "수치": 8945,
      "스토": 8946,
      "아가": 8947,
      "안성기": 8948,
      "어중간": 8949,
      "엉엉": 8950,
      "오만": 8951,
      "우월": 8952,
      "울음": 8953,
      "웅장": 8954,
      "위기": 8955,
      "유우": 8956,
      "일생": 8957,
      "줄리아": 8958,
      "체험": 8959,
      "쿨하다": 8960,
      "태양": 8961,
      "토끼": 8962,
      "트리": 8963,
      "파라노": 8964,
      "해내다": 8965,
      "호화": 8966,
      "흔적": 8967,
      "##스케": 8968,
      "##스턴": 8969,
      "##더니": 8970,
      "##슬리": 8971,
      "##웍스": 8972,
      "어야죠": 8973,
      "미국인": 8974,
      "화려하다": 8975,
      "그지없다": 8976,
      "무리수": 8977,
      "ᆯ려면": 8978,
      "드림웍스": 8979,
      "테이큰": 8980,
      "전도연": 8981,
      "클리셰": 8982,
      "미야자": 8983,
      "버무리다": 8984,
      "무간도": 8985,
      "도와주다": 8986,
      "ᆷ니다": 8987,
      "가시다": 8988,
      "경계": 8989,
      "구먼": 8990,
      "국제": 8991,
      "그렇": 8992,
      "글구": 8993,
      "기념": 8994,
      "깨달": 8995,
      "내보내다": 8996,
      "대비": 8997,
      "뒤집다": 8998,
      "미리": 8999,
      "미장": 9000,
      "밉다": 9001,
      "박정": 9002,
      "성경": 9003,
      "세우다": 9004,
      "스틸": 9005,
      "실상": 9006,
      "씨발": 9007,
      "아까": 9008,
      "어마": 9009,
      "얼다": 9010,
      "여왕": 9011,
      "오마": 9012,
      "오유": 9013,
      "우왕": 9014,
      "이중": 9015,
      "일관": 9016,
      "임신": 9017,
      "자위": 9018,
      "저기": 9019,
      "줄다": 9020,
      "징징": 9021,
      "찌르다": 9022,
      "초기": 9023,
      "총격": 9024,
      "파이팅": 9025,
      "홍진": 9026,
      "##저기": 9027,
      "##부로": 9028,
      "##란다": 9029,
      "##달리다": 9030,
      "##커스": 9031,
      "##덩이": 9032,
      "ㅠㅠㅠㅠㅠㅠ": 9033,
      "여기저기": 9034,
      "♥♥♥♥": 9035,
      "조용히": 9036,
      "김민종": 9037,
      "김태희": 9038,
      "아프리카": 9039,
      "으세요": 9040,
      "미야자키": 9041,
      "깨달음": 9042,
      "my": 9043,
      "on": 9044,
      "ㅂㅅ": 9045,
      "가상": 9046,
      "결합": 9047,
      "구도": 9048,
      "그동안": 9049,
      "김성": 9050,
      "꼽히다": 9051,
      "노튼": 9052,
      "더하다": 9053,
      "두려움": 9054,
      "망설": 9055,
      "메리": 9056,
      "부드": 9057,
      "샌들러": 9058,
      "섭외": 9059,
      "송혜": 9060,
      "스킵": 9061,
      "어떡": 9062,
      "엉터리": 9063,
      "연장": 9064,
      "와중": 9065,
      "유사": 9066,
      "이스트": 9067,
      "장미": 9068,
      "정재": 9069,
      "조직": 9070,
      "주목": 9071,
      "질주": 9072,
      "찰리": 9073,
      "함부로": 9074,
      "활동": 9075,
      "##리쉬": 9076,
      "##스카": 9077,
      "##if": 9078,
      "##고기": 9079,
      "##래셔": 9080,
      "##잖다": 9081,
      "##스트라": 9082,
      "장난감": 9083,
      "크리스토": 9084,
      "로버츠": 9085,
      "상관없다": 9086,
      "유지태": 9087,
      "애국심": 9088,
      "긴박감": 9089,
      "엑소시": 9090,
      "눈요기": 9091,
      "틀림없다": 9092,
      "미장센": 9093,
      "부드럽다": 9094,
      "간첩": 9095,
      "고봉": 9096,
      "교수": 9097,
      "나서다": 9098,
      "노예": 9099,
      "더더": 9100,
      "덮다": 9101,
      "덴젤": 9102,
      "똑바로": 9103,
      "매다": 9104,
      "모델": 9105,
      "베트": 9106,
      "사귀": 9107,
      "생략": 9108,
      "송지": 9109,
      "신민": 9110,
      "신념": 9111,
      "애로": 9112,
      "에일": 9113,
      "영광": 9114,
      "우아": 9115,
      "운전": 9116,
      "웹툰": 9117,
      "으라": 9118,
      "저절": 9119,
      "전국": 9120,
      "전락": 9121,
      "정통": 9122,
      "조악": 9123,
      "태도": 9124,
      "허나": 9125,
      "호강": 9126,
      "환타지": 9127,
      "##다보다": 9128,
      "##라지": 9129,
      "##ee": 9130,
      "##드로": 9131,
      "##짜다": 9132,
      "##극장": 9133,
      "##ce": 9134,
      "##밀리": 9135,
      "기대다": 9136,
      "이나영": 9137,
      "2003": 9138,
      "##♥♥♥♥": 9139,
      "어린애": 9140,
      "실패작": 9141,
      "이연희": 9142,
      "##9999": 9143,
      "정확히": 9144,
      "위원회": 9145,
      "디자인": 9146,
      "고스란히": 9147,
      "이순신": 9148,
      "파라노말": 9149,
      "사귀다": 9150,
      "저절로": 9151,
      "but": 9152,
      "do": 9153,
      "ㄹㅇ": 9154,
      "가운": 9155,
      "개다": 9156,
      "계획": 9157,
      "구원": 9158,
      "구멍": 9159,
      "기승전": 9160,
      "난감": 9161,
      "남발": 9162,
      "뉴욕": 9163,
      "대여": 9164,
      "도통": 9165,
      "등급": 9166,
      "디젤": 9167,
      "똑똑": 9168,
      "라스": 9169,
      "마르다": 9170,
      "메인": 9171,
      "물건": 9172,
      "미이라": 9173,
      "바쁘다": 9174,
      "배드": 9175,
      "부각": 9176,
      "불행": 9177,
      "뿜다": 9178,
      "수위": 9179,
      "순정": 9180,
      "쓰러지다": 9181,
      "양조": 9182,
      "요원": 9183,
      "을려고": 9184,
      "의학": 9185,
      "장치": 9186,
      "지원": 9187,
      "지역": 9188,
      "찜찜": 9189,
      "차마": 9190,
      "철없다": 9191,
      "클라이": 9192,
      "타령": 9193,
      "투표": 9194,
      "특징": 9195,
      "팀버": 9196,
      "풍부": 9197,
      "학원": 9198,
      "학대": 9199,
      "한쿡": 9200,
      "##부분": 9201,
      "##바닥": 9202,
      "##순간": 9203,
      "중국인": 9204,
      "이민기": 9205,
      "따라오다": 9206,
      "망설이다": 9207,
      "송혜교": 9208,
      "gt": 9209,
      "가해": 9210,
      "고발": 9211,
      "그레이": 9212,
      "극찬": 9213,
      "꼬맹이": 9214,
      "노동자": 9215,
      "도입": 9216,
      "때려": 9217,
      "마인드": 9218,
      "메가": 9219,
      "모호": 9220,
      "미흡": 9221,
      "미묘": 9222,
      "밴드": 9223,
      "벗기다": 9224,
      "붓다": 9225,
      "사형": 9226,
      "소문": 9227,
      "시리다": 9228,
      "식스": 9229,
      "쌩뚱": 9230,
      "쏟아지다": 9231,
      "어다가": 9232,
      "에러": 9233,
      "인격": 9234,
      "일요일": 9235,
      "재다": 9236,
      "종류": 9237,
      "주옥": 9238,
      "중2": 9239,
      "쥬라기": 9240,
      "초점": 9241,
      "테이크": 9242,
      "퇴보": 9243,
      "튀어나오다": 9244,
      "흐뭇": 9245,
      "##하늘": 9246,
      "##트릭스": 9247,
      "##프트": 9248,
      "##괴담": 9249,
      "##본색": 9250,
      "##꿀잼": 9251,
      "정신없다": 9252,
      "더니만": 9253,
      "인터뷰": 9254,
      "하하하하": 9255,
      "##00000000": 9256,
      "##ㅇㅇㅇㅇ": 9257,
      "거든요": 9258,
      "공중파": 9259,
      "고질라": 9260,
      "그럴싸하다": 9261,
      "오인혜": 9262,
      "끝판왕": 9263,
      "양조위": 9264,
      "중2병": 9265,
      "98": 9266,
      "ch": 9267,
      "감다": 9268,
      "거칠": 9269,
      "곱씹": 9270,
      "공원": 9271,
      "김영": 9272,
      "깨지다": 9273,
      "내세우다": 9274,
      "도덕": 9275,
      "뚝뚝": 9276,
      "려니": 9277,
      "마크": 9278,
      "멘붕": 9279,
      "미사": 9280,
      "발레": 9281,
      "부디": 9282,
      "분석": 9283,
      "사전": 9284,
      "수상": 9285,
      "슈렉": 9286,
      "시다": 9287,
      "아웃": 9288,
      "어벤": 9289,
      "역활": 9290,
      "연령": 9291,
      "요약": 9292,
      "자비": 9293,
      "잠수": 9294,
      "제정신": 9295,
      "존중": 9296,
      "총알": 9297,
      "행크스": 9298,
      "호텔": 9299,
      "혹평": 9300,
      "히로": 9301,
      "히트": 9302,
      "##러니": 9303,
      "##부림": 9304,
      "##시고": 9305,
      "##려지다": 9306,
      "##유미": 9307,
      "##래도": 9308,
      "##관계": 9309,
      "에게서": 9310,
      "2004": 9311,
      "2005": 9312,
      "top": 9313,
      "과대평가": 9314,
      "가해자": 9315,
      "곱씹다": 9316,
      "간간히": 9317,
      "강조": 9318,
      "걸치다": 9319,
      "경이": 9320,
      "고정": 9321,
      "고백": 9322,
      "권하다": 9323,
      "긍정": 9324,
      "기어": 9325,
      "기간": 9326,
      "끊임": 9327,
      "대가리": 9328,
      "망상": 9329,
      "모티브": 9330,
      "물씬": 9331,
      "배속": 9332,
      "별다르다": 9333,
      "불면": 9334,
      "뽕짝": 9335,
      "사냥": 9336,
      "상투": 9337,
      "선율": 9338,
      "속이다": 9339,
      "수다": 9340,
      "수술": 9341,
      "실종": 9342,
      "쎄다": 9343,
      "악플": 9344,
      "알렉": 9345,
      "야마": 9346,
      "양동근": 9347,
      "어두": 9348,
      "영감": 9349,
      "예의": 9350,
      "예매": 9351,
      "오타쿠": 9352,
      "원표": 9353,
      "장편": 9354,
      "재료": 9355,
      "저번": 9356,
      "접근": 9357,
      "지진": 9358,
      "짓거리": 9359,
      "창작": 9360,
      "최진": 9361,
      "콤비": 9362,
      "큐브": 9363,
      "펼쳐지다": 9364,
      "풍기다": 9365,
      "합리": 9366,
      "헷갈리다": 9367,
      "훈련": 9368,
      "##자리": 9369,
      "##상하다": 9370,
      "##타다": 9371,
      "##gm": 9372,
      "##요미": 9373,
      "##잡이": 9374,
      "##틀다": 9375,
      "##맹랑": 9376,
      "##넣다": 9377,
      "기대감": 9378,
      "아이러니": 9379,
      "아무래도": 9380,
      "공감대": 9381,
      "제작사": 9382,
      "ㄷㄷㄷㄷ": 9383,
      "존재감": 9384,
      "허무맹랑": 9385,
      "송지효": 9386,
      "에일리언": 9387,
      "거칠다": 9388,
      "500": 9389,
      "am": 9390,
      "and": 9391,
      "htt": 9392,
      "갇히다": 9393,
      "게리": 9394,
      "공개": 9395,
      "과감": 9396,
      "김대": 9397,
      "다구": 9398,
      "레즈": 9399,
      "맛깔": 9400,
      "매혹": 9401,
      "무색": 9402,
      "박평": 9403,
      "보호": 9404,
      "뺏다": 9405,
      "싱크": 9406,
      "엉덩이": 9407,
      "에어": 9408,
      "에릭": 9409,
      "왕국": 9410,
      "용두": 9411,
      "으아": 9412,
      "이선": 9413,
      "일탈": 9414,
      "임권": 9415,
      "임수정": 9416,
      "장나라": 9417,
      "전환": 9418,
      "정권": 9419,
      "주상": 9420,
      "짐승": 9421,
      "찢다": 9422,
      "충무": 9423,
      "퍼즐": 9424,
      "펭귄": 9425,
      "품다": 9426,
      "하차": 9427,
      "현장": 9428,
      "활약": 9429,
      "황홀": 9430,
      "훔치다": 9431,
      "##스톤": 9432,
      "##스코": 9433,
      "##범수": 9434,
      "##ion": 9435,
      "##시원": 9436,
      "##시절": 9437,
      "##조아": 9438,
      "##탈출": 9439,
      "ᆯ지라도": 9440,
      "영웅본색": 9441,
      "##노잼노잼": 9442,
      "스티브": 9443,
      "신세계": 9444,
      "와이프": 9445,
      "코스프레": 9446,
      "서스펜": 9447,
      "잠자다": 9448,
      "그렇지만": 9449,
      "팀버튼": 9450,
      "http": 9451,
      "박평식": 9452,
      "임권택": 9453,
      "bgm": 9454,
      "for": 9455,
      "가게": 9456,
      "곳곳": 9457,
      "그치": 9458,
      "극한": 9459,
      "꼬라지": 9460,
      "남매": 9461,
      "느슨": 9462,
      "당당": 9463,
      "독창": 9464,
      "동기": 9465,
      "동정": 9466,
      "동호": 9467,
      "두말": 9468,
      "마주": 9469,
      "몬스터": 9470,
      "보물": 9471,
      "비롯": 9472,
      "빌리": 9473,
      "뻔히": 9474,
      "사로": 9475,
      "순진": 9476,
      "심히": 9477,
      "씹다": 9478,
      "용감": 9479,
      "이래": 9480,
      "이념": 9481,
      "이르다": 9482,
      "작화": 9483,
      "저녁": 9484,
      "적응": 9485,
      "정주": 9486,
      "조조": 9487,
      "지인": 9488,
      "창조": 9489,
      "퀴어": 9490,
      "파일": 9491,
      "휴먼": 9492,
      "##너지": 9493,
      "##린트": 9494,
      "##피아": 9495,
      "##et": 9496,
      "##므로": 9497,
      "케이트": 9498,
      "2010": 9499,
      "치밀다": 9500,
      "자세히": 9501,
      "키드먼": 9502,
      "핸드폰": 9503,
      "어째서": 9504,
      "박신양": 9505,
      "강호동": 9506,
      "베트남": 9507,
      "용두사미": 9508,
      "서스펜스": 9509,
      "기도": 9510,
      "난생": 9511,
      "다케": 9512,
      "단언": 9513,
      "대략": 9514,
      "루이스": 9515,
      "만하다": 9516,
      "맡기다": 9517,
      "멸망": 9518,
      "사춘": 9519,
      "서극": 9520,
      "스마": 9521,
      "슬래셔": 9522,
      "신다": 9523,
      "아여": 9524,
      "언급": 9525,
      "에여": 9526,
      "여정": 9527,
      "오토": 9528,
      "온몸": 9529,
      "욕구": 9530,
      "원인": 9531,
      "은퇴": 9532,
      "이재": 9533,
      "저렴": 9534,
      "진화": 9535,
      "진작": 9536,
      "쫄깃": 9537,
      "켜다": 9538,
      "클럽": 9539,
      "태권": 9540,
      "허영": 9541,
      "##리나": 9542,
      "##ill": 9543,
      "##프라이즈": 9544,
      "##ff": 9545,
      "##처럼": 9546,
      "영화감독": 9547,
      "쓰레기통": 9548,
      "지금껏": 9549,
      "아름다": 9550,
      "감성팔이": 9551,
      "이준기": 9552,
      "##스텔라": 9553,
      "김선아": 9554,
      "로보캅": 9555,
      "크리스토퍼": 9556,
      "더더욱": 9557,
      "가운데": 9558,
      "불면증": 9559,
      "사춘기": 9560,
      "go": 9561,
      "교감": 9562,
      "구지": 9563,
      "김현": 9564,
      "나오": 9565,
      "나발": 9566,
      "날아가다": 9567,
      "농구": 9568,
      "닌자": 9569,
      "드시다": 9570,
      "땡기다": 9571,
      "미인": 9572,
      "미개": 9573,
      "미군": 9574,
      "박시": 9575,
      "배틀": 9576,
      "버금": 9577,
      "보아": 9578,
      "보스": 9579,
      "부재": 9580,
      "부시다": 9581,
      "불후": 9582,
      "불리다": 9583,
      "비난": 9584,
      "서인": 9585,
      "스무": 9586,
      "습작": 9587,
      "썰렁": 9588,
      "아파": 9589,
      "아냐": 9590,
      "아시아": 9591,
      "유부": 9592,
      "이영": 9593,
      "일제": 9594,
      "자매": 9595,
      "조인": 9596,
      "진주": 9597,
      "창의": 9598,
      "초중": 9599,
      "측면": 9600,
      "커지다": 9601,
      "컨저": 9602,
      "타락": 9603,
      "토요": 9604,
      "피라": 9605,
      "하야": 9606,
      "한두": 9607,
      "현빈": 9608,
      "혹성": 9609,
      "휴가": 9610,
      "##11": 9611,
      "##르르": 9612,
      "##un": 9613,
      "##지우": 9614,
      "##지루": 9615,
      "##져스": 9616,
      "##싱턴": 9617,
      "##노답": 9618,
      "##ve": 9619,
      "대단히": 9620,
      "잔잔하다": 9621,
      "진정하다": 9622,
      "멍청이": 9623,
      "심각하다": 9624,
      "적절히": 9625,
      "자본주의": 9626,
      "신세경": 9627,
      "리즈시절": 9628,
      "사랑해요": 9629,
      "이스트우드": 9630,
      "컨저링": 9631,
      "im": 9632,
      "가미": 9633,
      "감기": 9634,
      "거창": 9635,
      "건너": 9636,
      "경쾌": 9637,
      "귀여": 9638,
      "귀요미": 9639,
      "금방": 9640,
      "금요일": 9641,
      "꼴리다": 9642,
      "내러티브": 9643,
      "뛰쳐": 9644,
      "리라": 9645,
      "므로": 9646,
      "미키": 9647,
      "벌리다": 9648,
      "브레이": 9649,
      "비명": 9650,
      "샤를": 9651,
      "서프라이즈": 9652,
      "설치다": 9653,
      "소박": 9654,
      "소방": 9655,
      "신성": 9656,
      "실소": 9657,
      "실컷": 9658,
      "아일": 9659,
      "안정": 9660,
      "안티": 9661,
      "앵글": 9662,
      "여동생": 9663,
      "오류": 9664,
      "오오": 9665,
      "외우다": 9666,
      "요구": 9667,
      "유해": 9668,
      "윤아": 9669,
      "이자": 9670,
      "이경": 9671,
      "일기": 9672,
      "자존": 9673,
      "자빠지다": 9674,
      "작렬": 9675,
      "절절": 9676,
      "젊음": 9677,
      "제한": 9678,
      "직원": 9679,
      "진보": 9680,
      "최하": 9681,
      "추잡": 9682,
      "추락": 9683,
      "카드": 9684,
      "크로": 9685,
      "패턴": 9686,
      "환불": 9687,
      "##러리": 9688,
      "##데터": 9689,
      "##디션": 9690,
      "##느님": 9691,
      "##네마": 9692,
      "##작스럽다": 9693,
      "##왕국": 9694,
      "##마르다": 9695,
      "##그다": 9696,
      "##플렉": 9697,
      "##센트": 9698,
      "##얗다": 9699,
      "어지간": 9700,
      "서부극": 9701,
      "인디아나": 9702,
      "바이러스": 9703,
      "♡♡♡": 9704,
      "오리지널": 9705,
      "박해일": 9706,
      "리브스": 9707,
      "초중반": 9708,
      "23": 9709,
      "bbb": 9710,
      "ᆫ단": 9711,
      "가위": 9712,
      "간절": 9713,
      "거시": 9714,
      "고기": 9715,
      "고찰": 9716,
      "기계": 9717,
      "남주": 9718,
      "넓다": 9719,
      "다기": 9720,
      "다수": 9721,
      "다던": 9722,
      "다치다": 9723,
      "덕후": 9724,
      "마초": 9725,
      "맥스": 9726,
      "무적": 9727,
      "미루다": 9728,
      "벌이다": 9729,
      "법칙": 9730,
      "빅뱅": 9731,
      "삽입": 9732,
      "상쾌": 9733,
      "새로": 9734,
      "서방": 9735,
      "수업": 9736,
      "쌓이다": 9737,
      "악몽": 9738,
      "안전": 9739,
      "압박": 9740,
      "여우": 9741,
      "외화": 9742,
      "외다": 9743,
      "우수": 9744,
      "우익": 9745,
      "유오": 9746,
      "육체": 9747,
      "이슈": 9748,
      "장인": 9749,
      "장쯔": 9750,
      "재기": 9751,
      "조쉬": 9752,
      "주체": 9753,
      "춥다": 9754,
      "치명": 9755,
      "코스트": 9756,
      "크로우": 9757,
      "폭파": 9758,
      "한때": 9759,
      "해적": 9760,
      "헐크": 9761,
      "##리칸": 9762,
      "##아라": 9763,
      "##서블": 9764,
      "##의식": 9765,
      "##프리": 9766,
      "##프만": 9767,
      "##연스럽다": 9768,
      "##랑이": 9769,
      "##22": 9770,
      "##문화": 9771,
      "##소니": 9772,
      "##ch": 9773,
      "##으리": 9774,
      "##런스": 9775,
      "##♡♥": 9776,
      "ㅠㅠㅠㅠㅠㅠㅠㅠㅠㅠ": 9777,
      "영상물": 9778,
      "개봉작": 9779,
      "레이싱": 9780,
      "에이리언": 9781,
      "대표작": 9782,
      "기독교인": 9783,
      "신파극": 9784,
      "이성재": 9785,
      "부자연스럽다": 9786,
      "두근거리다": 9787,
      "가져오다": 9788,
      "레인저": 9789,
      "한예슬": 9790,
      "어떡하다": 9791,
      "충무로": 9792,
      "그치만": 9793,
      "버금가다": 9794,
      "조인성": 9795,
      "혹성탈출": 9796,
      "장쯔이": 9797,
      "ㄴㄴ": 9798,
      "건드리다": 9799,
      "검다": 9800,
      "고려": 9801,
      "공산": 9802,
      "구로": 9803,
      "기차": 9804,
      "김하늘": 9805,
      "깔리다": 9806,
      "내공": 9807,
      "녹화": 9808,
      "동일": 9809,
      "동료": 9810,
      "로렌스": 9811,
      "루크": 9812,
      "먼지": 9813,
      "본드": 9814,
      "사연": 9815,
      "서우": 9816,
      "선전": 9817,
      "승화": 9818,
      "시스": 9819,
      "안경": 9820,
      "안젤": 9821,
      "알차다": 9822,
      "옹호": 9823,
      "을걸": 9824,
      "이완": 9825,
      "이범수": 9826,
      "자제": 9827,
      "정성": 9828,
      "조각": 9829,
      "졸음": 9830,
      "종일": 9831,
      "준거": 9832,
      "쥐어": 9833,
      "치열": 9834,
      "침몰": 9835,
      "클린트": 9836,
      "투박": 9837,
      "필수": 9838,
      "한없이": 9839,
      "허준": 9840,
      "허전": 9841,
      "호소": 9842,
      "##어마": 9843,
      "##두근": 9844,
      "##일체": 9845,
      "##아즈": 9846,
      "##아나다": 9847,
      "##무시": 9848,
      "##ㅡㅡ": 9849,
      "##파서블": 9850,
      "##서린": 9851,
      "##ain": 9852,
      "##나미": 9853,
      "##매다": 9854,
      "##지않": 9855,
      "##차기": 9856,
      "##내리다": 9857,
      "##그래": 9858,
      "##틀러": 9859,
      "##메오": 9860,
      "##납다": 9861,
      "ᆫ데요": 9862,
      "그러니까": 9863,
      "에로틱": 9864,
      "ㅋㅋㅋㅋㅋㅋㅋㅋㅋㅋㅋㅋㅋㅋㅋㅋㅋㅋㅋㅋㅋㅋㅋㅋㅋㅋㅋ": 9865,
      "2008": 9866,
      "어린아이": 9867,
      "현대인": 9868,
      "인터스텔라": 9869,
      "유아인": 9870,
      "변호사": 9871,
      "어마어마": 9872,
      "아름다움": 9873,
      "유오성": 9874,
      "코스트너": 9875,
      "95": 9876,
      "감당": 9877,
      "개떡": 9878,
      "건축": 9879,
      "고만": 9880,
      "공상": 9881,
      "괴롭": 9882,
      "구매": 9883,
      "균형": 9884,
      "글다": 9885,
      "까먹다": 9886,
      "는디": 9887,
      "단조": 9888,
      "대리": 9889,
      "딱딱": 9890,
      "르네": 9891,
      "마땅": 9892,
      "매트릭스": 9893,
      "무능": 9894,
      "문명": 9895,
      "미남": 9896,
      "밟다": 9897,
      "버튼": 9898,
      "빼놓다": 9899,
      "사토": 9900,
      "사납다": 9901,
      "살아오다": 9902,
      "서민": 9903,
      "선배": 9904,
      "성향": 9905,
      "소림": 9906,
      "쓰렉": 9907,
      "아야": 9908,
      "악평": 9909,
      "암살": 9910,
      "얼른": 9911,
      "연민": 9912,
      "연쇄": 9913,
      "엽문": 9914,
      "엿보다": 9915,
      "워싱턴": 9916,
      "유작": 9917,
      "일대기": 9918,
      "임파서블": 9919,
      "저버리다": 9920,
      "제미": 9921,
      "제법": 9922,
      "지성": 9923,
      "코엔": 9924,
      "트루": 9925,
      "평정": 9926,
      "한가": 9927,
      "헬기": 9928,
      "휴지": 9929,
      "휴머니": 9930,
      "##스라": 9931,
      "##무니": 9932,
      "##ld": 9933,
      "##가니": 9934,
      "최고봉": 9935,
      "일본어": 9936,
      "재밋게": 9937,
      "어느새": 9938,
      "스타일리쉬": 9939,
      "2001": 9940,
      "2009": 9941,
      "관계자": 9942,
      "적당하다": 9943,
      "아마도": 9944,
      "시원하다": 9945,
      "투자자": 9946,
      "겨울왕국": 9947,
      "으려는": 9948,
      "프레디": 9949,
      "두근두근": 9950,
      "되돌아보다": 9951,
      "지하철": 9952,
      "아메리칸": 9953,
      "잠수함": 9954,
      "하야오": 9955,
      "27": 9956,
      "na": 9957,
      "sn": 9958,
      "갑갑": 9959,
      "개월": 9960,
      "공존": 9961,
      "그놈": 9962,
      "그렇게": 9963,
      "기원": 9964,
      "기쁨": 9965,
      "나약": 9966,
      "넘버": 9967,
      "눈부": 9968,
      "닦다": 9969,
      "달러": 9970,
      "묘미": 9971,
      "무덤": 9972,
      "바끼다": 9973,
      "발생": 9974,
      "복제": 9975,
      "불사": 9976,
      "불꽃": 9977,
      "붉다": 9978,
      "붕괴": 9979,
      "빼앗": 9980,
      "새다": 9981,
      "서세": 9982,
      "소비": 9983,
      "수백": 9984,
      "아랫": 9985,
      "운운": 9986,
      "원빈": 9987,
      "유도": 9988,
      "은은": 9989,
      "점주": 9990,
      "중후": 9991,
      "질투": 9992,
      "쫓다": 9993,
      "찌푸": 9994,
      "참혹": 9995,
      "처참": 9996,
      "철저": 9997,
      "초등": 9998,
      "탕웨이": 9999,
      "택하다": 10000,
      "통일": 10001,
      "판타": 10002,
      "현상": 10003,
      "형성": 10004,
      "흔히": 10005,
      "##리어": 10006,
      "##어놓다": 10007,
      "##재현": 10008,
      "##베이": 10009,
      "##카시": 10010,
      "##타클": 10011,
      "##th": 10012,
      "##ht": 10013,
      "##메다": 10014,
      "##순이": 10015,
      "##젝트": 10016,
      "다가가다": 10017,
      "이나마": 10018,
      "수준급": 10019,
      "미국판": 10020,
      "프로젝트": 10021,
      "2011": 10022,
      "this": 10023,
      "산만하다": 10024,
      "ㅠㅠㅠㅠㅠ": 10025,
      "해리슨": 10026,
      "이민정": 10027,
      "프레데터": 10028,
      "##드라마": 10029,
      "류승범": 10030,
      "줄리엣": 10031,
      "더라고요": 10032,
      "가만히": 10033,
      "눈부시다": 10034,
      "찌푸리다": 10035,
      "97": 10036,
      "ever": 10037,
      "ᆯ란다": 10038,
      "가면": 10039,
      "가사": 10040,
      "각성": 10041,
      "거울": 10042,
      "고고": 10043,
      "그릇": 10044,
      "그룹": 10045,
      "근육": 10046,
      "까메오": 10047,
      "대책": 10048,
      "동아리": 10049,
      "띄우다": 10050,
      "마츠": 10051,
      "명예": 10052,
      "문근": 10053,
      "보장": 10054,
      "보지마": 10055,
      "비유": 10056,
      "사정": 10057,
      "삼국": 10058,
      "신앙": 10059,
      "실존": 10060,
      "알맹이": 10061,
      "알려지다": 10062,
      "어둠": 10063,
      "얽히다": 10064,
      "에니": 10065,
      "옴니버스": 10066,
      "용가리": 10067,
      "우기다": 10068,
      "종말": 10069,
      "좌파": 10070,
      "지도": 10071,
      "카타": 10072,
      "털리다": 10073,
      "페이스": 10074,
      "폭탄": 10075,
      "푸르다": 10076,
      "확신": 10077,
      "회장": 10078,
      "흡사": 10079,
      "히히": 10080,
      "##니어": 10081,
      "##45": 10082,
      "##구석": 10083,
      "##슬기": 10084,
      "##필드": 10085,
      "영화인": 10086,
      "코믹물": 10087,
      "##라이트": 10088,
      "ㅋㅋㅋㅋㅋㅋㅋㅋㅋㅋㅋㅋㅋㅋ": 10089,
      "2002": 10090,
      "120": 10091,
      "모자르다": 10092,
      "##oooooooo": 10093,
      "##1010": 10094,
      "손꼽히다": 10095,
      "엑소시스트": 10096,
      "어벤져스": 10097,
      "문근영": 10098,
      "bl": 10099,
      "ne": 10100,
      "ᆫ들": 10101,
      "각인": 10102,
      "결제": 10103,
      "고래": 10104,
      "공격": 10105,
      "광주": 10106,
      "군데": 10107,
      "그로": 10108,
      "뇌리": 10109,
      "다듬다": 10110,
      "다문화": 10111,
      "당최": 10112,
      "더구": 10113,
      "독재": 10114,
      "독백": 10115,
      "동원": 10116,
      "동방": 10117,
      "되새": 10118,
      "뚜렷": 10119,
      "롯데": 10120,
      "리스트": 10121,
      "망신": 10122,
      "멋대로": 10123,
      "몰래": 10124,
      "몸부림": 10125,
      "물질": 10126,
      "박지": 10127,
      "서영": 10128,
      "스칼": 10129,
      "신은경": 10130,
      "안나": 10131,
      "앓다": 10132,
      "어딨": 10133,
      "엑스트라": 10134,
      "연구": 10135,
      "요란": 10136,
      "원맨": 10137,
      "원제": 10138,
      "유희": 10139,
      "으으": 10140,
      "이주": 10141,
      "작업": 10142,
      "제도": 10143,
      "졸립다": 10144,
      "차기": 10145,
      "최저": 10146,
      "캐서린": 10147,
      "콧물": 10148,
      "크리": 10149,
      "태극": 10150,
      "페이지": 10151,
      "평이": 10152,
      "표본": 10153,
      "프렌": 10154,
      "한물": 10155,
      "함정": 10156,
      "호평": 10157,
      "화해": 10158,
      "황제": 10159,
      "후유": 10160,
      "훼손": 10161,
      "흥겹다": 10162,
      "희극": 10163,
      "히치": 10164,
      "##하니": 10165,
      "##하면": 10166,
      "##무비": 10167,
      "##장난": 10168,
      "##op": 10169,
      "##르시스": 10170,
      "##all": 10171,
      "##루니": 10172,
      "##쟁이": 10173,
      "##셉션": 10174,
      "연기파": 10175,
      "그리스": 10176,
      "아이리스": 10177,
      "자신감": 10178,
      "##재밋다": 10179,
      "스포일러": 10180,
      "조선족": 10181,
      "##ent": 10182,
      "시스템": 10183,
      "쥐어짜다": 10184,
      "괴롭히다": 10185,
      "휴머니즘": 10186,
      "서세원": 10187,
      "스칼렛": 10188,
      "어딨다": 10189,
      "88": 10190,
      "up": 10191,
      "ㅅㅅ": 10192,
      "강시": 10193,
      "결투": 10194,
      "경쟁": 10195,
      "고도": 10196,
      "고로": 10197,
      "고은": 10198,
      "교차": 10199,
      "근거": 10200,
      "김강": 10201,
      "나여": 10202,
      "나아가다": 10203,
      "날다": 10204,
      "높이": 10205,
      "대구": 10206,
      "대가": 10207,
      "대만": 10208,
      "동급": 10209,
      "라던": 10210,
      "리플": 10211,
      "마술": 10212,
      "만지다": 10213,
      "매회": 10214,
      "머피": 10215,
      "무미": 10216,
      "미지": 10217,
      "박자": 10218,
      "발톱": 10219,
      "발휘": 10220,
      "백만": 10221,
      "삐다": 10222,
      "삼가": 10223,
      "샤이": 10224,
      "선교": 10225,
      "세이": 10226,
      "스치다": 10227,
      "아따": 10228,
      "알리": 10229,
      "압축": 10230,
      "야지": 10231,
      "어줍": 10232,
      "연계": 10233,
      "이영화": 10234,
      "인셉션": 10235,
      "자질": 10236,
      "전무": 10237,
      "정글": 10238,
      "제리": 10239,
      "조리": 10240,
      "조성": 10241,
      "진솔": 10242,
      "추적": 10243,
      "충만": 10244,
      "토이": 10245,
      "토마스": 10246,
      "특성": 10247,
      "퍼스": 10248,
      "플래": 10249,
      "하필": 10250,
      "하얗다": 10251,
      "핵심": 10252,
      "행운": 10253,
      "혼나다": 10254,
      "희한": 10255,
      "##현정": 10256,
      "##ul": 10257,
      "##오오": 10258,
      "##패스": 10259,
      "##통수": 10260,
      "##브이": 10261,
      "##워커": 10262,
      "##간이": 10263,
      "##볼타": 10264,
      "##윌리스": 10265,
      "##ㅗㅗ": 10266,
      "어떻게": 10267,
      "실망감": 10268,
      "재밋고": 10269,
      "출연료": 10270,
      "시즌2": 10271,
      "가치관": 10272,
      "크리스틴": 10273,
      "어찌나": 10274,
      "스트립": 10275,
      "무게감": 10276,
      "하여금": 10277,
      "영구와": 10278,
      "민주주의": 10279,
      "고소영": 10280,
      "신민아": 10281,
      "이선균": 10282,
      "오토바이": 10283,
      "자존심": 10284,
      "##지않다": 10285,
      "naver": 10286,
      "원맨쇼": 10287,
      "히치콕": 10288,
      "김강우": 10289,
      "la": 10290,
      "강우": 10291,
      "개미": 10292,
      "걸레": 10293,
      "과제": 10294,
      "기묘": 10295,
      "기르다": 10296,
      "꾸준": 10297,
      "끝장": 10298,
      "도박": 10299,
      "뒤통수": 10300,
      "디지": 10301,
      "라디오": 10302,
      "리들리": 10303,
      "맘대로": 10304,
      "멍하다": 10305,
      "모건": 10306,
      "몰아": 10307,
      "물리": 10308,
      "발하다": 10309,
      "병사": 10310,
      "뽀로로": 10311,
      "사소": 10312,
      "서서": 10313,
      "선입": 10314,
      "수애": 10315,
      "수단": 10316,
      "수호": 10317,
      "스님": 10318,
      "스캔": 10319,
      "스탤": 10320,
      "아키": 10321,
      "안목": 10322,
      "앨런": 10323,
      "에반": 10324,
      "오싹": 10325,
      "은행": 10326,
      "이슬": 10327,
      "이틀": 10328,
      "일드": 10329,
      "자아내다": 10330,
      "작살": 10331,
      "재일": 10332,
      "제인": 10333,
      "조커": 10334,
      "중구": 10335,
      "중세": 10336,
      "지능": 10337,
      "직전": 10338,
      "진구": 10339,
      "차지": 10340,
      "처먹다": 10341,
      "천하": 10342,
      "초심": 10343,
      "최종": 10344,
      "키다": 10345,
      "터무니": 10346,
      "털다": 10347,
      "팔마": 10348,
      "팬심": 10349,
      "퍼지다": 10350,
      "포드": 10351,
      "피우다": 10352,
      "필모": 10353,
      "헌터": 10354,
      "헤헤": 10355,
      "##일으키다": 10356,
      "##스미스": 10357,
      "##블리": 10358,
      "##el": 10359,
      "##포드": 10360,
      "##드벤": 10361,
      "##에르": 10362,
      "##버트": 10363,
      "##여정": 10364,
      "##ㅉㅉ": 10365,
      "##킨스": 10366,
      "##듣다": 10367,
      "에서부터": 10368,
      "일본식": 10369,
      "궁금증": 10370,
      "불쌍하다": 10371,
      "그림자": 10372,
      "으려나": 10373,
      "와이어": 10374,
      "이동욱": 10375,
      "이승기": 10376,
      "이종석": 10377,
      "모니터": 10378,
      "윌리엄스": 10379,
      "불러일으키다": 10380,
      "지진희": 10381,
      "최진실": 10382,
      "스마트": 10383,
      "서인국": 10384,
      "거시기": 10385,
      "판타스틱": 10386,
      "카타르시스": 10387,
      "후유증": 10388,
      "스탤론": 10389,
      "an": 10390,
      "tr": 10391,
      "ᆸ시오": 10392,
      "가문": 10393,
      "간신": 10394,
      "갈다": 10395,
      "고마": 10396,
      "고현정": 10397,
      "귀하다": 10398,
      "글로": 10399,
      "기부": 10400,
      "김보": 10401,
      "깜찍": 10402,
      "나아지다": 10403,
      "눌다": 10404,
      "단막": 10405,
      "대변": 10406,
      "도로": 10407,
      "돌려주다": 10408,
      "동의": 10409,
      "든데": 10410,
      "디비": 10411,
      "랍시고": 10412,
      "마련": 10413,
      "만만": 10414,
      "맞먹다": 10415,
      "매튜": 10416,
      "맥어": 10417,
      "맥아": 10418,
      "며칠": 10419,
      "명곡": 10420,
      "목표": 10421,
      "못지않다": 10422,
      "받치다": 10423,
      "방어": 10424,
      "벌레": 10425,
      "베다": 10426,
      "변명": 10427,
      "사막": 10428,
      "성질": 10429,
      "속상하다": 10430,
      "슈스케": 10431,
      "스탈": 10432,
      "스탭": 10433,
      "슬로우": 10434,
      "신동": 10435,
      "신들리다": 10436,
      "쌍욕": 10437,
      "써먹다": 10438,
      "쏠쏠": 10439,
      "쓰나미": 10440,
      "아르": 10441,
      "아휴": 10442,
      "약속": 10443,
      "약자": 10444,
      "어메이": 10445,
      "언더": 10446,
      "에스": 10447,
      "에너지": 10448,
      "엠씨": 10449,
      "여진": 10450,
      "완결": 10451,
      "위치": 10452,
      "유역": 10453,
      "으므로": 10454,
      "의아": 10455,
      "이라": 10456,
      "자전": 10457,
      "전통": 10458,
      "제레": 10459,
      "조디": 10460,
      "조재현": 10461,
      "주식": 10462,
      "초콜": 10463,
      "최지우": 10464,
      "충동": 10465,
      "크레이": 10466,
      "파멸": 10467,
      "팬티": 10468,
      "폴워커": 10469,
      "하우스": 10470,
      "한결": 10471,
      "호프만": 10472,
      "홍수": 10473,
      "황진": 10474,
      "회복": 10475,
      "후진": 10476,
      "##일드": 10477,
      "##하트": 10478,
      "##스레": 10479,
      "##생활": 10480,
      "##기스": 10481,
      "##이드": 10482,
      "##부족": 10483,
      "##릴라": 10484,
      "##계상": 10485,
      "##달다": 10486,
      "##비안": 10487,
      "##db": 10488,
      "##동대": 10489,
      "##칠이": 10490,
      "스토리텔": 10491,
      "감독판": 10492,
      "시리즈물": 10493,
      "사다코": 10494,
      "주제가": 10495,
      "충분하다": 10496,
      "케이스": 10497,
      "2007": 10498,
      "흘러나오다": 10499,
      "김수로": 10500,
      "not": 10501,
      "유행어": 10502,
      "what": 10503,
      "여고괴담": 10504,
      "트라볼타": 10505,
      "기승전결": 10506,
      "끊임없이": 10507,
      "서서히": 10508,
      "선입견": 10509,
      "단막극": 10510,
      "감싸다": 10511,
      "강철": 10512,
      "건물": 10513,
      "공리": 10514,
      "구리": 10515,
      "날로": 10516,
      "누리다": 10517,
      "달려가다": 10518,
      "닳다": 10519,
      "당췌": 10520,
      "돌아다니다": 10521,
      "린치": 10522,
      "마니아": 10523,
      "모래": 10524,
      "모처럼": 10525,
      "미만": 10526,
      "미친": 10527,
      "발암": 10528,
      "블레이드": 10529,
      "산드라": 10530,
      "성지": 10531,
      "수영": 10532,
      "수퍼": 10533,
      "숭고": 10534,
      "실체": 10535,
      "어깨": 10536,
      "어드벤": 10537,
      "역부족": 10538,
      "오디션": 10539,
      "우마": 10540,
      "유기": 10541,
      "유전": 10542,
      "윤계상": 10543,
      "이시": 10544,
      "이면": 10545,
      "자료": 10546,
      "자칫": 10547,
      "작작": 10548,
      "잡스": 10549,
      "재판": 10550,
      "좌절": 10551,
      "주장": 10552,
      "줄줄": 10553,
      "진출": 10554,
      "째다": 10555,
      "찍히다": 10556,
      "천박": 10557,
      "쳐다보다": 10558,
      "친하다": 10559,
      "쿠삭": 10560,
      "토미": 10561,
      "파고": 10562,
      "패닝": 10563,
      "퍼펙트": 10564,
      "편히": 10565,
      "필립": 10566,
      "흐흐": 10567,
      "##니발": 10568,
      "##이키다": 10569,
      "##키오": 10570,
      "##피니": 10571,
      "##ra": 10572,
      "##보비치": 10573,
      "##오래": 10574,
      "##사와": 10575,
      "##각기": 10576,
      "##동석": 10577,
      "##세이": 10578,
      "##돌이": 10579,
      "##버리": 10580,
      "##런지": 10581,
      "##책감": 10582,
      "##총사": 10583,
      "한국말": 10584,
      "완벽히": 10585,
      "으니깐": 10586,
      "집중력": 10587,
      "훈훈하다": 10588,
      "황당하다": 10589,
      "로맨틱하다": 10590,
      "우울증": 10591,
      "##ant": 10592,
      "책임감": 10593,
      "140": 10594,
      "이정현": 10595,
      "브루스윌리스": 10596,
      "파워레인": 10597,
      "으리으리": 10598,
      "사이코패스": 10599,
      "죄송하다": 10600,
      "피터팬": 10601,
      "스펙타클": 10602,
      "집어넣다": 10603,
      "무서움": 10604,
      "도입부": 10605,
      "다케시": 10606,
      "샤를리즈": 10607,
      "되새기다": 10608,
      "스캔들": 10609,
      "맥어보이": 10610,
      "어메이징": 10611,
      "cf": 10612,
      "or": 10613,
      "ᆫ겨": 10614,
      "ㅁㅊ": 10615,
      "강도": 10616,
      "개독": 10617,
      "거침": 10618,
      "골든": 10619,
      "곱다": 10620,
      "관념": 10621,
      "그딴": 10622,
      "기막": 10623,
      "김재": 10624,
      "김래": 10625,
      "노라": 10626,
      "노트": 10627,
      "눈뜨다": 10628,
      "느끼": 10629,
      "두뇌": 10630,
      "땡칠이": 10631,
      "뜯다": 10632,
      "로다": 10633,
      "마피아": 10634,
      "매년": 10635,
      "무심": 10636,
      "무려": 10637,
      "박하": 10638,
      "발차기": 10639,
      "뵈다": 10640,
      "비웃": 10641,
      "사례": 10642,
      "성폭": 10643,
      "소원": 10644,
      "송중": 10645,
      "수식": 10646,
      "수지": 10647,
      "식당": 10648,
      "심은": 10649,
      "쌍둥이": 10650,
      "씨네": 10651,
      "아트": 10652,
      "아날": 10653,
      "어의": 10654,
      "어필": 10655,
      "어쨋": 10656,
      "여실히": 10657,
      "워킹": 10658,
      "웨슬리": 10659,
      "이스라": 10660,
      "인공": 10661,
      "자녀": 10662,
      "잭맨": 10663,
      "적합": 10664,
      "정답": 10665,
      "제공": 10666,
      "좁다": 10667,
      "종북": 10668,
      "지연": 10669,
      "짐작": 10670,
      "철저히": 10671,
      "추상": 10672,
      "취미": 10673,
      "캡틴": 10674,
      "타입": 10675,
      "탈락": 10676,
      "테스트": 10677,
      "트와": 10678,
      "편지": 10679,
      "푸하하": 10680,
      "허니": 10681,
      "헌신": 10682,
      "화내다": 10683,
      "##어가다": 10684,
      "##일라": 10685,
      "##하루": 10686,
      "##기리": 10687,
      "##도록": 10688,
      "##데기": 10689,
      "##ust": 10690,
      "##uck": 10691,
      "##pt": 10692,
      "##hh": 10693,
      "##막스": 10694,
      "##공주": 10695,
      "다면서": 10696,
      "결혼식": 10697,
      "ㅇㅇㅇ": 10698,
      "기술력": 10699,
      "올드만": 10700,
      "하여튼": 10701,
      "##ight": 10702,
      "사로잡다": 10703,
      "제레미": 10704,
      "스토리텔링": 10705,
      "기막히다": 10706,
      "김래원": 10707,
      "송중기": 10708,
      "심은하": 10709,
      "아날로그": 10710,
      "어쨋든": 10711,
      "이스라엘": 10712,
      "ro": 10713,
      "vod": 10714,
      "we": 10715,
      "ᆷ다": 10716,
      "ㅅㄱ": 10717,
      "간접": 10718,
      "강박": 10719,
      "개꿀잼": 10720,
      "건조": 10721,
      "공각기": 10722,
      "관광": 10723,
      "광해": 10724,
      "권리": 10725,
      "권선": 10726,
      "근본": 10727,
      "깨어나다": 10728,
      "끊어지다": 10729,
      "단계": 10730,
      "대처": 10731,
      "대형": 10732,
      "도구": 10733,
      "돌이키다": 10734,
      "맛보다": 10735,
      "맞서다": 10736,
      "맺다": 10737,
      "무장": 10738,
      "묶다": 10739,
      "박용": 10740,
      "박하다": 10741,
      "발악": 10742,
      "방울": 10743,
      "방학": 10744,
      "배슬기": 10745,
      "뱉다": 10746,
      "보상": 10747,
      "봉준호": 10748,
      "분열": 10749,
      "빠순이": 10750,
      "사자": 10751,
      "삼총사": 10752,
      "서기": 10753,
      "솜씨": 10754,
      "수학": 10755,
      "스폰": 10756,
      "스탠": 10757,
      "스카이": 10758,
      "슴다": 10759,
      "신뢰": 10760,
      "쓰리": 10761,
      "쓰잘": 10762,
      "악인": 10763,
      "야수": 10764,
      "얄팍": 10765,
      "양산": 10766,
      "어긋": 10767,
      "원망": 10768,
      "유대": 10769,
      "이론": 10770,
      "인증": 10771,
      "일방": 10772,
      "재회": 10773,
      "정적": 10774,
      "정유미": 10775,
      "제주": 10776,
      "종종": 10777,
      "죄책감": 10778,
      "주민": 10779,
      "지속": 10780,
      "지난": 10781,
      "쪽바리": 10782,
      "차인": 10783,
      "청순": 10784,
      "치닫다": 10785,
      "큰일": 10786,
      "통틀다": 10787,
      "튀기다": 10788,
      "파티": 10789,
      "해설": 10790,
      "형태": 10791,
      "흐리다": 10792,
      "##두나": 10793,
      "##파리": 10794,
      "##이치": 10795,
      "##치기": 10796,
      "##미니": 10797,
      "##us": 10798,
      "##ak": 10799,
      "##나무": 10800,
      "##타임": 10801,
      "##은혜": 10802,
      "##넬리": 10803,
      "##난방": 10804,
      "##새끼": 10805,
      "드라마틱": 10806,
      "그래두": 10807,
      "196": 10808,
      "2006": 10809,
      "##ore": 10810,
      "결과물": 10811,
      "전투기": 10812,
      "최대한": 10813,
      "동성애자": 10814,
      "1980": 10815,
      "알아듣다": 10816,
      "관대하다": 10817,
      "유승준": 10818,
      "파트너": 10819,
      "클라이막스": 10820,
      "소방관": 10821,
      "아일랜드": 10822,
      "유해진": 10823,
      "보지마셈": 10824,
      "어줍잖다": 10825,
      "중구난방": 10826,
      "신동엽": 10827,
      "트와일라": 10828,
      "공각기동대": 10829,
      "어긋나다": 10830,
      "차인표": 10831,
      "26": 10832,
      "45": 10833,
      "4000": 10834,
      "kt": 10835,
      "lt": 10836,
      "zzz": 10837,
      "ㅇㅅ": 10838,
      "감우성": 10839,
      "건달": 10840,
      "근친": 10841,
      "기운": 10842,
      "김소": 10843,
      "녹음": 10844,
      "논란": 10845,
      "농락": 10846,
      "늘어놓다": 10847,
      "다며": 10848,
      "대세": 10849,
      "도가니": 10850,
      "독도": 10851,
      "동경": 10852,
      "동참": 10853,
      "들이": 10854,
      "똥칠": 10855,
      "뚫다": 10856,
      "로얄": 10857,
      "매치": 10858,
      "메릴": 10859,
      "모드": 10860,
      "무성": 10861,
      "민영": 10862,
      "바비": 10863,
      "박상": 10864,
      "배두나": 10865,
      "보수": 10866,
      "부류": 10867,
      "불우": 10868,
      "브라이": 10869,
      "비리": 10870,
      "비틀": 10871,
      "비긴": 10872,
      "뿌리": 10873,
      "산업": 10874,
      "생뚱": 10875,
      "셜록": 10876,
      "소속": 10877,
      "스파": 10878,
      "시바": 10879,
      "씨리즈": 10880,
      "안드로": 10881,
      "암시": 10882,
      "어어": 10883,
      "예정": 10884,
      "오열": 10885,
      "오죽": 10886,
      "오줌": 10887,
      "왕따": 10888,
      "요한": 10889,
      "요보비치": 10890,
      "욕설": 10891,
      "우베": 10892,
      "웨스턴": 10893,
      "윌스미스": 10894,
      "유니": 10895,
      "유산": 10896,
      "윤리": 10897,
      "의존": 10898,
      "이문": 10899,
      "인지": 10900,
      "인칭": 10901,
      "인피니": 10902,
      "입가": 10903,
      "잉여": 10904,
[...]
